#version: 0.2
t h
th e</w>
i n
a n
r e
t i
e n
o n
e r
o f</w>
o n</w>
a r
t o</w>
o u
o r
e d</w>
an d</w>
in g</w>
s t
e s</w>
i n</w>
i t
i s</w>
r o
e r</w>
m en
e c
ti on</w>
a l
s i
a t</w>
i l
a l</w>
a t
i c
o r</w>
h a
o m
v e</w>
l y</w>
s u
a c
i s
p ro
men t</w>
d e
th at</w>
e s
p l
a tion</w>
a n</w>
c on
c h
u n
p o
a d
e l
n o
a s
f or</w>
v er
on g</w>
t s</w>
w h
b l
a s</w>
e n</w>
c om
r i
c i
u r
il l</w>
b e</w>
e m
c e</w>
l e
ti on
u s
v i
l d</w>
p re
i t</w>
th e
e x
o p
ar e</w>
g o
th is</w>
t a
r a
l a
en t</w>
w ill</w>
b e
no t</w>
er s</w>
s h
l i
d i
ou ld</w>
f or
s p
ha ve</w>
ou n
m a
w e</w>
d u
b y</w>
l o
ver n
go vern
a g
m o
f f
w it
si d
wit h</w>
it y</w>
n e
q u
govern ment</w>
p or
s ec
p ar
p u
ha s</w>
tion s</w>
i m
t r
s e
at e</w>
ar y</w>
o l
i c</w>
st r
p e
er e</w>
m e
bl e</w>
t ed</w>
th er</w>
a p
b u
s o</w>
s a
c oun
' s</w>
i r
t er
u l
w or
h ong</w>
k ong</w>
p er
ou r</w>
i g
s t</w>
s e</w>
y e
es e</w>
m in
m e</w>
pl e</w>
al l</w>
com m
ch in
m r</w>
i r</w>
ti ve</w>
t e
ou t</w>
s er
d ing</w>
a b
an ce</w>
v e
t y</w>
d s</w>
k e</w>
o w
sh ould</w>
a r</w>
em b
f ro
fro m</w>
a y</w>
c h</w>
re c
pre sid
re n
presid ent</w>
du c
t h</w>
an y</w>
v er</w>
t ing</w>
the ir</w>
a m
ic h</w>
re t
c an</w>
it s</w>
pe o
po s
v el
t w
peo ple</w>
pu bl
wh ich</w>
t er</w>
un d
m emb
w ould</w>
si on</w>
ti es</w>
p r
ser v
al ly</w>
re g
t o
re d</w>
ti c
men ts</w>
s o
the y</w>
in c
f e
on e</w>
al so</w>
1 9
m ad
om e</w>
m or
f in
ou r
l ic
de vel
g e</w>
an t</w>
pre s
us t</w>
d is
th ere</w>
be en</w>
us e</w>
w as</w>
t ur
i f</w>
publ ic</w>
i d</w>
g h
t u
a m</w>
es s</w>
le g
or d
at ed</w>
sec ret
a ble</w>
in g
bu t</w>
memb ers</w>
c o
chin a</w>
t en
f ac
a men
por t</w>
mor e</w>
pro vi
devel op
th ese</w>
ec t</w>
re as
h o
k ing</w>
secret ary</w>
o ther</w>
re s
ff ic
d ed</w>
ci l</w>
coun cil</w>
tion al</w>
g e
c e
con t
e m</w>
vi e
i st
a f
su p
ci al</w>
serv ic
c er
m ar
po lic
on s</w>
u s</w>
a tions</w>
ar d</w>
i z
u m
b o
i es</w>
s ti
su r
su ch</w>
on om
g r
i e
re s</w>
k s</w>
ne w</w>
h e
ou s</w>
no w</w>
d o</w>
p en
ec onom
as t</w>
pl e
for m
ec i
es s
ver y</w>
19 9
s ch
s ome</w>
p a
k e
u d
u p</w>
en ce</w>
l e</w>
n a
h e</w>
re sp
m an
ar s</w>
b il
d o
ti me</w>
for e</w>
on ly</w>
c es</w>
f u
su b
s y
v en</w>
develop ment</w>
amen d
f i
v ed</w>
pl o
st an
sa id</w>
tw o</w>
p ri
ag e</w>
f ir
op er
po in
comm it
por t
ou s
b ill</w>
ma y</w>
pro pos
ye ar</w>
g i
d ay</w>
a u
n o</w>
m on
o d</w>
qu es
re e</w>
w el
b ec
ig h
in ter
g u
d e</w>
v en
g h</w>
ou gh</w>
sy st
ab out</w>
at es</w>
0 0</w>
em plo
t ec
t ly</w>
l u
a d</w>
und er</w>
leg is
al s</w>
is su
wh o</w>
ye ars</w>
ad min
su l
c ha
v ing</w>
m ust</w>
pro bl
i str
t e</w>
chin ese</w>
m y</w>
ac h
w ere</w>
e ver</w>
wh at</w>
c en
commit te
wor k</w>
a in
or s</w>
w i
ch an
f o
tur e</w>
c or
par t
h is</w>
w a
e st
t ri
en ts</w>
g en
wh en</w>
u c
ma in
mad e</w>
m any</w>
c a
inc reas
mad am</w>
or y</w>
at e
is e</w>
gh t</w>
lo w
istr ation</w>
o ver</w>
committe e</w>
in du
it ed</w>
syst em</w>
sup port</w>
b er</w>
o ffic
econom ic</w>
f a
n ed</w>
m il
ic al</w>
servic es</w>
e duc
o se</w>
amend ment</w>
as s
polic y</w>
u e</w>
af ter</w>
re qu
h ow
con cer
i ties</w>
th in
m is
de part
con sid
ren t</w>
o b
vie w</w>
wh e
str uc
is h
s el
ques tion</w>
la w</w>
t ra
a si
ing s</w>
l and</w>
the m</w>
f un
how ever</w>
r on
es t</w>
tr an
in to</w>
ur e</w>
na tional</w>
ma ke</w>
ord in
l in
im port
fir st</w>
r u
mo tion</w>
l ation</w>
h el
e f
n ing</w>
t al</w>
n um
fin an
y s</w>
ou ra
w s</w>
admin istration</w>
v o
r an
w er</w>
ti c</w>
e en</w>
st s</w>
me e
educ ation</w>
th an</w>
c ri
c our
b el
und er
en ti
sur e</w>
em s</w>
c as
be tw
betw een</w>
whe ther</w>
v es</w>
h an
tr ad
th ose</w>
ow n</w>
at ing</w>
w ay</w>
el ec
resp on
p ly</w>
s in
op e</w>
er al</w>
emplo y
per s
ta ke</w>
in te
tic al</w>
e ff
the re
f ic
m at
ac ti
sec on
g es</w>
g re
thin k</w>
y ing</w>
th or
is h</w>
ta in
in v
li ke</w>
lo c
finan cial</w>
c an
j ec
bec a
in ci
si ons</w>
s it
im pro
sp e
j o
re ad
num ber</w>
c la
par ty</w>
for m</w>
comm un
ap pro
st ri
h ous
sti tu
sp eci
wi th
f ul
di rec
i ous</w>
beca use</w>
re la
so ci
y o
com p
ac e</w>
pl an
ha d</w>
t or</w>
sh i
0 00</w>
a ff
lo g
l ed</w>
un g</w>
m u
h on
there fore</w>
a re
mar ke
w e
o c
au thor
hous ing</w>
ta i
si g
mo st</w>
d er
cont in
ar ds</w>
e ven</w>
yo u</w>
l l</w>
s ed</w>
t ation</w>
per i
ho w</w>
si ble</w>
servic e</w>
ac h</w>
m an</w>
ta in</w>
bu il
en c
a ir
ie ve</w>
tri es</w>
dis c
ne ed</w>
g an
com e</w>
ar ly</w>
r it
po li
th r
se t</w>
coun tries</w>
b us
oper ation</w>
n ec
j ust</w>
ff e
me a
f ur
to day</w>
be fore</w>
ord er</w>
an g</w>
a bl
pro g
st ud
ce p
c ur
par t</w>
pres ent</w>
sch em
e ment</w>
l ing</w>
inte re
h ope</w>
sti ll</w>
li on</w>
w an</w>
th ree</w>
l ar
ti s
h u
or gan
o ver
res s</w>
so cial</w>
depart ment</w>
c u
m s</w>
th en</w>
oun d</w>
ad v
un ited</w>
on g
l at
ordin ance</w>
k ed</w>
fac t</w>
an ts</w>
al ity</w>
in form
wel l</w>
probl em</w>
c ol
or t</w>
issu e</w>
pro f
c le
si r</w>
l s</w>
tec h
he al
sin ce</w>
import ant</w>
requ i
ch ar
be ing</w>
po wer</w>
un i
do es</w>
en vi
ple men
thr ough</w>
in de
propos ed</w>
envi ron
pen d
d eci
a in</w>
b as
str ic
sch o
c ould</w>
d ic
marke t</w>
re ig
su res</w>
po se</w>
tr y</w>
pu t</w>
la tive</w>
i d
pl ic
t re
tai wan</w>
oura ble</w>
si on
di ffe
poin t</w>
d ec
t ro
d a
ag ain
again st</w>
fu l</w>
st e
poli tical</w>
po si
c ar
f ol
increas e</w>
l ast</w>
ic e</w>
ge t</w>
organ iz
legis lative</w>
s en
mea sures</w>
ti m
cen tr
p s</w>
ab il
inform ation</w>
il y</w>
shi p</w>
ta k
commun ity</w>
u ation</w>
fur ther</w>
d ur
pr inci
con sul
secon d</w>
provi de</w>
re le
it e</w>
wor k
fu ture</w>
e l</w>
hon ourable</w>
est abl
ec u
si ve</w>
j ect</w>
inter national</w>
nec ess
il e</w>
b asi
disc us
su m
s ol
p ur
ac t</w>
re sul
cha ir
schem e</w>
can not</w>
en g
trad e</w>
heal th</w>
bo th</w>
gr ou
gen eral</w>
bil ity</w>
re f
ac c
v ar
ex p
in e</w>
ma j
bel ieve</w>
eff ec
dur ing</w>
ve ly</w>
ex ecu
read y</w>
wor ld</w>
i al</w>
de pu
c ul
lo w</w>
in i
igh t</w>
c al
leg al</w>
sec ur
an s</w>
pri v
str y</w>
de mo
u la
u p
u m</w>
t ors</w>
ri gh
indu stry</w>
cont ro
p ast</w>
chair man</w>
sit uation</w>
ag re
gi ven</w>
secur ity</w>
ou t
pro duc
reig n</w>
ve l</w>
bus in
b an
si st
probl ems</w>
in f
us ed</w>
th ing</w>
wh y</w>
e i
consid er</w>
b ri
l an
ex ist
c ap
vie ws</w>
h igh
is m</w>
depu ty</w>
i m</w>
man ag
mo ve</w>
ec ted</w>
pro tec
indu stri
sa me</w>
d ra
st ates</w>
demo c
ie f</w>
de b
fo reign</w>
al ready</w>
concer ned</w>
o k</w>
tran sp
com ple
wh ile</w>
execu tive</w>
d ly</w>
m r
b r
basi c</w>
con duc
abil ity</w>
j u
t al
l ong</w>
ac coun
in ing</w>
econom y</w>
gi ve</w>
g ed</w>
reg i
me di
rele v
necess ary</w>
inc lu
re view</w>
go od</w>
righ ts</w>
is t</w>
ro w
sa fe
19 8
ve st
relev ant</w>
o ff
var ious</w>
pro ce
c re
re port</w>
ch ief</w>
s es</w>
f are</w>
pos sible</w>
v is
se e</w>
stan d
mu ch</w>
b our</w>
our ces</w>
fol low
re l
rela tions</w>
diffe rent</w>
in tro
h ere</w>
s ing</w>
tak en</w>
t ers</w>
le ad
en d</w>
establ ish
en tly</w>
im plemen
c ed</w>
l es</w>
ad di
cla use</w>
tech no
mee ting</w>
ac cor
techno log
ef for
fi ed</w>
comm is
at er</w>
cour se</w>
stan ding</w>
j i
ous ly</w>
con struc
an n
chan ge</w>
sa y</w>
i de
v al
prog ra
st ate</w>
wa ys</w>
ri ght</w>
cas e</w>
an g
p h
ap plic
at t
ful ly</w>
consid er
ne e
ci vi
ex pres
in vest
as k</w>
w ard</w>
polic e</w>
par tic
ig h</w>
wh ere</w>
work ers</w>
loc al</w>
le vel</w>
re pres
th ough</w>
sig n
legis lation</w>
p ass
ow n
e qu
employ ment</w>
r ate</w>
h igh</w>
exist ing</w>
ac cep
contin ue</w>
ac k</w>
ch o
g g
it al</w>
pro mo
sid e</w>
di ffic
diffic ul
e -
ma in</w>
accor ding</w>
com men
ex t</w>
resp ect</w>
cas es</w>
ch il
soci e
ta x</w>
ac tu
st and</w>
ate g
e ar
d re
l ess</w>
are as</w>
maj or</w>
mat ter</w>
me d
priv ate</w>
res ources</w>
r ul
com pe
amend ments</w>
tion ed</w>
hel p</w>
at ten
c ess</w>
busin ess</w>
b en
f am
coun try</w>
di vi
pr is
an s
p p
civi l</w>
ci r
pro per
em p
g a
e ach</w>
gre at</w>
ti ci
t es</w>
ar ran
author ity</w>
sec tor</w>
ter m</w>
l i</w>
inv ol
de m
p er</w>
th er
t el
comp an
enc y</w>
s m
al iz
memb er</w>
si t</w>
w ish</w>
com pl
a v
sp ec
en sure</w>
grou p</w>
progra m
mil lion</w>
f ar</w>
1 0</w>
transp ort</w>
c lo
ex am
manag ement</w>
bec ome</w>
protec tion</w>
ffic i
re sid
c l
socie ty</w>
du ce</w>
ren ce</w>
prof es
poin ted</w>
rec ei
spe a
h ar
contro l</w>
r y</w>
cer tain</w>
k now</w>
med ical</w>
peri od</w>
be t
in ten
environ ment</w>
pr acti
qu ality</w>
ad d
la bour</w>
x in
tra ining</w>
t en</w>
se e
an other</w>
l ong
st ed</w>
port un
op portun
c are</w>
compan ies</w>
2 0
st ren
pl ace</w>
emb er</w>
n or
men tal</w>
ben ef
su c
con di
inclu ding</w>
di stric
stren g
con tr
g row
jec ts</w>
hu a</w>
with out</w>
pl ac
wel fare</w>
reg ul
ate ly</w>
construc tion</w>
ad op
lin e</w>
propos al</w>
ro s
d ings</w>
li m
issu es</w>
sh all</w>
scho ol
b er
o f
con stitu
deb ate</w>
ula r</w>
st af
men tioned</w>
staf f</w>
ma king</w>
centr al</w>
d own</w>
co operation</w>
intere sts</w>
d r</w>
f ic</w>
f t</w>
ac k
di d</w>
d ent</w>
effor ts</w>
ch e
mil it
with in</w>
p ay</w>
en ter
h um
t ary</w>
provi ded</w>
speci al</w>
xin hua</w>
posi tion</w>
ti vely</w>
en d
i l</w>
buil ding</w>
wor king</w>
in stitu
h ol
me ans</w>
sec tion</w>
hel d</w>
ob jec
emplo ye
o p</w>
199 7</w>
sid es</w>
repres en
fac il
for ce</w>
ta ble</w>
democ ra
is ed</w>
bu d
compe ti
s ci
stud y</w>
h en
princi ple</w>
de f
arran ge
le e</w>
plan ning</w>
acti vi
k in
safe ty</w>
air s</w>
milit ary</w>
re a
tic s</w>
nee ds</w>
t ting</w>
b i
activi ties</w>
ti ves</w>
u es</w>
intro duc
aff airs</w>
ab o
wor ks</w>
re ally</w>
d er</w>
to tal</w>
el der
r is
pers on
elder ly</w>
con c
j ing</w>
m i
school s</w>
ter rit
re ly</w>
ou ght</w>
om e
technolog y</w>
g ing</w>
fun d</w>
n ext</w>
j ud
main land</w>
chan ges</w>
b ro
s al
exam ple</w>
cri min
th s</w>
on -
g o</w>
f e</w>
wh ol
ter min
o l</w>
democra tic</w>
as sist
fe w</w>
be i
al low
resul t</w>
bet ter</w>
di es</w>
th ir
spe ec
ap pe
il s</w>
j ap
re e
gr ad
str ateg
f ri
en ing</w>
re por
bei jing</w>
mis s</w>
c y</w>
impro ve</w>
min ist
jo in
si m
respon si
te ach
p tion</w>
as s</w>
e very</w>
i a</w>
as e</w>
u tion</w>
st at
pa y
no w
res ol
r ic
tran s
i fic
st ra
pro jects</w>
vi sit</w>
ho sp
requi re
le t</w>
cer tain
i als</w>
mo ved</w>
n at
ter ms</w>
hum an</w>
ag ain</w>
mon e
la u</w>
depart ments</w>
ap er</w>
bil ls</w>
to o</w>
for ward</w>
w ong</w>
eff ect</w>
op ini
as ked</w>
us es</w>
de red</w>
20 0
distric t</w>
reg ard</w>
ji ang</w>
tur al</w>
ex peri
grow th</w>
ta x
polic ies</w>
sion al</w>
a il
bil lion</w>
commis sion</w>
ex ten
ex pend
expend it
i p
am ong</w>
bas is</w>
pers on</w>
intere st</w>
inde pend
, 000</w>
y u
gen er
appro pri
propos als</w>
bo ard</w>
d ence</w>
add ress</w>
f y</w>
s ome
follow ing</w>
do m</w>
t ory</w>
cur rent</w>
under stand</w>
ac y</w>
reg ar
er ing</w>
de fin
al l
re duc
provi sions</w>
employe es</w>
whol e</w>
or ity</w>
dre n</w>
chil dren</w>
adv an
inde ed</w>
ve ment</w>
re ply</w>
pl es</w>
y oun
tici p
reas on
h ist
po pu
sub ject</w>
h ic
actu ally</w>
fi ve</w>
d y</w>
re mar
ve hic
industri al</w>
contin u
re form</w>
es ti
cir c
iz ed</w>
t ar
proper ty</w>
rel ated</w>
ye t</w>
st age</w>
al though</w>
scho ol</w>
go ing</w>
expendit ure</w>
govern or</w>
ex pl
effec tive</w>
or ies</w>
st ar
ex er
bud get</w>
are a</w>
requi red</w>
fe rence</w>
stud ents</w>
sel f</w>
w ant</w>
fin d</w>
organiz ations</w>
comm er
concer n</w>
pl an</w>
rec ent</w>
regi on</w>
pr ac
or ig
cle ar</w>
ac tion</w>
cour t</w>
i -
ti al</w>
assist ance</w>
am oun
provi sion</w>
e vi
a min
author ities</w>
col le
h al
practi ce</w>
ta king</w>
rec o
cha n</w>
lo ok</w>
ach ie
ag ree</w>
s c
ex amin
han d
ful l</w>
enc oura
re commen
o -
h ome</w>
pro cess</w>
tis h</w>
2 0</w>
pre hen
condi tions</w>
bri tish</w>
v ic
certain ly</w>
offic e</w>
en ces</w>
deci sion</w>
st a
m es</w>
c ent</w>
p aper</w>
con si
c ess
sh or
admin ist
al ways</w>
in form</w>
th us</w>
po l
reas on</w>
ro le</w>
struc ture</w>
d en
com prehen
ans wer</w>
sm all</w>
ud e</w>
se ver
g n
3 0</w>
enti al</w>
elec tion</w>
expres sed</w>
co -
ro ad</w>
speec h</w>
co st</w>
it ing</w>
partic ular</w>
w ar
lar ge</w>
ver s
sup por
ret ur
a ir</w>
a de
ke e
n on-
con sum
fa ir</w>
mee t</w>
orig in
u al</w>
mon it
ri ed</w>
pers ons</w>
par ticip
f our</w>
e v
h im</w>
dem and</w>
amen ded</w>
inc l
ser ious</w>
in dic
stan ces</w>
cor por
invest ment</w>
pris es</w>
thir d</w>
represen ta
fun c
l ec
mon ths</w>
comp any</w>
ti ce</w>
d one</w>
b an</w>
reas ons</w>
o ld</w>
abo ve</w>
st ing</w>
exer c
a tive</w>
addi tion</w>
compl ain
er ship</w>
ffici ent</w>
man power</w>
consul tation</w>
m ec
ex c
c ros
minist er</w>
il ed</w>
su gg
consi dered</w>
appropri ate</w>
b est</w>
in come</w>
mec han
m un
fic ation</w>
ha ving</w>
p i
as soci
k now
inv esti
direc t</w>
mone y</w>
w ater</w>
tim es</w>
se ar
environ mental</w>
d es</w>
es sion</w>
in divi
reason able</w>
de ta
d om
i an</w>
indivi du
poin ts</w>
air port</w>
offic ials</w>
f ig
la ws</w>
up on</w>
h ou
z e</w>
youn g</w>
r us
ri bu
pa ti
- term</w>
ho ld</w>
cont ribu
av ail
investi g
ish ed</w>
colle ag
ne l</w>
sa r</w>
mr .</w>
op en</w>
t un
resid ents</w>
o w</w>
t y
d ate</w>
spea k</w>
enter prises</w>
join t</w>
re pe
su per
h o</w>
re ven
pur pose</w>
circ um
ear li
bas ed</w>
v al</w>
p ing</w>
cle arly</w>
t ow
offic ers</w>
h i
administ ra
consider ation</w>
de termin
j un
ar tic
promo te</w>
m ight</w>
no v
s ing
implemen tation</w>
sa tis
ra p
responsi bility</w>
con fi
y our</w>
li fe</w>
d ou
ir e</w>
ne w
du e</w>
pro ject</w>
h and</w>
ce ment</w>
u res</w>
b al
tain ed</w>
remar ks</w>
com pen
comprehen sive</w>
hal f</w>
da ys</w>
mr s</w>
s ha
accoun t</w>
s po
ser ve</w>
m ig
sel ves</w>
respon sible</w>
administra tive</w>
v ol
devel op</w>
g -
g ra
ti z
earli er</w>
d ge</w>
re ach
over all</w>
prog ress</w>
employ ers</w>
facil ities</w>
program me</w>
si mil
tra ff
traff ic</w>
x i
agre ed</w>
ta ge</w>
circum stances</w>
s mo
conduc t</w>
re li
in st
plac es</w>
ci es</w>
develop ing</w>
d ation</w>
acc ord
o ds</w>
n ess</w>
arrange ments</w>
li ght</w>
char ges</w>
ra ther</w>
ab ly</w>
h er</w>
fam ily</w>
at ors</w>
agre ement</w>
z h
difficul t</w>
at ory</w>
ou th</w>
compen s
f ree
con f
ade qu
avail able</w>
ic es</w>
e ver
fe es</w>
e arly</w>
reven ue</w>
ag o</w>
im p
publ ic
amoun t</w>
vo te</w>
m it</w>
co sts</w>
industri es</w>
er n</w>
po w
d ri
j us
th em
sear ch</w>
ven tion</w>
us ing</w>
colleag ues</w>
rus si
tre at
ra ised</w>
on ce</w>
th an
commer cial</w>
rec ently</w>
atten tion</w>
ac ts</w>
el s</w>
resp ec
form ul
5 0</w>
an ti
p c</w>
tech n
p at
ur ban</w>
comm on</w>
addi tional</w>
high er</w>
import ance</w>
de li
ag es</w>
stand ards</w>
pass ed</w>
p an
conduc ted</w>
iz e</w>
ex change</w>
ca re
le ar
m it
li ving</w>
lo o
buil dings</w>
c ing</w>
bo dy</w>
ever y
1 5</w>
stand ard</w>
establish ed</w>
incl ude</w>
ju ly</w>
f ree</w>
ve ments</w>
sec u
sign ific
e du
de n</w>
se as</w>
popu lation</w>
compens ation</w>
sur ve
so on</w>
pro pose</w>
t or
sch edu
lat er</w>
am es</w>
ra il
main tain</w>
m ary</w>
opportun ities</w>
wor ds</w>
me ly</w>
im mig
increas ed</w>
syst ems</w>
ch ung</w>
sever al</w>
sup ply</w>
d ary</w>
y ed</w>
st ability</w>
par ties</w>
b ur
mun ic
t le</w>
over seas</w>
origin al</w>
cal led</w>
fe el</w>
de al</w>
i ed</w>
speci fic</w>
sh e</w>
recei ved</w>
w om
s -
to ge
plan s</w>
tur n</w>
n er</w>
experi ence</w>
as p
toge ther</w>
ach ieve</w>
ann oun
read ing</w>
br ing</w>
f lat
n s</w>
regar ding</w>
mechan ism</w>
invol ved</w>
ar gu
r e</w>
ass ess
e u
vehic les</w>
b or
require ments</w>
opini on</w>
impro vement</w>
fac e</w>
pos ed</w>
fun ds</w>
z ed</w>
e ly</w>
reg ist
competi tion</w>
en h
le a
ty p
enh ance</w>
ver age</w>
jap an</w>
qu ite</w>
jun e</w>
partic ul
direc tor</w>
def en
b ack</w>
se qu
mat ters</w>
d ents</w>
re duce</w>
m ul
profes sional</w>
ula tions</w>
imp act</w>
flat s</w>
es tim
artic le</w>
our s</w>
ar ri
cap ital</w>
ven ess</w>
w ar</w>
w il
for ces</w>
fa v
ti n</w>
institu tions</w>
pa red</w>
o re
establish ment</w>
st ly</w>
be g
se par
hosp ital</w>
simil ar</w>
ur al</w>
jo b</w>
lan ds</w>
ques tions</w>
te ly</w>
a w
own ers</w>
resul ts</w>
sh ow
suc cess
lo t</w>
min d</w>
du ty</w>
long -term</w>
ac a
re search</w>
lin es</w>
en g</w>
ne ver</w>
fam il
aff ected</w>
ple ment</w>
2 000</w>
m en</w>
z em
h a</w>
uni vers
zem in</w>
le vel
f al
ar m
o th
adop ted</w>
ste p</w>
i tion</w>
offic ial</w>
ric ul
opportun ity</w>
per form
f und
ac tions</w>
reg ulations</w>
f ound</w>
cur ren
exerc ise</w>
su fficient</w>
st ate
reco gn
objec tive</w>
re stric
gu ar
vie w
ca use</w>
y -
pe ace</w>
ra ise</w>
democ r
we e
sin o-
sur ance</w>
w rit
st u
pl ay</w>
car ry</w>
level s</w>
. .
individu al</w>
al low</w>
sup plemen
si x</w>
kin d</w>
re main
l it
p t
organiz ation</w>
tu al</w>
tal ks</w>
gre ater</w>
h k
t ings</w>
ri l</w>
1 2</w>
ap ril</w>
la r</w>
al loc
comple ted</w>
str ong</w>
at s</w>
r ates</w>
dom es
ti veness</w>
un its</w>
complain ts</w>
mar ch</w>
c ity</w>
w est
ren ts</w>
ro o
fri en
con g
rul es</w>
grou ps</w>
per cent</w>
teach ers</w>
provi ding</w>
pri mary</w>
vi sion</w>
k il
im um</w>
u -
sugg es
qu al
ing ly</w>
ain ed</w>
en s</w>
kee p</w>
199 5</w>
an y
difficul ties</w>
it able</w>
domes tic</w>
ini ti
r ad
of f</w>
h op
is ing</w>
appro ach</w>
regul ation</w>
im medi
program mes</w>
car ried</w>
i ri
im plement</w>
er red</w>
ou gh
c al</w>
particul arly</w>
an ces</w>
du res</w>
rail way</w>
proce dures</w>
ap pl
t ment</w>
form s</w>
id enti
e ven
m id
introduc ed</w>
cen tur
rul e</w>
adequ ate</w>
hist ory</w>
them selves</w>
com ing</w>
pow ers</w>
el ess</w>
or ing</w>
confi dence</w>
pr ices</w>
do ing</w>
centur y</w>
defen se</w>
c s
see k</w>
m p
re ti
rec or
inte gr
he ad</w>
b rea
me an
centr e</w>
pol lu
under standing</w>
fi el
west ern</w>
a tional</w>
me th
emp ha
199 9</w>
en for
streng then</w>
me an</w>
wom en</w>
re al</w>
strateg y</w>
reg ards</w>
pu l
pre mi
cla uses</w>
ap poin
pre v
cros s-
legis lat
in spec
ex pen
en able</w>
en ed</w>
s cal
oc cu
lim ited</w>
o log
applic ation</w>
ac ci
199 8</w>
de e
f il
en jo
supplemen tary</w>
ar ing</w>
ag ed</w>
il legal</w>
en cies</w>
v ice</w>
treat ment</w>
do cu
y i
char ge</w>
d ol
mo re
w age</w>
re ad</w>
he ad
v il
c r
accep t</w>
t -
more over</w>
of ten</w>
ec ts</w>
val ue</w>
bo dies</w>
ke y</w>
t on</w>
bu s</w>
es p
h ard</w>
provi des</w>
sig ned</w>
a verage</w>
in ste
de al
fig ures</w>
issu ed</w>
inste ad</w>
dis crimin
th re
coun c
ap ply</w>
ing -
ti tu
dou b
increas ing</w>
produc ts</w>
de le
ci tiz
stat u
mit ted</w>
d ers</w>
posi tive</w>
bro ad
inf lation</w>
elec tions</w>
k -
rela tion
min u
grad u
k es</w>
conc lu
tow ards</w>
d -
ar ies</w>
eu ro
sh ort</w>
ap pointed</w>
ver s</w>
esp eci
especi ally</w>
c am
f -
commis sion
discus sion</w>
t our
sp en
sub stan
mee tings</w>
me t</w>
independ ent</w>
n al</w>
stra it</w>
d r
th ings</w>
reach ed</w>
mis sion</w>
benef its</w>
wa st
nor m
se ly</w>
le ad</w>
oc to
octo ber</w>
tr u
t ent</w>
inf ra
f oun
nat ure</w>
sci enti
i or</w>
ad ju
tain ing</w>
iz ation</w>
princi ples</w>
lead ing</w>
sta tis
elec tr
con nec
it self</w>
th y</w>
se tting</w>
sig n</w>
al ong</w>
pl a
accord ance</w>
r ation</w>
mat er
dra w
aw are</w>
sim ply</w>
scal e</w>
inci dent</w>
l -
ve red</w>
territ ories</w>
pro t
r ise</w>
en ough</w>
pan el</w>
as si
g ge
applic ations</w>
famil ies</w>
d ations</w>
ro w</w>
direc tly</w>
stat us</w>
adv is
pro sp
mon th</w>
low er</w>
associ ation</w>
techn ical</w>
ob vi
un ti
encoura ge</w>
de g
in surance</w>
benef it</w>
mo der
er ous</w>
deg ree</w>
appro ved</w>
oc k</w>
as ed</w>
a vo
pr ice</w>
some thing</w>
sci ence</w>
fac tors</w>
promo ting</w>
person al</w>
oth ers</w>
implemen ted</w>
develop ed</w>
t an
bu rea
pro v
serv ants</w>
secon dary</w>
- -</w>
discus s</w>
at tr
s is</w>
199 6</w>
m a</w>
sol u
d ru
n or</w>
sh ow</w>
in e
s a</w>
produc tion</w>
cl ass</w>
p t</w>
cep t</w>
appe al</w>
le ast</w>
199 4</w>
ann ual</w>
j an
1 8</w>
ist s</w>
schem es</w>
t ally</w>
re serv
unti l</w>
titu de</w>
burea u</w>
re ment</w>
clo se</w>
reg istration</w>
an ese</w>
man u
t ask</w>
g ar
ex per
in d</w>
sp iri
spiri t</w>
on al</w>
en han
1 1</w>
lo b
prac tic
it ation</w>
crimin al</w>
relation ship</w>
retur n</w>
sa ying</w>
ic s</w>
out side</w>
ha pp
statu tory</w>
fo c
elec ted</w>
f ra
me dic
su s</w>
respon se</w>
la un
qu o
exp ected</w>
fo od</w>
w ise</w>
la w
recommen dations</w>
ur ge</w>
un employment</w>
lic en
corpor ation</w>
sub si
th eless</w>
se t
aliz ation</w>
a part</w>
lo s
exp an
op ening</w>
regi onal</w>
manu fac
at eral</w>
s or
at a</w>
su gge
curren tly</w>
e d
ten ants</w>
uni fication</w>
e red</w>
chan ged</w>
se pt
sept ember</w>
than k</w>
requ ire</w>
pen al
democr acy</w>
pay ment</w>
ex tre
de s
employ ed</w>
gr ound</w>
actu al</w>
t ren
repor ts</w>
lead ers</w>
199 1</w>
1 0
wast e</w>
concer ning</w>
u ary</w>
sec tors</w>
tur ing</w>
free dom</w>
intro duce</w>
cla im
em er
ban ks</w>
announ ced</w>
com b
c rit
statis tics</w>
li b
f le
jan uary</w>
crit er
pass eng
monit oring</w>
eng l
t n
ser i
ha ps</w>
cul ture</w>
s outh</w>
ban k</w>
m er
jud ic
che ung</w>
ad ver
maj ority</w>
hou se</w>
territ ory</w>
c lin
sel f-
li a
cour ses</w>
ru n</w>
cor rec
independ ence</w>
per haps</w>
al y
ple ase</w>
k a
contr ac
prot ect</w>
vie tn
be sides</w>
univers ity</w>
medi a</w>
pres s</w>
pati ents</w>
e ful</w>
de leg
ca used</w>
b ed</w>
t res</w>
deta ils</w>
l ect</w>
investig ation</w>
j ames</w>
ac tive</w>
cu st
wil ling</w>
ag ricul
sh are</w>
col lec
200 1</w>
long er</w>
bil ateral</w>
na tion
schedu le</w>
no thing</w>
di st
n ations</w>
s ession</w>
pre ci
se ts</w>
g er
dec lar
bal ance</w>
suc cess</w>
oper ating</w>
gu ide
prev ent</w>
surve y</w>
legislat ure</w>
lib eral</w>
go ti
ne goti
na me</w>
main ly</w>
sen ior</w>
2 5</w>
engl ish</w>
nov ember</w>
au t
c all</w>
sp ace</w>
oper ators</w>
ar ound</w>
b ru
199 2</w>
e ments</w>
cre ate</w>
anti -
jap anese</w>
re main</w>
enfor cement</w>
man ner</w>
pos es</w>
er ity</w>
spo k
pre par
li ke
tu res</w>
cen tres</w>
representa tives</w>
ne ver
f ran
c ad
v ity</w>
ass es</w>
fin al</w>
deci ded</w>
6 0</w>
pa id</w>
frien dly</w>
1 4</w>
proce e
ch eng</w>
no tice</w>
wi de</w>
person nel</w>
jus tice</w>
ne t
cs sa</w>
st ated</w>
ne t</w>
never theless</w>
al ist</w>
trans f
gre at
pa rents</w>
in di
br ought</w>
fir e</w>
mu tual</w>
impro ving</w>
hosp it
form er</w>
pres sure</w>
pur su
establ ish</w>
st er</w>
on e-
prac tical</w>
1 6</w>
fol low</w>
arrange ment</w>
tai l</w>
fund amen
con sist
op s</w>
so -
ha i</w>
reti rement</w>
e ffici
know le
199 3</w>
zh u</w>
russi a</w>
busin ess
bo o
par ag
to ok</w>
adop t</w>
gu ang
el l
minu tes</w>
gener ally</w>
4 0</w>
stu dies</w>
strateg ic</w>
mid d
munic ip
j ob
cul tural</w>
f l
premi er</w>
fin ally</w>
require ment</w>
en ac
k ing
it ors</w>
publ ished</w>
he av
streng th
ch ed</w>
li gh
discus sions</w>
l ack</w>
j our
h om
ei ther</w>
h ours</w>
vi ol
immig ration</w>
e as
ho od</w>
res sed</w>
an aly
perform ance</w>
allow ed</w>
super vision</w>
hist or
lan gu
d ata</w>
t on
satis fac
star t</w>
fur ther
lit tle</w>
ch all
re ference</w>
spea king</w>
ten ance</w>
sol ve</w>
al e</w>
assess ment</w>
bus h</w>
ad ded</w>
1 3</w>
se en</w>
main tenance</w>
yi u-
ch ec
u ti
at titude</w>
ne ws</w>
se ven</w>
pro per</w>
fin ance</w>
b ly</w>
ver si
seri ously</w>
chil d</w>
1 00</w>
po or</w>
prov in
adv ice</w>
com pu
rel ating</w>
buil d</w>
gr an
dec ember</w>
pollu tion</w>
sp or
au g
pos si
increas es</w>
we red</w>
sp ite</w>
mis es</w>
ques t</w>
aff ect</w>
amen d</w>
d ang
com mo
declar ation</w>
pur cha
in ed</w>
for tun
su ff
g er</w>
er ic
tic ally</w>
con ven
ac ity</w>
discus sed</w>
king dom</w>
connec tion</w>
qu ar
opini ons</w>
ch ing</w>
am eric
re unification</w>
il l
l ist</w>
achie ved</w>
re ach</w>
r ong</w>
cri me</w>
le ung</w>
c lar
rap h</w>
f our
1 .
direc tion</w>
w est</w>
oper ations</w>
cust om
to ld</w>
con ference</w>
commission er</w>
le ft</w>
inten tion</w>
d ure</w>
appro val</w>
further more</w>
repor ted</w>
proce dure</w>
comple te</w>
st -
oper ate</w>
mea sure</w>
citiz ens</w>
o od</w>
1 7</w>
tal k</w>
re -
t in
sc ope</w>
ffe red</w>
advan ced</w>
indic ated</w>
hospit als</w>
con sen
signific ant</w>
job s</w>
deta iled</w>
criter ia</w>
g lob
de man
po ten
commun ic
pre vi
la y</w>
asi a</w>
yiu- chung</w>
ne ga
y es</w>
accep table</w>
wa iting</w>
la m</w>
constitu tional</w>
olog ical</w>
op pose</w>
subsi di
w to</w>
ref erred</w>
re aliz
con sequ
parag raph</w>
te red</w>
he ar
t ang</w>
gi ving</w>
b ack
de pen
un g-
care fully</w>
bi g</w>
off er</w>
k w
ide a</w>
t a</w>
discrimin ation</w>
am p</w>
accep ted</w>
f el
effici ency</w>
a tic</w>
su m</w>
pri ority</w>
com es</w>
bo ards</w>
tren d</w>
cor ru
r ying</w>
writ ten</w>
dre w</w>
ri es</w>
istr y</w>
like ly</w>
inter pre
recei ve</w>
co- ordin
adju st
off ence</w>
extre mely</w>
infra structure</w>
effec tively</w>
marke ts</w>
cap acity</w>
ex emp
success ful</w>
re quest</w>
con tain
k ore
facil it
b ran
e ast</w>
e f</w>
dis ci
w rong</w>
no .</w>
it ely</w>
d on
evi dence</w>
dra w</w>
aca dem
medic ine</w>
z e
clo sely</w>
teach ing</w>
consen sus</w>
doub t</w>
resol ution</w>
go ods</w>
str u
reduc tion</w>
w at
li st
u n</w>
our ce</w>
si ze</w>
ex changes</w>
guar an
tr ue</w>
spor ts</w>
se ems</w>
tel l</w>
inf lu
guide lines</w>
bel ie
af ter
expl ain</w>
c ra
vo tes</w>
ic k</w>
prof its</w>
disci pl
advis ory</w>
val u
knowle dge</w>
par ts</w>
o bl
sub stitu
hou se
equ ip
a way</w>
fundamen tal</w>
a id</w>
lea ve</w>
profes sion
secon dly</w>
tar get</w>
re view
ab solu
bur den</w>
p ed</w>
know n</w>
wel come</w>
in ning</w>
mis si
consum er</w>
ve -
g s</w>
f ron
equip ment</w>
committe es</w>
asp ects</w>
hand ling</w>
so ve
i i</w>
regist ered</w>
cad res</w>
counc ils</w>
equ al</w>
cho w</w>
co ver</w>
municip al</w>
oun ds</w>
de fic
pri me</w>
guaran te
pl om
fun g</w>
b rit
a im
oc ca
di plom
com ments</w>
o ther
trad ing</w>
chall en
s ent</w>
sit e</w>
on d</w>
wa h</w>
mo ment</w>
scienti fic</w>
pp ed</w>
ma x
midd le</w>
hol ding</w>
tel evi
t ung</w>
show s</w>
c ateg
thin king</w>
n els</w>
impro ved</w>
en er
ar my</w>
state ment</w>
pro motion</w>
high -
at h</w>
ic k
li ve</w>
no te</w>
in es</w>
h ence</w>
fle xi
is tic</w>
obl ig
introduc tion</w>
tu ally</w>
a st
televi sion</w>
effor t</w>
re sum
pre pared</w>
cir cul
l ected</w>
brit ain</w>
n uc
fun ding</w>
0 ,000</w>
be h
immedi ately</w>
f re
2 4</w>
sh u
reig n
t led</w>
wel l-
ne y</w>
acti vely</w>
ex tent</w>
p e</w>
appoin tment</w>
mul ti
s kil
sugge sted</w>
2 3</w>
langu age</w>
ar ily</w>
cha m
th ought</w>
str ong
beh ind</w>
su itable</w>
sol ution</w>
de si
tr ust</w>
b ar
divi sion</w>
sing le</w>
x ed</w>
sen se</w>
hol ds</w>
de spite</w>
cong ress</w>
aug ust</w>
nuc le
deci sions</w>
reduc ed</w>
vol un
bri ef
a k
struc tural</w>
princi p
pe ac
est ates</w>
ta tions</w>
st ock</w>
r ing</w>
expres s</w>
avo id</w>
re new
ish ing</w>
sal e</w>
prosp erity</w>
sh ang
fe bru
cross- strait</w>
febru ary</w>
other wise</w>
in -
is on</w>
fo re
n ation</w>
t ou
so li
enjo y</w>
dele ting</w>
i fied</w>
loo king</w>
a im</w>
nucle ar</w>
i p</w>
expen ses</w>
inclu ded</w>
att emp
i hood</w>
tour ism</w>
im por
do c
fir m
deli ber
p ack
2 1</w>
n g</w>
govern ments</w>
du ties</w>
as h
ap preci
provi sional</w>
f is
char ac
f requ
d ro
can di
we ap
c ally</w>
hu i</w>
gu ard</w>
dis pu
vi g
func tions</w>
st op</w>
su st
c pc</w>
stri bu
sim ple</w>
est ate</w>
di stribu
af for
impro vements</w>
shang hai</w>
ris k</w>
sugges tions</w>
fa iled</w>
ros s</w>
recor d</w>
fa il
allow ance</w>
sh e
consider ing</w>
asi an</w>
defin itely</w>
con cept</w>
g y</w>
ti fic
foun dation</w>
i fy</w>
co- operation</w>
ta bility</w>
da ma
an drew</w>
. 5</w>
suppor ted</w>
deleg ation</w>
fir m</w>
particip ation</w>
li vel
concer ns</w>
ess ential</w>
un g
pre mises</w>
l ate</w>
norm al</w>
cri bed</w>
st er
fis cal</w>
repres ents</w>
representa tive</w>
heav y</w>
de mon
i de</w>
pp ing</w>
o il</w>
enti re</w>
lim it</w>
w ang</w>
off ences</w>
w u</w>
sc ru
g est</w>
n ur
1 9</w>
t em
invest ors</w>
sa ys</w>
continu ed</w>
ch en</w>
livel ihood</w>
implemen ting</w>
ad ding</w>
ar ms</w>
lic ence</w>
n pc</w>
mar tin</w>
st ree
bil ities</w>
r un
al ism</w>
si vely</w>
ex ce
respon d</w>
b ers</w>
broad ca
tra vel</w>
en ted</w>
da b</w>
lead ership</w>
sit es</w>
secu ri
li es</w>
gen cy</w>
in nov
resid ential</w>
t est</w>
profession als</w>
high ly</w>
cri mes</w>
har bour</w>
en -
wh ite</w>
ber t</w>
re st</w>
obvi ously</w>
so- called</w>
foc us</w>
be half</w>
l ars</w>
c op
monit or</w>
securi ties</w>
spen ding</w>
star ted</w>
per man
k ow
or e</w>
invol ving</w>
com par
h y
commit ment</w>
199 0</w>
requ est
198 8</w>
fe asi
conf lic
ans wered</w>
dol lars</w>
ad d</w>
acci dents</w>
at or</w>
7 0</w>
defin ition</w>
ren tal</w>
technolog ical</w>
ran ge</w>
respec tive</w>
0 s</w>
euro pe
max imum</w>
re lation</w>
kow lo
in a</w>
fe e</w>
effec tiveness</w>
nat ural</w>
al ter
reg ular</w>
histor ical</w>
func tional</w>
de sign
as sets</w>
t ol
tre a
pre c
b it</w>
speci fied</w>
poten tial</w>
inspec tion</w>
examin ation</w>
u su
w ing-
min istry</w>
fiel d</w>
d ong</w>
proper ly</w>
pro b
s an
cu t</w>
be y
de sign</w>
mo ving</w>
fri end
r ural</w>
pur poses</w>
ad s</w>
acc ess</w>
e ight</w>
abl ed</w>
ti ary</w>
estim ated</w>
commit ted</w>
su sp
correc t</w>
achie vements</w>
a -
vil la
disc lo
bey ond</w>
ran ts</w>
facilit ate</w>
c y
tran si
k ers</w>
spe ed</w>
inter nal</w>
europe an</w>
wee k</w>
il o
on es</w>
w ages</w>
sal es</w>
le t
tar ge
al one</w>
al ities</w>
y si
follow s</w>
substitu ting</w>
es day</w>
corru ption</w>
y an</w>
j ur
expl ained</w>
a ud
vo ting</w>
ren ces</w>
t ack
objec tives</w>
ener gy</w>
ter tiary</w>
princip al</w>
pen g</w>
vehic le</w>
ne igh
es sions</w>
is tics</w>
st able</w>
car rying</w>
per cen
develop ments</w>
ca me</w>
en try</w>
public ity</w>
friend ship</w>
dra ft</w>
jo in</w>
j i</w>
inst al
bec om
ic ally</w>
ye ung</w>
ma kes</w>
assi st</w>
co vered</w>
fa ir
aliz ed</w>
f all</w>
see king</w>
ad e</w>
8 0</w>
fra me
he ard</w>
el ig
ha n</w>
elig i
k wong</w>
p as
v ac
ron g
trad i
c o</w>
i ra
whe re
pro secu
see ks</w>
fav our</w>
russi an</w>
uti li
t elec
uni on</w>
nor th</w>
effec ts</w>
c ris
a o</w>
e asi
de ter
de plo
cho ice</w>
19 7
main taining</w>
responsi bilities</w>
com pared</w>
net work</w>
contr act</w>
nee ded</w>
o d
inst ance</w>
af ric
vietn am
deci de</w>
2 2</w>
wh o
y ers</w>
s qu
it ems</w>
d own
perman ent</w>
frame work</w>
f ying</w>
dra f
typ es</w>
al bert</w>
consum ers</w>
ab use</w>
198 9</w>
vietnam ese</w>
a k</w>
vis its</w>
tak es</w>
beg inning</w>
penal ty</w>
aut onom
thr ough
t op
s ou
pl us</w>
up grad
rec ru
fig ure</w>
po sts</w>
strength ening</w>
plac ed</w>
e- h
docu ment</w>
respec tively</w>
exp ect</w>
c c</w>
previ ous</w>
buil t</w>
t own</w>
substan tial</w>
vo c
m ing</w>
un fortun
su me</w>
min imum</w>
a head</w>
ra ti
m ic
deman ds</w>
cri tici
procee dings</w>
basi cally</w>
fin e</w>
sel ina</w>
o ffered</w>
il i
main tained</w>
b it
shor t
yu an</w>
streng th</w>
ch es</w>
p ha
mo ther
transf er</w>
re fu
nega tive</w>
fran ch
ret ra
draw n</w>
f er
conclu sion</w>
accoun tability</w>
academ ic</w>
ser ies</w>
con vic
2 7</w>
no ted</w>
provin ce</w>
fac ing</w>
ong -
sel ling</w>
offic er</w>
sove reign
pr ise</w>
e p
s em
demon str
organiz ed</w>
dru g</w>
meth od</w>
fo rec
d ates</w>
sovereign ty</w>
no on</w>
bran ch</w>
ung ong</w>
comple tely</w>
st ressed</w>
c at
is es</w>
to p</w>
st ance</w>
gu e</w>
sub mitted</w>
every one</w>
pro cess
un it</w>
four th</w>
satis fied</w>
ex pe
2 6</w>
pack age</w>
ag encies</w>
s ound</w>
e th
manufac turing</w>
su n
f igh
deal ing</w>
sugg est</w>
g ence</w>
al most</w>
ref lect</w>
heal thy</w>
fal ungong</w>
cre d
ish es</w>
or ial</w>
ex port</w>
de ath</w>
ac ks</w>
3 1</w>
hand le</w>
han g</w>
be ar</w>
lan d
sp ent</w>
s inc
lar ge
determin ed</w>
ho u</w>
examin e</w>
remain s</w>
ha p
hap pen
eng ine
un able</w>
requi res</w>
rela tively</w>
appl ied</w>
c ru
tr ying</w>
gradu ally</w>
r s</w>
separ ate</w>
con ten
p ac
oc cur
pa ig
er y</w>
ban king</w>
peac eful</w>
y outh</w>
passeng ers</w>
p ass</w>
percen tage</w>
mar g
t s
i ma
fac ts</w>
cam paig
ta m</w>
hom es</w>
soci alist</w>
mo de
ac commo
stru gg
hu ge</w>
vis ed</w>
pr in
po st</w>
reco very</w>
ne x</w>
e t</w>
an nex</w>
re forms</w>
g as</w>
pro por
cri tic
se wage</w>
great ly</w>
typ e</w>
wa it</w>
serv ing</w>
e ase</w>
bas e</w>
ad jour
sti pul
medi um</w>
h er
exper ts</w>
ar i
go al</w>
e u</w>
practi tion
un fair</w>
re ality</w>
tun nel</w>
los s</w>
th ly</w>
absolu tely</w>
resol ve</w>
scru tin
pre vention</w>
ob tain</w>
198 6</w>
constitu ency</w>
ti vity</w>
broadca sting</w>
telec om
skil ls</w>
b oun
se a</w>
practic es</w>
happ y</w>
att or
telecom munic
as ks</w>
spok es
al o
m y
after noon</w>
judic ial</w>
ho c</w>
contr acts</w>
any thing</w>
ag end
c el
sugges tion</w>
de st
coun ter
fiel ds</w>
diffe rence</w>
as king</w>
spec tive</w>
suppor ts</w>
ra id</w>
inc or
gr ounds</w>
to tally</w>
tax ation</w>
ord ers</w>
s l
attor ney</w>
shor tage</w>
compu ter</w>
in tel
m asses</w>
comple tion</w>
un less</w>
serv ed</w>
att ach
proce ed</w>
m ass</w>
jus ti
er ate</w>
a i
t ong</w>
renew al</w>
profes sion</w>
pro hi
roo m</w>
fac ed</w>
alloc ation</w>
st ay</w>
m aca
form ed</w>
agend a</w>
distric ts</w>
arm ed</w>
advan ta
ne g
educ ational</w>
sub mit</w>
n ine</w>
in s</w>
no ise</w>
dis abled</w>
t le
hop es</w>
ch ance</w>
atten ded</w>
alter na
safe guard</w>
h es</w>
di ed</w>
ste ps</w>
chan ging</w>
an tly</w>
fa res</w>
b order</w>
rad i
198 7</w>
smo king</w>
pati ent</w>
strong ly</w>
tem por
2 .
agricul tural</w>
le ong</w>
b ound</w>
resum ption</w>
rong ji</w>
2 8</w>
sub sequ
ir ing</w>
is land</w>
i ther</w>
ra ising</w>
prob ably</w>
dang erous</w>
vol u
suppor ting</w>
satisfac tory</w>
da ily</w>
dri vers</w>
possi bility</w>
ye ster
li ber
missi le</w>
gran ted</w>
lo ans</w>
exc ell
consist ent</w>
adjust ment</w>
qu ick
ne ither</w>
te am</w>
diplom atic</w>
g one</w>
enti rely</w>
vic ti
p al
weap ons</w>
sh own</w>
por ts</w>
ev ent</w>
st ress</w>
de tail</w>
yester day</w>
condi tion</w>
g ent</w>
em ily</w>
t ants</w>
fe el
f ight</w>
contribu tions</w>
a vi
sing a
vo ted</w>
at ri
contro l
r ich</w>
re development</w>
cre ated</w>
ac qu
m ess
ex plo
lead er</w>
import ation</w>
fir stly</w>
pro duce</w>
f r
pre ven
guarante e</w>
gre en</w>
sel ec
chan nels</w>
al le
lear n</w>
char ged</w>
st re
gra ph
s cen
inci dents</w>
regi ons</w>
cris is</w>
mother land</w>
mee ts</w>
shi ps</w>
regar ded</w>
la m
kowlo on</w>
charac ter
ke pt</w>
ch i-
con serv
pay ments</w>
arri ved</w>
ph ysi
licen sing</w>
brea k
or i
e fficient</w>
cer tific
ti en</w>
num bers</w>
glob al</w>
employ er</w>
emer gency</w>
pris on
b ig
5 00</w>
sen ten
bel ow</w>
n ers</w>
docu ments</w>
d c</w>
cham ber</w>
own ership</w>
is ms</w>
competi tiveness</w>
se ats</w>
p us
ad voc
ad ap
st ation</w>
sec ution</w>
hol ders</w>
volun tary</w>
tim ate</w>
bus es</w>
r ound</w>
re al
w an
pi ec
meth ods</w>
me rely</w>
lear ning</w>
ka i</w>
la id</w>
exp and</w>
applic ants</w>
af raid</w>
be t</w>
retra ining</w>
com plic
t own
necess arily</w>
tradi tional</w>
st ers</w>
l ess
the ory</w>
m ise</w>
iz ing</w>
repe at</w>
p un
exam ples</w>
ex plan
con v
z ing</w>
v y</w>
s w
k no
b ad</w>
in ation</w>
qual ified</w>
s ource</w>
wh ose</w>
2 00</w>
negoti ations</w>
contrac tors</w>
kee ping</w>
pos ing</w>
plan ned</w>
gr ant</w>
tax i</w>
fi xed</w>
d pr
defic it</w>
guang dong</w>
roo ts</w>
tow ard</w>
corpor ations</w>
contribu tion</w>
comb at</w>
end or
fail ure</w>
ac ross</w>
purcha se</w>
p sy
moder n
enti tled</w>
l en
restric tions</w>
2 9</w>
cra ft</w>
d n
com rad
accoun ts</w>
ga ve</w>
f lo
z hou</w>
h k</w>
reduc ing</w>
fac tor</w>
particip ate</w>
elec tor
americ an</w>
w ishes</w>
prof it</w>
b ra
kin ds</w>
immedi ate</w>
abil ities</w>
speci fic
jec ted</w>
electr on
mor ning</w>
consider able</w>
te dly</w>
w ent</w>
qu e</w>
m ist
po ver
un employed</w>
200 2</w>
propos es</w>
immig rants</w>
por e</w>
interpre tation</w>
pro secution</w>
si zed</w>
institu te</w>
influ ence</w>
cour ts</w>
im plic
agre ements</w>
singa pore</w>
eas y</w>
w on
spec ts</w>
ref lec
kin der
equ i
kinder gar
acci dent</w>
oper ational</w>
m al
ex ist</w>
author ized</w>
a c</w>
1 5
pat ri
conduc ting</w>
s ex
realiz e</w>
speec hes</w>
qual ific
argu ment</w>
gener ation</w>
sy m
us ers</w>
han ds</w>
f ru
t u</w>
r out
vi r
reli gi
mater ials</w>
retur ned</w>
im posed</w>
adv ance</w>
s la
wor ried</w>
exten d</w>
li u</w>
inten ded</w>
hel p
exten ded</w>
pac i
formul ate</w>
communic ation</w>
ci vil
analy sis</w>
ti bet</w>
argu ments</w>
ci ties</w>
s at
practition ers</w>
new sp
k u
incor por
sp end</w>
exten sive</w>
business es</w>
re public</w>
pla yed</w>
cla im</w>
paci fic</w>
con ver
th ous
re ci
consul t</w>
tle ment</w>
z hang</w>
through out</w>
sup pl
go es</w>
offic es</w>
vis itors</w>
ow ned</w>
sh en
cho ose</w>
al ed</w>
sur ing</w>
we al
inten d</w>
id ance</w>
employe e</w>
inter net</w>
gr ass
provi dent</w>
re it
der ick</w>
ret e</w>
rap id</w>
initi ative</w>
candi dates</w>
str al
to -
sino- us</w>
mu n</w>
t ex
par k</w>
sur y</w>
fre derick</w>
form ation</w>
as sum
clar ify</w>
review ed</w>
hop ed</w>
moder n</w>
uni ons</w>
ex cep
trea sury</w>
i red</w>
li sted</w>
ac ted</w>
st y
in ev
eligi ble</w>
euro pe</w>
au stral
asp ect</w>
every thing</w>
ca p</w>
transp a
reserv es</w>
p ace</w>
conc rete</w>
spokes man</w>
is ra
ide ological</w>
contain er</w>
wh at
ho li
competi tive</w>
introduc ing</w>
fin dings</w>
care ful</w>
rati o</w>
en ter</w>
vig or
ud es</w>
ph one</w>
ro ads</w>
recor ds</w>
im port</w>
ar -
she k</w>
cont ent</w>
g ain
enhan cing</w>
dpr k</w>
rul ing</w>
sub committee</w>
atten d</w>
individu als</w>
fu el</w>
bu l
de p
tw o-
w in
im possible</w>
air craft</w>
per f
9 0</w>
man d
wor d</w>
contr ary</w>
expan sion</w>
sm es</w>
pu tting</w>
doc tors</w>
fa il</w>
mon y</w>
le -
res ses</w>
exp ec
con centr
il ing</w>
nat ur
maca o</w>
lu c
pre -
im pres
consid ers</w>
re mo
laun ched</w>
kore a</w>
ex tr
conven i
re rs</w>
custom s</w>
s .</w>
we dn
q ian</w>
enc ed</w>
li ves</w>
di alo
de lay</w>
constitu encies</w>
y a</w>
tempor ary</w>
pr ud
k am
wedn esday</w>
our selves</w>
o s</w>
easi ly</w>
che u
unfortun ately</w>
ate dly</w>
re vised</w>
ic ity</w>
regul atory</w>
pre ce
fo o
c row
com ment</w>
ordin ary</w>
ide as</w>
m b</w>
ha el</w>
sal aries</w>
strugg le</w>
mic hael</w>
fi ve-
cal cul
poli tics</w>
for um</w>
s op
mar ine</w>
challen ges</w>
accord ingly</w>
advan tage</w>
k- yan</w>
col on
ag ency</w>
lin k</w>
refu ge
ge tting</w>
cheu k-yan</w>
k o
men tion</w>
cr c</w>
signific ance</w>
f ish
in struc
cred it</w>
continu ing</w>
ap ers</w>
vis iting</w>
re present</w>
tax es</w>
impor ted</w>
g reg
gen u
dru gs</w>
di es
st ood</w>
repe atedly</w>
re ha
op position</w>
la tions</w>
t at</w>
stree t</w>
su spen
el im
is ely</w>
su rely</w>
bu re
sum mit</w>
wor ked</w>
w ants</w>
bure au
agricul ture</w>
ordin ances</w>
determin ation</w>
co de</w>
s ources</w>
deal t</w>
p m</w>
c au
an im
ste ad
enac ted</w>
fron t</w>
ex ter
stud ying</w>
p ilo
produc t</w>
tal king</w>
n ar
vis ited</w>
stra in
remain ing</w>
attr act</w>
- up</w>
invest ments</w>
su red</w>
ing ing</w>
electr icity</w>
de signed</w>
plan e</w>
lat est</w>
thin ks</w>
mater ial</w>
a wa
oper ative</w>
kam -
inform ed</w>
g ain</w>
benef ic
telecommunic ations</w>
ta i</w>
passeng er</w>
bro ad</w>
pri or</w>
transi tion</w>
natur ally</w>
cor e</w>
oc ks</w>
lar gest</w>
develop ers</w>
re mind</w>
p ra
sub sid
ne arly</w>
m tr
integr ity</w>
increas ingly</w>
har d
grow ing</w>
t asks</w>
resol ved</w>
even tually</w>
bo at</w>
cal ls</w>
tan cy</w>
n ess
exc lu
na mely</w>
campaig n</w>
targe ts</w>
forec ast</w>
1 3
vi d</w>
success fully</w>
ar ising</w>
w al
ou l
man -
s in</w>
claim s</w>
commun ist</w>
c ar</w>
te sts</w>
affor d</w>
elector al</w>
attemp t</w>
ra ble</w>
quick ly</w>
go t</w>
ac ting</w>
x i</w>
recogn ized</w>
lia ison</w>
kno ws</w>
enter prise</w>
weal th</w>
mor t
c li
exce e
sur plus</w>
tu en</w>
indi a</w>
flexi bility</w>
fi f
conf ron
wing- tat</w>
prog res
rec ur
con vention</w>
ar ts</w>
tack le</w>
pa rent</w>
m c
bl ing</w>
al li
under taken</w>
f red</w>
de pend
mist a
c ard</w>
alloc ated</w>
propor tion</w>
lin ks</w>
complic ated</w>
bi an</w>
mand atory</w>
ul t</w>
pa ying</w>
i ance</w>
t om
or m
dies el</w>
tra in</w>
ans w
transp or
mo bil
w ards</w>
r ou
prec isely</w>
o th</w>
ne ar</w>
min im
distribu tion</w>
firm ly</w>
pover ty</w>
st ations</w>
enhan ced</w>
ti me
zh en</w>
uni versi
accoun table</w>
stud ent</w>
figh ting</w>
ti ally</w>
specific ally</w>
occa sions</w>
alterna tive</w>
tru th</w>
wor th</w>
sit u
ra il</w>
m d</w>
determin e</w>
con soli
finan cing</w>
electron ic</w>
neigh b
mean while</w>
jur is
hu ang</w>
re move</w>
diffe rences</w>
c ou
universi ties</w>
re ve
lo an</w>
pl ant</w>
dol lar</w>
spec ul
mone tary</w>
run ning</w>
dispu tes</w>
there by</w>
in ju
head s</w>
smo oth</w>
ac cur
dri ving</w>
tro ops</w>
tion ary</w>
a red</w>
low -
ri ver</w>
consul ted</w>
wee ks</w>
d p</w>
commer ce</w>
tiz ation</w>
cl er
victi ms</w>
de pos
penal ties</w>
tel e
ira q</w>
dep th</w>
b un
invol ve</w>
un necessary</w>
mess age</w>
co-ordin ation</w>
c ope</w>
m ed</w>
consum ption</w>
encoura ging</w>
g la
lo st</w>
op posed</w>
ts ang</w>
re pa
char ging</w>
discus sing</w>
k crc</w>
ur gent</w>
produc tivity</w>
usu ally</w>
lat ter</w>
198 5</w>
exter nal</w>
con trad
st or
contrad ic
ob tained</w>
fe der
t ant</w>
vi a</w>
reach ing</w>
ho s</w>
des cribed</w>
autonom y</w>
s co
mi ri
safe guar
obvi ous</w>
miri am</w>
da vid</w>
3 00</w>
spok en</w>
organ s</w>
hand led</w>
stri ve</w>
n i
incl udes</w>
a tives</w>
juris dic
conten ts</w>
set tlement</w>
let ter</w>
ist an</w>
pe tro
ar ise</w>
tax pay
ref er</w>
pro mis
reha bil
pre ad</w>
ar ance</w>
pro spects</w>
l or
d ated</w>
claim ed</w>
reli ef</w>
modern ization</w>
h im
trad es</w>
ch e-h
mon thly</w>
cap it
mort g
h u</w>
ch i
tur ned</w>
hon g
comple x</w>
che-h ung</w>
per mit</w>
lo se</w>
some times</w>
shen zhen</w>
produc ed</w>
establish ing</w>
reci pi
gu idance</w>
y ang</w>
tran sit</w>
qu anti
exemp tion</w>
how ard</w>
cont ext</w>
stri ke</w>
back ground</w>
im pose</w>
clin ton</w>
brea k</w>
el ements</w>
explan ation</w>
ex hi
b a
c ast</w>
sa fe</w>
mar k</w>
he ar</w>
fu tures</w>
com ply</w>
an -
0 .
under min
tri al</w>
occu pa
boun dary</w>
ab ol
character istics</w>
won der</w>
en suring</w>
rele ased</w>
occupa tional</w>
en orm
exten sion</w>
func tion</w>
sh el
o k-
s k
t ories</w>
sem in
2 1
popu lar</w>
ple ased</w>
even ts</w>
kw ok-
c s</w>
him self</w>
eng aged</w>
ta tive</w>
re struc
tr ou
psy cho
lic ences</w>
ca uses</w>
ar re
sp ir
los ses</w>
becom ing</w>
g am
spo ke</w>
house holds</w>
draf ting</w>
business men</w>
sp ort</w>
f low</w>
bi tion</w>
as tic</w>
exc es
ac king</w>
ver sion</w>
re t</w>
al leg
pass age</w>
ini tial</w>
al d</w>
p ic
h d</w>
stan tly</w>
si st</w>
i ding</w>
fe at
conv inc
op ened</w>
dama ge</w>
five- year</w>
empha sis</w>
w ash
for ced</w>
sty le</w>
rec lam
reclam ation</w>
out standing</w>
consequ ences</w>
b ing</w>
no tic
m em
gi ves</w>
d on</w>
ther n</w>
wi de
tri ed</w>
tec h</w>
schedu led</w>
ter r
l o</w>
ic h
em is
be ha
sub -
n ight</w>
gr ate
v ings</w>
stan ds</w>
re member</w>
occu p
in adequate</w>
feder ation</w>
dis pos
yu en-
per spective</w>
w in</w>
subsid y</w>
re d
quar ters</w>
protec ted</w>
mp f</w>
grate ful</w>
d ged</w>
cong es
pro mise</w>
enac tment</w>
yuen- han</w>
sh ar
high est</w>
consul tancy</w>
pre dic
fl at</w>
fel t</w>
f ill</w>
sol ved</w>
recogn ize</w>
port ers</w>
expe di
ex ports</w>
op tions</w>
er ies</w>
off end
tri bun
intere sted</w>
con ve
reg ret
wor ry</w>
sol ic
s ought</w>
ag ing</w>
ger many</w>
conc essions</w>
pilo t</w>
manufac tu
re serve</w>
feasi bility</w>
cul li</w>
ar culli</w>
par king</w>
nor th
us eful</w>
par lia
implic ations</w>
volu me</w>
mon o
innov ation</w>
vietn am</w>
sen si
ex ac
desi rable</w>
ti v
b on
ur ged</w>
protec ting</w>
happ en</w>
dou ble</w>
all -
rou te</w>
ris ks</w>
g dp</w>
difficul ty</w>
inter vention</w>
ti an</w>
ri st
resol u
refuge es</w>
lin ed</w>
norm ally</w>
elim in
ch rist
conges tion</w>
compl iance</w>
ten s</w>
ren ess</w>
v ise</w>
t r</w>
dispos al</w>
t ext</w>
awa reness</w>
what ever</w>
ti ous</w>
h und
b s</w>
advanta ges</w>
restruc turing</w>
engine ering</w>
4 00</w>
g an</w>
am s</w>
1 6
un reasonable</w>
l eng
thre at</w>
sust ain
my self</w>
e ast
am b
tion ing</w>
pen sion</w>
appreci ate</w>
tele phone</w>
s pl
identi fy</w>
tal ents</w>
thre e-
lo h</w>
complain t</w>
aim ed</w>
hel ping</w>
chin -
bal an
subsidi ary</w>
k er</w>
origin ally</w>
ob ject</w>
pha se</w>
one- china</w>
terr or
dec la
proper ties</w>
collec tive</w>
be aring</w>
k ong-
great est</w>
ough ly</w>
ge o
cen ter</w>
rout es</w>
cor respon
beg an</w>
cl asses</w>
beha vi
mean ing</w>
m oun
al ists</w>
transpor tation</w>
z ation</w>
se x</w>
cho y</w>
multi -
enorm ous</w>
list en</w>
super vis
a i</w>
tour ist</w>
ag ents</w>
process ing</w>
pres ented</w>
memb ership</w>
k en</w>
govern ing</w>
sal ary</w>
invol ves</w>
inv itation</w>
contribu te</w>
con stantly</w>
clo sed</w>
lim its</w>
en coun
con tained</w>
suff er</w>
q ing</w>
minist ers</w>
can ad
val ues</w>
form al</w>
br inging</w>
bl ed</w>
ing ton</w>
fund ed</w>
dialo gue</w>
cont acts</w>
bri ef</w>
who m</w>
tra vel
min or</w>
he aring</w>
appe ars</w>
dest ro
recei ving</w>
accommo dation</w>
regist er</w>
recommen ded</w>
jud ge</w>
exist ence</w>
s ort</w>
pe as
im prison
i f
religi ous</w>
physi cal</w>
n om
op tion</w>
direc tors</w>
treat y</w>
town s</w>
disc re
th u
sit ting</w>
eth n
b ir
wh il
estim ate</w>
pal est
whil st</w>
loc k</w>
identi fied</w>
follow ed</w>
bu y</w>
institu tion</w>
critici zed</w>
than ks</w>
o ts</w>
join tly</w>
f arm
emb ly</w>
cont act</w>
ass embly</w>
ag g
we i</w>
tribun al</w>
stric tly</w>
li gence</w>
alli ance</w>
acc el
mtr c</w>
loo ked</w>
sp on
chin- shek</w>
benefic ial</w>
wor ries</w>
ri sts</w>
allow ing</w>
thir dly</w>
star ting</w>
ing ent</w>
fr ance</w>
ad es</w>
transpa ren
re fe
att ack</w>
valu able</w>
frien ds</w>
d ous</w>
mo de</w>
experi enced</w>
circul ated</w>
tion ally</w>
pro ve</w>
fac tories</w>
ch i</w>
all en</w>
aim s</w>
yu en</w>
rehabil itation</w>
fe ar</w>
exac tly</w>
decla red</w>
transparen cy</w>
cont ra
cap able</w>
sel ect</w>
po st
examin ed</w>
i or
er ated</w>
for th</w>
to b
pla ying</w>
har dly</w>
d a</w>
op en
su ic
ass ess</w>
situ ations</w>
recommen dation</w>
mu gg
mis sions</w>
discipl ine</w>
con sent</w>
beg in</w>
ic ac</w>
mo vement</w>
it ably</w>
f c</w>
continu ous</w>
6 5</w>
.. ..
out come</w>
f a</w>
de par
categ ory</w>
aut om
1 4
m ach
ge ment</w>
collec tion</w>
state -
rec ti
continu ously</w>
num erous</w>
ch em
aff ir
person ally</w>
m ac
conflic t</w>
1 8
su d
s mugg
large -
war ning</w>
under taking</w>
ris ing</w>
ne u
initi atives</w>
co ven
challen ge</w>
consul tants</w>
beca me</w>
piec e</w>
o men
ph en
kam- lam</w>
com pul
acc o</w>
ref lected</w>
appe ar</w>
sub jects</w>
tob acco</w>
any one</w>
part n
tre ated</w>
extr a</w>
ethn ic</w>
il e
r ac
d less</w>
progra m</w>
kore an</w>
recipi ents</w>
o red</w>
ch u</w>
wa i</w>
pro mp
du m</w>
con cep
phen omen
du ci
or ities</w>
gla d</w>
fair ly</w>
ch ung-
1 ,
v ess
manag ed</w>
sign s</w>
recur rent</w>
la b
house hold</w>
ce re
in sp
cur ricul
s on</w>
re place</w>
draw ing</w>
vess els</w>
real istic</w>
ab s
y i</w>
oura ge</w>
chec k</w>
it em</w>
ref er
ex cept</w>
an cy</w>
wash ington</w>
depen ds</w>
laun ch</w>
equ ality</w>
aliz e</w>
short -term</w>
taxpay ers</w>
sop h
new ly</w>
21 st</w>
l are</w>
east ern</w>
acti vity</w>
s wit
in ary</w>
cler k</w>
categ ories</w>
dee p</w>
selec tion</w>
ma y
counc ill
under take</w>
gradu ates</w>
genu ine</w>
large- scale</w>
empha sized</w>
b id</w>
cre ating</w>
show ed</w>
nation ality</w>
me ant</w>
con duci
belie ves</w>
belie ved</w>
imprison ment</w>
conduci ve</w>
dec lare</w>
li qu
ga p</w>
alle vi
u t
u an</w>
tou rists</w>
men tally</w>
ab st
si x
serv es</w>
b ay</w>
radi o</w>
deli vered</w>
clin ics</w>
sa vings</w>
rele ase</w>
leg i
ir y</w>
3 5</w>
review ing</w>
mode l</w>
j in
resul ting</w>
mar ked</w>
m its</w>
id ly</w>
artic les</w>
amb ass
ligh tly</w>
la stly</w>
even ing</w>
ambass ad
s ory</w>
mortg age</w>
depen d</w>
3 .
c p
mr s.</w>
happen ed</w>
afric a</w>
v ital</w>
under tak
t ac
occur red</w>
s cre
k ok</w>
de la
cl assi
subsequ ently</w>
partn ership</w>
formul ated</w>
en tered</w>
re sume</w>
inv est</w>
dri ve</w>
b att
regul arly</w>
qualific ations</w>
objec tion</w>
jud ges</w>
requ iring</w>
man- kwong</w>
formul ating</w>
adv ise</w>
associ ations</w>
xi a
estim ates</w>
co st-
acc ession</w>
h our</w>
up hold</w>
b om
trans actions</w>
reserv ations</w>
quar ter</w>
dis mis
n in
y e</w>
consul tative</w>
ar bit
dec reas
achie ving</w>
v ast</w>
sub ven
impres sion</w>
c lu
ab road</w>
ref use</w>
identi ty</w>
sh a</w>
investig ations</w>
i ary</w>
greg or</w>
par ks</w>
n er
f ast</w>
sur vi
li tion</w>
tri bu
soci alism</w>
sa ve</w>
re medi
pro ved</w>
mc gregor</w>
feasi ble</w>
des cri
g ers</w>
compul sory</w>
undertak ings</w>
se em</w>
j e
inten si
shu i-
lin ked</w>
scrutin y</w>
defin ed</w>
ie ty</w>
gam bling</w>
co operative</w>
follow -up</w>
top ic</w>
sha res</w>
safeguar ding</w>
expan ding</w>
aud it</w>
adver ti
coun selling</w>
commit ments</w>
sustain able</w>
comrad e</w>
psycho log
contin ues</w>
colon ial</w>
ti ously</w>
produc tive</w>
n am
t su
marg are
en abl
loc ation</w>
ich en</w>
dis ease</w>
per mitted</w>
boo ks</w>
margare t</w>
equ ally</w>
tur ning</w>
sun der
k istan</w>
g row</w>
encoura ged</w>
abs ence</w>
villa ge</w>
mi sunder
col lected</w>
in sul
in qu
fif th</w>
writ ing</w>
reflec ts</w>
quo ta</w>
ph arm
law ful</w>
ec ting</w>
afric an</w>
sta ur
consider ations</w>
a a</w>
re staur
constitu tion</w>
p o</w>
eas es</w>
q ichen</w>
ma tic</w>
l ity</w>
chung- kai</w>
applic able</w>
ad ing</w>
secret aries</w>
gh u
reli e
pursu e</w>
ig nor
frequ ently</w>
empha size</w>
dr .</w>
request ed</w>
wh en
when ever</w>
univers al</w>
ro g
plac ement</w>
glob alization</w>
conclu ded</w>
res ource</w>
some one</w>
exces sive</w>
cros sing</w>
tal ked</w>
mor al</w>
x ing</w>
ti a</w>
q i
oblig ations</w>
e ous</w>
sur pris
er ic</w>
dis eases</w>
wor se</w>
v it
re patri
so ld</w>
pe ak</w>
indic ate</w>
y ment</w>
con strain
4 5</w>
territ orial</w>
so f
rap idly</w>
g- hui</w>
ed ward</w>
comm an
as sure</w>
ten g-hui</w>
sino- british</w>
no ti
tri ad</w>
thu si
atten ding</w>
ad mission</w>
prepar atory</w>
posi tions</w>
en thusi
tru ly</w>
public ation</w>
mar x
il lu
every body</w>
er a</w>
cere mony</w>
s en</w>
lear ned</w>
wit ness
vo ca
st amp</w>
car go</w>
work er</w>
s d</w>
cap ability</w>
y c
ta bly</w>
sec ure</w>
i on</w>
allow ances</w>
wide ly</w>
tre men
austral ia</w>
sti mul
san c
prud ent</w>
pr c</w>
inc ur
shui- bian</w>
inv ited</w>
pow er
con firm
cle arance</w>
ver ing</w>
ron ald</w>
long -
conflic ts</w>
wan ted</w>
w on</w>
kong- wah</w>
vo ters</w>
parlia ment</w>
oper ated</w>
chan nel</w>
consul tations</w>
s ac
promis ed</w>
f ren
offend ers</w>
deter ior
certific ate</w>
scen e</w>
christ ine</w>
balan ced</w>
infra structural</w>
represen ting</w>
ar di
sh o
pos s
priv a
wi fe</w>
solu tions</w>
re tail</w>
n md</w>
v als</w>
sensi tive</w>
el se</w>
yu go
particip ants</w>
expres sion</w>
yugo sla
la bor
inde x</w>
accoun ting</w>
stric t</w>
ol y
bo ok</w>
na to</w>
gain ing</w>
de pri
c er</w>
sa w</w>
ro b
mo tions</w>
formul ation</w>
c k</w>
ban g
termin al</w>
deb ates</w>
ob serv
co ordin
peo ples</w>
m tr</w>
ish ment</w>
conserv ation</w>
bud ge
un ity</w>
mer its</w>
sever e</w>
vigor ously</w>
strength ened</w>
request s</w>
si u-
poli tici
dec ade</w>
fav ourable</w>
ca using</w>
c ars</w>
brief ly</w>
thor ough</w>
re st
pus h</w>
judic iary</w>
sh ops</w>
sec tions</w>
pres sing</w>
break down</w>
9 5</w>
le vy</w>
l on
han dic
integr ation</w>
grass roots</w>
adjust ments</w>
re housing</w>
bl es</w>
7 5</w>
wi der</w>
s er</w>
er ation</w>
cru cial</w>
where as</w>
oly mp
g ames</w>
sp ac
sh oul
for get</w>
fil m</w>
val uation</w>
pay able</w>
expen sive</w>
design ated</w>
sex ual</w>
dec ades</w>
viol ence</w>
provin cial</w>
y or
wor l
convic tion</w>
ch im</w>
uni que</w>
law yers</w>
inter im</w>
p l</w>
struc tures</w>
s fc</w>
em ed</w>
sor ry</w>
ra tion
pre f
peas ants</w>
mon d</w>
mo di
lea ving</w>
per form</w>
deb t</w>
substan tially</w>
p on
critic ism</w>
sa ke</w>
discipl inary</w>
possi bly</w>
n on
al i
hear t</w>
comm and</w>
gr at
construc tive</w>
z one</w>
re porters</w>
corpor ate</w>
adver se</w>
t v</w>
leg ally</w>
boo st</w>
sig ning</w>
expl ore</w>
b arri
fa ils</w>
yor k</w>
flexi ble</w>
attach ed</w>
ac compl
confi dent</w>
spe e
ack now
shi pping</w>
acknow le
teach er</w>
repor ter</w>
pre li
preli min
ref used</w>
stipul ated</w>
li ability</w>
y in</w>
rec all</w>
fren ch</w>
a side</w>
adjour ned</w>
separ ately</w>
s ze
brief ed</w>
u gh
or able</w>
upgrad e</w>
re pu
dee ply</w>
si ght</w>
cri tical</w>
n one</w>
su pre
pres cribed</w>
occa sion</w>
curricul um</w>
contro ls</w>
adverti se
sze to</w>
remo val</w>
priv ile
fir ms</w>
di ver
der ing</w>
stu died</w>
ambassad or</w>
h or
la bel
regul ate</w>
inspec tions</w>
bri dge</w>
4 .
r ant</w>
emplo y</w>
emb ar
thor oughly</w>
subven ted</w>
su n</w>
f ishing</w>
en e</w>
amoun ts</w>
ti se</w>
sub section</w>
sim pl
in sufficient</w>
abo de</w>
voca tional</w>
hy gi
ger man</w>
ad pl</w>
sel l</w>
olog y</w>
off ering</w>
feel ing</w>
fair ness</w>
c pp
val ent</w>
od d</w>
ima g
i ii</w>
wat ers</w>
suff ering</w>
franch ise</w>
avi ation</w>
ar ized</w>
ad mitted</w>
w a</w>
upgrad ing</w>
tremen dous</w>
ten der</w>
cpp cc</w>
contro versi
progres sive</w>
e ption</w>
y er</w>
kindergar ten</w>
exper tise</w>
ap ped</w>
ra tional</w>
adop ting</w>
manufactu rers</w>
do or</w>
applic ant</w>
ji a
geo graph
com position</w>
f ish</w>
experi ences</w>
man age</w>
cl ude</w>
fer ry</w>
time table</w>
ro l
. .</w>
appe als</w>
ti gh
sum m
ren tly</w>
own er</w>
prelimin ary</w>
feel ings</w>
democr ats</w>
control led</w>
bl ack</w>
surve ys</w>
pas sport</w>
we ak
usu al</w>
ta u</w>
p att
becom es</w>
loc ated</w>
inter ven
suic ide</w>
suc ce
expedi tiously</w>
c lock</w>
adv ised</w>
9 8</w>
smugg ling</w>
eng age</w>
circ les</w>
patt en</w>
pass ing</w>
gr as
fal se</w>
thre at
t ance</w>
inter f
g ri
excell ency</w>
critic isms</w>
compar ison</w>
comp atri
licen sed</w>
hum an
appro ach
state- owned</w>
f la
0 000</w>
ima ge</w>
depar ture</w>
log istics</w>
er -
dro p</w>
recru it
ra y
out -
re pl
intel lec
aff ecting</w>
200 3</w>
te l</w>
ga ze
sof tw
n t</w>
gr ants</w>
op ing</w>
jurisdic tion</w>
acc um
tim ately</w>
si l
n u
isra el</w>
har m</w>
canad a</w>
s cri
ou se</w>
i ded</w>
equ ity</w>
el ement</w>
dis appointed</w>
c ards</w>
6 00</w>
recruit ment</w>
practic able</w>
strateg ies</w>
per mission</w>
kw ok</w>
compatri ots</w>
wel com
per mits</w>
welcom ed</w>
po on</w>
ific ation</w>
cle an
bel ief</w>
kwok- him</w>
in- depth</w>
y a
reg im
l ers</w>
ou b
nin th</w>
circul arized</w>
appoin ting</w>
an cies</w>
recogn ition</w>
re moved</w>
pat ter
198 4</w>
work force</w>
ta o</w>
pa ys</w>
ghu a</w>
cros s</w>
shor tly</w>
it or</w>
ar m</w>
ty -
te ams</w>
restric ted</w>
ab or
inev itably</w>
und oub
remain ed</w>
sym pa
rec yc
foo t
civi c</w>
al ing</w>
suc c
pe ter</w>
frequ ent</w>
prin ted</w>
def ence</w>
k en
in side</w>
chi- kwong</w>
grad e</w>
assess ed</w>
den g</w>
thous an
dec line</w>
softw are</w>
sust ained</w>
ha z
govern mental</w>
ann i
7 .
specul ation</w>
so le
mo tor</w>
handic apped</w>
h ur
tra ined</w>
re vol
go l
disclo sure</w>
cul t</w>
car ri
r ace</w>
c ater</w>
st op
secret ari
se es</w>
b reach</w>
sp here</w>
newsp aper</w>
cop y
them e</w>
re in
dom in
c r</w>
show ing</w>
prohi b
bor n</w>
b at
n ings</w>
answ ers</w>
sin o</w>
ray mond</w>
determin ing</w>
st abil
legi timate</w>
te sting</w>
sen d</w>
convinc ed</w>
lon don</w>
organiz e</w>
min ds</w>
man i
.... ..</w>
holi days</w>
ab an
endor sed</w>
deter rent</w>
accum ul
undoub tedly</w>
op posing</w>
el u
i ved</w>
thousan ds</w>
tax is</w>
over -
oblig ation</w>
correspon ding</w>
cle an</w>
the ast</w>
stre am
rec over</w>
l p
in direct</w>
socie ties</w>
ra in</w>
appl ying</w>
tur mo
tom or
technolog ies</w>
simil arly</w>
satisfac tion</w>
cli ents</w>
sh r
associ ated</w>
as sume</w>
rec ord
expec tations</w>
custom ers</w>
bl a
ban k
affor d
gra in</w>
deliber ations</w>
ti tle</w>
al -
ful l-
fi re
cir cu
agre es</w>
tomor row</w>
power ful</w>
large ly</w>
exerc ises</w>
co vers</w>
ro k</w>
l ing
f an</w>
ex changed</w>
depu ties</w>
con firm</w>
5 .
lo ad</w>
constitu te</w>
adap tation</w>
gaze t
bro se</w>
bo t
am brose</w>
restric tion</w>
om s</w>
help ful</w>
supre me</w>
resul ted</w>
propos ing</w>
pl at
hous es</w>
turmo il</w>
bl ocks</w>
yu k</w>
l y-
ke t</w>
expan ded</w>
er ly</w>
tun nels</w>
re tain</w>
prepar ations</w>
minu te</w>
ju ven
con grat
q i</w>
ob st
n e</w>
n an
conveni ence</w>
contrac tor</w>
con sci
cha u</w>
big gest</w>
l ying</w>
f loo
chem ical</w>
x im
s pread</w>
res h</w>
perf ect</w>
inter ference</w>
hygi ene</w>
dang er</w>
d ges</w>
ap point</w>
with draw</w>
t c</w>
reve aled</w>
h ing</w>
elu ci
b all</w>
add ressed</w>
pe de
mechan isms</w>
leng th</w>
hk ma</w>
f em
s li
pl a</w>
lo op
ke ts</w>
exc use</w>
comp on
commen cement</w>
u ally</w>
promo ted</w>
missi les</w>
councill ors</w>
stre am</w>
ra tions</w>
intel ligence</w>
copy right</w>
ur ges</w>
tol l</w>
con tain</w>
ce iling</w>
sel ected</w>
pro p
incur red</w>
head ing</w>
signific antly</w>
arre sted</w>
ul timately</w>
retur ns</w>
pede stri
over come</w>
op es</w>
dis charge</w>
bank ru
att ach</w>
soli d</w>
re ver
s le
m id</w>
loop hol
jud g
sol ving</w>
reit erate</w>
regim e</w>
prepar ation</w>
e ing</w>
dro pped</w>
ti er</w>
lp g</w>
ori ented</w>
sa m
ro y
ip cc</w>
fil led</w>
de dic
citiz en</w>
examin ing</w>
deplo yment</w>
str ingent</w>
secretari at</w>
quanti ty</w>
exhi bition</w>
p are</w>
fin ding</w>
che ong</w>
asi a-
an ticip
vers ary</w>
ti mely</w>
shu i</w>
exce ed</w>
enter ing</w>
- based</w>
hen ry</w>
en em
bl ood</w>
su ffered</w>
con st
vo ice</w>
un acceptable</w>
represen tation</w>
mobil e</w>
issu ing</w>
s tic
nur ses</w>
econom ies</w>
divi ded</w>
dispu te</w>
so- yuk</w>
in land</w>
im pe
er ial</w>
dis pen
co ld</w>
g ation</w>
excep tion</w>
tain ment</w>
stead y</w>
6 .
neighb our
min ority</w>
h it</w>
communic ations</w>
ho tel</w>
the ore
repe ated</w>
li able</w>
exist s</w>
depend ent</w>
colle ge</w>
phenomen on</w>
kil led</w>
petro l</w>
candi date</w>
bureau x</w>
wom an</w>
re mun
pre pare</w>
mo ther</w>
lar ger</w>
investig ate</w>
el se
col lect</w>
at tribu
5 ,000</w>
else where</w>
9 9</w>
integr ated</w>
bel ong
as h</w>
subsidi zed</w>
s low</w>
chec ks</w>
3 2</w>
ur s
dis ability</w>
help ers</w>
exper t</w>
coven ant</w>
appl ies</w>
anni versary</w>
as es</w>
agg res
reason ably</w>
palest ini
famil i
clo ser</w>
prof ound</w>
p a</w>
de l
ro se</w>
ma ster</w>
en de
3 3</w>
xia oping</w>
se l</w>
newsp apers</w>
mean ing
li f
jun c
allevi ate</w>
ti st</w>
res sing</w>
ar ch
regar dless</w>
ph ili
en ded</w>
sub missions</w>
mar ks</w>
g y
ear ne
deci ding</w>
- related</w>
prosecu tions</w>
premi um</w>
8 00</w>
ir s</w>
de tec
cre ation</w>
regret tably</w>
priv acy</w>
previ ously</w>
n ames</w>
lab or</w>
controversi al</w>
bar gaining</w>
appro ve</w>
americ a</w>
war ded</w>
so far</w>
ren der</w>
pu tin</w>
mista kes</w>
in sofar</w>
absolu te</w>
wa i-
subsequ ent</w>
particip ating</w>
phili pp
form ing</w>
fin ed</w>
pra g
ol der</w>
ha o
confirm ed</w>
wor thy</w>
utili ties</w>
t our</w>
sm all
reg ret</w>
el abor
di v
some what</w>
senten ce</w>
on to</w>
inju red</w>
fri day</w>
earne stly</w>
as pi
tain s</w>
franch ised</w>
con dem
che ung-
yi el
ende av
amen ding</w>
ad just</w>
ligh ts</w>
ex plic
state ments</w>
illu str
gu iding</w>
excell ent</w>
st resses</w>
suspen ded</w>
per su
per sist
kindergar tens</w>
nega ti
inf r
- making</w>
th urs
quo ted</w>
le ts</w>
mon day</w>
fav orable</w>
accur ate</w>
thurs day</w>
sou thern</w>
pu i-
m as
est s</w>
autonom ous</w>
h i</w>
f ar-
un certain
s low
repa ir</w>
list ened</w>
jec tion</w>
che e-h
1 50</w>
siu- tong</w>
se at</w>
re vi
chee-h wa</w>
si gh
cy c
ad mit</w>
utili zation</w>
it ting</w>
re r</w>
tri p</w>
di gn
wor ding</w>
dist inc
den tal</w>
tre at</w>
presid ential</w>
3 6</w>
refer ring</w>
establish ments</w>
e an</w>
2 ,
el co</w>
di ties</w>
const ant</w>
ar ous
revol ution</w>
resid ent</w>
gu ards</w>
trans formation</w>
re sist
comprehen sively</w>
1 7
nur sing</w>
deb ated</w>
at mo
var iety</w>
st ages</w>
neigh bor
d il
air -
f resh</w>
equi valent</w>
smo oth
ff s</w>
b ar</w>
view ed</w>
tis m</w>
s lightly</w>
pl en
expe d
certific ates</w>
intellec tual</w>
f it</w>
z er
sl opes</w>
gu ide</w>
gras p</w>
gradu ate</w>
fu sion</w>
fac tory</w>
com for
aspi rations</w>
record ed</w>
it al
in tent</w>
co verage</w>
prosecu ted</w>
depart mental</w>
be ds</w>
repor ting</w>
l er</w>
l dc</w>
gran ting</w>
de duc
bet ter
p apers</w>
l in</w>
contra ven
po is
or gan</w>
jo ining</w>
commo dities</w>
obst ac
cre di
um s</w>
sol di
ma r</w>
3 4</w>
behavi our</w>
alloc ate</w>
mor ale</w>
no tes</w>
smooth ly</w>
i o
an x
10 th</w>
preven tive</w>
minim ize</w>
ide al</w>
gu ests</w>
ang le</w>
an ci
ac ked</w>
u r</w>
olymp ic</w>
inv ite</w>
ev ol
concentr ate</w>
adju sted</w>
occu r</w>
ho st</w>
zh i</w>
sha n</w>
elimin ate</w>
cul tiv
ca su
c lim
subsi dies</w>
repatri ation</w>
geograph ical</w>
curren cy</w>
cha p
cas h</w>
pro c
jin tao</w>
isra el
inter nation
r oun
inev itable</w>
susp ected</w>
profes sions</w>
pen insul
nom in
k im</w>
discre tion</w>
confi d
stree ts</w>
s enti
re jected</w>
peninsul a</w>
g ross</w>
manag ing</w>
g ained</w>
free ze</w>
enjo yed</w>
tex t
satis fy</w>
ow ing</w>
op ti
loc alities</w>
justi fied</w>
inten sive</w>
deli very</w>
un anim
appro xim
ai ds</w>
trou ble</w>
quo te</w>
offic i
join ed</w>
in appropriate</w>
consist ently</w>
trad ition</w>
pui- chung</w>
indic ates</w>
gu n</w>
abo lition</w>
we ak</w>
uti lity</w>
ul timate</w>
ta bled</w>
pr of</w>
ou d</w>
pu ton
go als</w>
coun ter</w>
be au
atmo sphere</w>
sha red</w>
represen ted</w>
instal led</w>
commission ed</w>
colleag ue</w>
repu tation</w>
pun ishment</w>
mat ch</w>
sha re
ran ks</w>
ous ness</w>
l u</w>
adver tis
ro les</w>
puton ghua</w>
pri orities</w>
ur a</w>
transi tional</w>
ref ers</w>
k ly</w>
con scienti
gen ous</w>
sh i</w>
ga me</w>
constrain ts</w>
a pe
remedi al</w>
fem ale</w>
ell ite</w>
mat ure</w>
let ters</w>
coun t</w>
set tle</w>
open ly</w>
gre e
mar ri
instal lation</w>
incorpor ated</w>
lin ing</w>
indi genous</w>
dee p
off ers</w>
ann ually</w>
re views</w>
er o
doub ts</w>
war m</w>
tr ack</w>
laun ching</w>
indi an</w>
h ec
concep ts</w>
re luc
pa in
ar a
small er</w>
par li
pa kistan</w>
list ening</w>
hund red</w>
att acks</w>
yugosla via</w>
rel ates</w>
pl ed</w>
exten ding</w>
9 7</w>
where by</w>
undermin e</w>
parli amen
judg ment</w>
di versi
3 8</w>
fal ls</w>
evi l</w>
en force</w>
ten ed</w>
pro mul
invol vement</w>
high- tech</w>
as sured</w>
7 00</w>
remar k</w>
la p
desi re</w>
tu esday</w>
relie ve</w>
p ir
comm it</w>
inter view</w>
asia- pacific</w>
wai- yin</w>
t sing</w>
refe ren
on ing</w>
jur y</w>
e ye</w>
di g
con ce
ass y</w>
ar ti
th ail
mean time</w>
emb assy</w>
vac ancies</w>
under stood</w>
thail and</w>
speci fy</w>
san d
plan ts</w>
perform ing</w>
om elco</w>
e yes</w>
convic ted</w>
sinc erity</w>
mit ting</w>
encoun tered</w>
con sor
b id
priva tization</w>
pres ently</w>
manag ers</w>
liber ation</w>
f at</w>
set tled</w>
sat ellite</w>
plan es</w>
c ited</w>
as surance</w>
19 6
tra ffic
ch en-
u k
ess ence</w>
cen sus</w>
5 5</w>
under stand
spir it
min ded</w>
down turn</w>
c fa</w>
b a</w>
organ is
mo tor
res c
p ip
lo k</w>
cat ering</w>
sole ly</w>
restaur ants</w>
ph ilo
c ro
b and</w>
gener ated</w>
ad here</w>
pris ing</w>
po wered</w>
z es</w>
on y</w>
jud gement</w>
fri end</w>
famili ar</w>
crow n</w>
a th
3 7</w>
valu e-
patter n</w>
im par
enthusi as
dis play</w>
six th</w>
prop ag
occu pi
jour n
gu o</w>
ade my</w>
ac ademy</w>
8 .
en qu
advertis ing</w>
resol ving</w>
no body</w>
fre ight</w>
e si
deplo yed</w>
atten d
accor d</w>
x uan</w>
import antly</w>
hel ped</w>
cont ing
pu p
pic ture</w>
sanc tions</w>
rec re
preven ting</w>
negati ved</w>
inter -
well- being</w>
sinc ere</w>
pro of</w>
fish eries</w>
compe te</w>
appreci ation</w>
y u</w>
transf erred</w>
sinc e
s u</w>
res ort</w>
requ is
h in
h ed</w>
co vering</w>
prov inc
pat h</w>
ob serve</w>
ji an</w>
it ted</w>
comrad es</w>
form ally</w>
bra z
control ling</w>
allow s</w>
we ight</w>
us -
feat ures</w>
9 4</w>
since rely</w>
net works</w>
n on</w>
floo ding</w>
ye e</w>
pi on
in don
repe al</w>
mo men
fa ult</w>
consul tant</w>
remun eration</w>
indon esi
f tu</w>
bor ne</w>
recre ation</w>
na vy</w>
h all</w>
emis sions</w>
cho sen</w>
attach es</w>
in stru
in age</w>
dist ur
ch ron
tsu en</w>
th k</w>
realiz ed</w>
jud ging</w>
sub clause</w>
mista ke</w>
up holding</w>
s we
i th
hard ship</w>
d al
te sted</w>
p tions</w>
min ent</w>
m ir
electr ical</w>
suspen sion</w>
provinc es</w>
im per
farm ers</w>
ear th</w>
sand w
approxim ately</w>
ze al
respon ded</w>
9 2</w>
4 1</w>
sa ving</w>
s ity</w>
k y</w>
k mb</w>
ex tra
at ure</w>
announ cement</w>
v an
tu m</w>
si e</w>
sch ol
sa ble</w>
re placed</w>
ques tion
grad ual</w>
cel e
be d
o ce
interf ere</w>
dr in
contain s</w>
jo h
us er</w>
pres en
pr h</w>
argu e</w>
aliz ing</w>
we b
str an
sh eng</w>
jia xuan</w>
de fe
de a
d ar
spac es</w>
rail ways</w>
prag matic</w>
philo soph
pharm ac
fin es</w>
de ten
a ward</w>
ren tial</w>
prosp erous</w>
en tre
cho ices</w>
vi de
sw d</w>
spirit ual</w>
m us
fir st-
en act</w>
recommen d</w>
chen- ya</w>
ail ing</w>
summ er</w>
sove reign</w>
enter tainment</w>
un changed</w>
su peri
r thk</w>
mo sco
ha m
em en</w>
4 8</w>
posi t</w>
fra u
em o
dra inage</w>
de posit</w>
4 6</w>
thous and</w>
pas sports</w>
col li
am bi
un authorized</w>
du m
ap pa
9 .
- to-
ig no
dec ent</w>
ti le</w>
sugge sts</w>
see ing</w>
sac ri
pos ite</w>
sacri fic
reit erated</w>
recyc ling</w>
north west</w>
mosco w</w>
l r
flo od</w>
equi pped</w>
enem y</w>
referen dum</w>
mach in
lan tau</w>
impor ts</w>
div or
ac u
sat ur
pre serve</w>
ch er
arous ed</w>
ad ed</w>
tw ice</w>
prepar ing</w>
cu tting</w>
sy n
li fe
chap ter</w>
avail ability</w>
psycholog ical</w>
marx ism</w>
ili ation</w>
civil ization</w>
bo di
y ou
resolu tely</w>
t ments</w>
t ful</w>
me ters</w>
k able</w>
inten ds</w>
histor ic</w>
dign ity</w>
5 ,
regist ra
k wan</w>
fal ling</w>
exemp ted</w>
deten tion</w>
cam bodi
9 6</w>
un lawful</w>
tar i
opti mis
ong st</w>
f light</w>
defin e</w>
am ongst</w>
v ul
nar row</w>
holi day</w>
gra v
arbit r
w is
the -
pol y
medic ines</w>
mas sive</w>
j as
def end
0 0,000</w>
val id</w>
pro cur
marri age</w>
i um</w>
dis a
c mb</w>
tor ate</w>
ri d
registra r</w>
confron tation</w>
bru ce</w>
air lines</w>
smo ke</w>
shoul der</w>
row ing</w>
min e</w>
lo ts</w>
e igh
brief ing</w>
an da</w>
resc ue</w>
parliamen tary</w>
negoti ation</w>
lo ve</w>
gg ing</w>
ga ret
e dge</w>
ci garet
bla me</w>
as y
a po
uk ra
pro ven</w>
dis par
clin ical</w>
bu yers</w>
batt le</w>
appropri ation</w>
l un
it h</w>
draf ted</w>
doc tor</w>
conc ession</w>
1 ,000</w>
tre es</w>
sh op
li ons</w>
foc used</w>
disclo se</w>
attr acted</w>
ape c</w>
n ment</w>
i ency</w>
d y
appa rently</w>
instruc tions</w>
den ied</w>
con fusion</w>
theore tical</w>
soldi ers</w>
ep d</w>
ear ners</w>
com pati
adequ ately</w>
a part
ten d</w>
ro oms</w>
ti an
th ough
ing u
g em
disclo sed</w>
w arran
sing le-
legislat ors</w>
israel i</w>
f u</w>
cal ling</w>
bl ock</w>
tri c</w>
bl ow</w>
appe ared</w>
w en</w>
ve tting</w>
ta res</w>
sor ship</w>
k y
hec tares</w>
ec ological</w>
stor age</w>
po st-
or dered</w>
dele te</w>
crimin als</w>
bon ds</w>
mo stly</w>
dom s</w>
cou ple</w>
contradic tions</w>
a warded</w>
prece den
low- income</w>
direc ted</w>
contribu ted</w>
apo log
foun ding</w>
b y
vac ant</w>
ul ts</w>
ni um</w>
lu ent</w>
di ff
adjour n</w>
li sting</w>
cy d</w>
posi tively</w>
la b</w>
inju ries</w>
head ed</w>
expl ain
circu lar</w>
advertise ments</w>
un preceden
deliber ation</w>
cap e</w>
ab ide</w>
rec eption</w>
hen g</w>
ci ally</w>
st ocks</w>
sim ul
ess or</w>
demonstr ate</w>
ag grav
zeal and</w>
ra ge</w>
j im
fil ling</w>
acqu ire</w>
w ars</w>
ugh ter</w>
squ are</w>
separ ation</w>
iri es</w>
el sie</w>
alle l</w>
villa ges</w>
su it</w>
par allel</w>
den s</w>
attr active</w>
reli able</w>
r ice</w>
li e</w>
excee ded</w>
st ory</w>
def end</w>
acc used</w>
ret ro
qualific ation</w>
notic es</w>
mu tually</w>
e x</w>
conserv ative</w>
squ at
sandw ich</w>
pe ti
in ess</w>
he gem
dis ru
pursu ant</w>
machin ery</w>
head quarters</w>
ex cess</w>
emis sion</w>
bankru pt
9 3</w>
quo t</w>
ord erly</w>
ob struc
joh n</w>
el led</w>
clar ification</w>
chin a-
secon ds</w>
innov ative</w>
hong zhi</w>
bo s
b y-
arri val</w>
3 9</w>
re vision</w>
lear nt</w>
heav ily</w>
4 3</w>
vul ner
terror ist</w>
out put</w>
imper ative</w>
foun ded</w>
read ily</w>
re vise</w>
h us
e c</w>
co- operate</w>
wing- chan</w>
u g
pos session</w>
patri o
z en</w>
requis ite</w>
oblig ed</w>
monit ored</w>
momen tum</w>
conting ency</w>
congrat ul
8 5</w>
vis a</w>
vic tory</w>
t i</w>
un likely</w>
publ ish</w>
prev ailing</w>
mar ily</w>
ma gi
magi str
jas per</w>
depen ding</w>
com promise</w>
youn g
se ve
pres cri
organiz ing</w>
easi er</w>
sub scri
skil led</w>
direc tions</w>
wi d
value- added</w>
ur ging</w>
st an</w>
resid ence</w>
expen se</w>
de als</w>
accep tance</w>
spee ding</w>
h s</w>
empha si
austral ian</w>
4 7</w>
regul ated</w>
re placement</w>
f low
coun ty</w>
better ment</w>
4 4</w>
fa i</w>
demonstr ated</w>
dee pen
arri vals</w>
wa stage</w>
her it
ac compan
syst em
q ing
le ase</w>
inter medi
if f</w>
g l
c ourage</w>
adop tion</w>
ur gency</w>
tou ch</w>
ten ing</w>
pu rely</w>
p ho
eligi bility</w>
criter ion</w>
respec ts</w>
deb ts</w>
c ab
pr ic
inc en
cru x</w>
4 2</w>
swit ch</w>
sh ir
pris on</w>
less on</w>
internation ally</w>
han ded</w>
ha st
forec a
e valu
d ating</w>
ung- sing</w>
prohi bit</w>
pro mises</w>
le ung-sing</w>
ignor e</w>
d ong
credi bility</w>
arch it
read ju
ken ne
im pl
critici ze</w>
roo t</w>
loc ations</w>
calcul ation</w>
argu ed</w>
y ong
ou red</w>
compu ters</w>
supervis ory</w>
op poses</w>
objec tions</w>
mis cel
miscel lan
miscellan eous</w>
is ance</w>
enhan cement</w>
work load</w>
ven ture</w>
uni fied</w>
suppl i
stand ardi
stimul ate</w>
sen sible</w>
free doms</w>
ad he
war fare</w>
unfortun ate</w>
susp ect</w>
shor e</w>
oper ator</w>
le vi
con na
bri ght</w>
we a
sou theast</w>
pri e
fa ster</w>
enabl ing</w>
al ties</w>
vulner able</w>
se ven
representa tions</w>
promp tly</w>
entre pre
bl ind</w>
be gun</w>
2 ,000</w>
tra ge
oun ded</w>
mil len
gra ve</w>
char ter</w>
associ ate</w>
ar t</w>
adver sely</w>
counter parts</w>
are ly</w>
wor rying</w>
sub mission</w>
con clude</w>
as ean</w>
ut most</w>
lu m</w>
he re
fo reign
de gre
bel ong</w>
traffic king</w>
gr and</w>
gain s</w>
comb ined</w>
abol ish</w>
u l</w>
ine es</w>
strong er</w>
shi ft</w>
in directly</w>
guang zhou</w>
ex -
de ad
bankrupt cy</w>
achie vement</w>
seve rely</w>
pen ding</w>
nation als</w>
incen tive</w>
examin ations</w>
conveni ent</w>
au di
wis dom</w>
restric t</w>
rest ore</w>
peri ods</w>
m f
loophol es</w>
es cal
ar l</w>
ye ar-
part ners</w>
b ag
10 ,000</w>
philosoph y</w>
particip ated</w>
mid -
ef ul
distribu ted</w>
di al</w>
can ton</w>
can ton
sc ra
produc ing</w>
in sist</w>
un il
sur face</w>
pre fe
poly techn
h un
ed it
cur b</w>
ex posed</w>
depos its</w>
ch u
cap o</w>
appoin tments</w>
jim my</w>
i ans</w>
ha w
commen d</w>
beau ti
ti ve-
man kind</w>
loc ally</w>
fun g-
fish er
as sa
ag ue</w>
ab sor
vest ed</w>
popu lar
ori en
mem or
en rol
dee ds</w>
d are</w>
tar iff</w>
speci alist</w>
pri marily</w>
pres sed</w>
in sist
g un
dis covered</w>
dis appointing</w>
8 8</w>
unpreceden ted</w>
re volu
perf ec
k m</w>
inter cep
ha o</w>
scre ening</w>
lit er
concer ted</w>
bro ken</w>
accumul ated</w>
up per</w>
ri g
re conna
ran k</w>
mer ger</w>
em ig
elabor ate</w>
e valuation</w>
decreas e</w>
worl d
vit ality</w>
sh op</w>
ple dge</w>
id ity</w>
for th
f as
do w</w>
dispar ity</w>
whol es
i qu
exerc ised</w>
d cs</w>
wat ch</w>
ta k</w>
stipul ates</w>
procee ds</w>
mf n</w>
f esti
ar ma
ad a
villa gers</w>
t ality</w>
s essions</w>
ration ale</w>
pe arl</w>
happen s</w>
conscienti ously</w>
youn ger</w>
rela tives</w>
ka z
de vi
4 ,
199 0s</w>
plac ing</w>
m ere</w>
hund re
far- reaching</w>
s al</w>
pres ence</w>
ph r
pedestri an</w>
medi um
iz es</w>
guide line</w>
cha i</w>
surpris ed</w>
initi ally</w>
im posing</w>
conclu sions</w>
accel erate</w>
k wai</w>
formul a</w>
stead ily</w>
necess ity</w>
misunder standing</w>
emb o
asy lum</w>
assess ing</w>
st aff
spl it</w>
pla ys</w>
medi an</w>
ir respective</w>
arran ged</w>
wa i
top ics</w>
tel s</w>
lat eral</w>
engine ers</w>
tren ds</w>
tim ing</w>
recti fy</w>
d ness</w>
vir tu
sun day</w>
poli tically</w>
palestini an</w>
inqu iry</w>
consequ ently</w>
canton ese</w>
w o
viol ation</w>
ur s</w>
ud hk</w>
pursu ing</w>
legis late</w>
ex ha
co-ordin ate</w>
cat ch</w>
win d
politici ans</w>
out line</w>
neu tr
men t-
less ons</w>
cross- boundary</w>
sol e</w>
re action</w>
in su
de ad</w>
advoc ate</w>
th ers</w>
sen ate</w>
le y</w>
charac ter</w>
bu t
witness es</w>
label ling</w>
i fying</w>
- time</w>
se ize</w>
now ada
nowada ys</w>
nor thern</w>
ma o</w>
l acks</w>
interven e</w>
grass -
c ite</w>
abol ished</w>
po ly</w>
fo ster</w>
degre es</w>
bed space</w>
assist ant</w>
imag ine</w>
hon est</w>
dr astic</w>
attend ance</w>
a tively</w>
t als</w>
spo t</w>
sa i-
righ tly</w>
plat form</w>
d h</w>
cop y</w>
c able</w>
wi des
wides pread</w>
wel comes</w>
vigor ous</w>
succe ed</w>
re ts</w>
po well</w>
o c</w>
marg in</w>
go od
ear n</w>
at tain</w>
se ment</w>
depos itors</w>
dedic ated</w>
con science</w>
a p</w>
un desirable</w>
stop ped</w>
re med
poss ess</w>
low est</w>
expres sing</w>
bir th</w>
world wide</w>
ti de</w>
hon our</w>
consul ting</w>
comp are</w>
stic k</w>
re sear
pro prie
high way</w>
b in
as set</w>
ven ues</w>
sec ret</w>
r ating</w>
promul g
public ly</w>
log ic</w>
dist ance</w>
k an</w>
in ge</w>
hundre ds</w>
con fined</w>
tr uc
ter ing</w>
substan tive</w>
sub stance</w>
exped ite</w>
er b</w>
colli sion</w>
air- condi
si c</w>
mo ves</w>
expendit ures</w>
exclu sive</w>
un de
tal ent</w>
gener ate</w>
fisher men</w>
de struc
ch un
semin ars</w>
occup ation</w>
mo des</w>
cer ti
ar ian</w>
z z
solic itors</w>
p age</w>
neighbour ing</w>
ira qi</w>
emer ged</w>
cab ine
198 3</w>
out- patient</w>
employ ing</w>
ber y</w>
young sters</w>
sever ance</w>
rec k
on er</w>
off en
nee dy</w>
lan qing</w>
en vis
cele br
a sion</w>
u ous</w>
je op
in no
fe d
evi dent</w>
clu b</w>
abst ained</w>
198 0s</w>
wit ness</w>
vic tor
suff rage</w>
is s
igno red</w>
be g</w>
sum mary</w>
resum ed</w>
iqu es</w>
ch ick
so vie
neg lect</w>
initi ated</w>
full- time</w>
e p</w>
comman der</w>
cha ired</w>
pro -
may or</w>
kaz ak
intensi fy</w>
hao tian</w>
affir med</w>
8 7</w>
travel ling</w>
ti ght</w>
ke en</w>
institu tional</w>
ho tels</w>
ha bit
grass- roots</w>
fail ing</w>
assum ed</w>
loo ks</w>
bran ches</w>
accommo date</w>
5 4</w>
st o
retur ning</w>
recru it</w>
may be</w>
fed eral</w>
d ge
atri c</w>
ar rest</w>
4 9</w>
z ones</w>
li ti
ga ther
g ged</w>
em powered</w>
ad ly</w>
z ao</w>
tack ling</w>
t ling</w>
men tality</w>
wea ther</w>
st al
occupi ed</w>
millen nium</w>
emp ty</w>
compati ble</w>
though ts</w>
termin als</w>
ste pped</w>
sovie t</w>
pois ons</w>
kowlo on-
k a</w>
correc tly</w>
connec ted</w>
senten ces</w>
li br
com prising</w>
resp ected</w>
pa c</w>
ir responsible</w>
govern ance</w>
fel l</w>
fa ith</w>
cabine t</w>
vo ices</w>
rec ession</w>
prof it
go li
design ate</w>
attemp ts</w>
susp end</w>
safe guards</w>
reach es</w>
re consider</w>
la ughter</w>
dis played</w>
remed y</w>
propag anda</w>
finan ces</w>
consequ ential</w>
schol ars</w>
qu e
pup ils</w>
gu il
dis agree</w>
cau ght</w>
answ ering</w>
lr t</w>
kowloon- canton</w>
adequ acy</w>
w ine</w>
mono poly</w>
fe wer</w>
eng aging</w>
de voted</w>
commun ities</w>
um b
sub vention</w>
provi ders</w>
indic ation</w>
w inning</w>
spo ts</w>
ref rain</w>
mar ried</w>
f allen</w>
a tically</w>
t ons</w>
ob taining</w>
co ast
chan g
assist ing</w>
xin jiang</w>
ten ant</w>
surve ill
ste pping</w>
moun t</w>
il legally</w>
elec tors</w>
compar able</w>
collec ting</w>
acu te</w>
surveill ance</w>
sh ing</w>
rec rea
pat ro
ob served</w>
al together</w>
shop ping</w>
respon dents</w>
recrea tional</w>
instruc tion</w>
bang zao</w>
5 0,000</w>
war rant</w>
procur at
memor an
yiel d</w>
trans lation</w>
ta il
sud den</w>
sud den
shar p</w>
semin ar</w>
mon goli
extre me</w>
em bl
an d-
u e
susp ic
prohib ited</w>
philipp ines</w>
la p</w>
exten sively</w>
exemp t</w>
dela yed</w>
con taining</w>
compon ent</w>
commen ce</w>
classi fied</w>
8 9</w>
sur roun
minist erial</w>
min g-
invest ed</w>
um p</w>
regul ating</w>
ran king</w>
p neu
har m
f lights</w>
er able</w>
c up</w>
oc k
hk pa</w>
f ar
depri ved</w>
t ten</w>
share holders</w>
reti red</w>
pursu ed</w>
imp acts</w>
gazet te</w>
do ors</w>
0 th</w>
the red</w>
t se
sudden ly</w>
p il
hol der</w>
f s</w>
en ds</w>
eful ly</w>
corru pt</w>
con io
compl ex
bu ying</w>
ton gue</w>
separ a
rel ying</w>
pro jected</w>
memoran dum</w>
it ly</w>
in al</w>
dum ping</w>
de emed</w>
dal ai</w>
claim ing</w>
tari ffs</w>
suppl ies</w>
satur day</w>
pneu mo
ph en</w>
f ies</w>
ex ic
deliber ately</w>
cor rid
car ing</w>
adap t</w>
stri ving</w>
ste phen</w>
shi f
oce an</w>
m exic
l ated</w>
l ad
in sol
id es</w>
high light</w>
h ire</w>
vir tually</w>
ven ue</w>
t c
ple a
optimis tic</w>
in put</w>
dist ingu
at er
prison ers</w>
pneumo conio
lo ading</w>
land lor
fran kly</w>
enthusias m</w>
edit orial</w>
with draw
wh el
on going</w>
non- governmental</w>
len ding</w>
in comes</w>
frequ ency</w>
er r
dismis sed</w>
d ging</w>
arran ge</w>
am en</w>
tu s</w>
over whel
hom o
trans action</w>
s s</w>
s lo
pre mise</w>
meaning ful</w>
manag er</w>
fru it</w>
fle et</w>
entrepre ne
dama ges</w>
cle aring</w>
ac ies</w>
so c
sion ary</w>
schedu les</w>
pro fic
del ta</w>
continu ally</w>
care er</w>
7 4</w>
v tc</w>
under go</w>
roy al</w>
mat ching</w>
li abilities</w>
est y</w>
as certain</w>
aff ects</w>
tru ste
o m</w>
good will</w>
col leg
al co
advoc ated</w>
5 3</w>
lo sing</w>
it arian</w>
he avi
exerc ising</w>
defic its</w>
conve y</w>
co des</w>
1. 5</w>
y ing-
r are</w>
qu eries</w>
op posite</w>
obstac les</w>
low ering</w>
fil ms</w>
sp ring</w>
re settlement</w>
nation alities</w>
ma gn
ch un</w>
un willing</w>
out lined</w>
orig in</w>
mer it</w>
junc tion</w>
integr ate</w>
i v
guarante ed</w>
ton n
pref er</w>
ob jects</w>
dis abilities</w>
big ger</w>
uncertain ty</w>
t line</w>
ro r</w>
re sign
p w
cont em
at tained</w>
alleg ed</w>
aggres sion</w>
y- wide</w>
w ood</w>
rul ed</w>
re strain
eluci dation</w>
can cer</w>
bus y</w>
b i</w>
sol em
ran ging</w>
gener ations</w>
gar ris
feat ure</w>
dist or
consoli date</w>
volun te
targe ted</w>
rela tive</w>
re public
on ia</w>
i v</w>
198 2</w>
ph il
n ga
mo tiv
herit age</w>
expres s
dismis sal</w>
construc ted</w>
col lap
are r</w>
prin t</w>
enabl es</w>
clo sing</w>
y un
pr oud</w>
like wise</w>
l acking</w>
foot ball</w>
elec tric</w>
educ ate</w>
bal ances</w>
5 8</w>
y el
x u</w>
ter ly</w>
mono poli
mal a
is ol
consequ ence</w>
ag ent</w>
ac ent</w>
se emed</w>
is lands</w>
calcul ated</w>
add resses</w>
5 2</w>
wil ling
un satisfactory</w>
realiz ing</w>
midd le-
j in</w>
ai ded</w>
aban don
willing ness</w>
to tal
soc cer</w>
plea sure</w>
instal lations</w>
gan g</w>
excee ding</w>
encoun ter</w>
contrac ting</w>
comm only</w>
victor ia</w>
sti pu
repe aling</w>
langu ages</w>
inc enti
cost- effective</w>
ar du
v ary</w>
remar kable</w>
festi val</w>
accep ting</w>
5 9</w>
s man</w>
rac ial</w>
pat ent</w>
j uni
investig ated</w>
in ce</w>
fi l</w>
c it
wi ves</w>
v o</w>
under lying</w>
ti e</w>
revolu tionary</w>
poss ess
ir ation</w>
announ ce</w>
after wards</w>
t dc</w>
incenti ves</w>
har mony</w>
har mon
5 1</w>
withdraw al</w>
ul ous</w>
ris en</w>
pro to
p p</w>
out look</w>
finan cially</w>
execu tive-
disa ster</w>
com plemen
colleg es</w>
anci ent</w>
5 6</w>
vers y</w>
sh aring</w>
reco vered</w>
part -time</w>
ka i-
ji an
equ itable</w>
dele ted</w>
conv ince</w>
contro versy</w>
conc iliation</w>
compe tent</w>
c c
br ings</w>
arri ve</w>
telecommunic ation</w>
st one</w>
rela x</w>
r um
po ol</w>
mig rants</w>
ju n</w>
ho sti
ful fil</w>
four -
col labor
understand able</w>
su ffici
pl ight</w>
ow s</w>
marke ting</w>
lea ves</w>
es si
defin ite</w>
0 1</w>
viol ent</w>
text books</w>
reg istry</w>
par is</w>
p ity</w>
lo dged</w>
knowle dge
dis advanta
arma ment</w>
al er
sub stances</w>
process es</w>
n a</w>
mani fe
le um</w>
el ect</w>
deli ver</w>
the ft</w>
perform ed</w>
gen tly</w>
fu jian</w>
forth coming</w>
afford able</w>
9 00</w>
ri e
ren dered</w>
re ject</w>
notic ed</w>
neg lected</w>
ne ar
institu tes</w>
broad cast</w>
bet ting</w>
acc red
vo ked</w>
tse ung</w>
th ai</w>
se as
run s</w>
privile ges</w>
mala ysi
hop ing</w>
ess enti
entreprene urs</w>
a il</w>
with drawn</w>
transpa rent</w>
ti bet
infr ing
flo or</w>
20 ,000</w>
w ing</w>
s q</w>
remo te</w>
in ely</w>
garris on</w>
consider ably</w>
can cel
campaig ns</w>
anticip ated</w>
whol ly</w>
var i
se ized</w>
mis leading</w>
harm ful</w>
h ke</w>
gather ing</w>
e ased</w>
survi val</w>
juni or</w>
dig ital</w>
clo thing</w>
ann a</w>
6 4</w>
wor st</w>
tu red</w>
prof essor</w>
pre requisite</w>
luc tu
lo t
li vest
ke ung</w>
iss ance</w>
f luctu
deci sion
de serve</w>
beauti ful</w>
americ ans</w>
2 7
2 .5</w>
z hao</w>
witness ed</w>
spea ker</w>
qu ick</w>
pen sions</w>
jurisdic tions</w>
inf ec
grow n</w>
gen t
cor dial</w>
coast al</w>
anti- china</w>
nu isance</w>
ma k</w>
bin ding</w>
apart ments</w>
ten d
pu ts</w>
ow ed</w>
livest ock</w>
inspec tors</w>
hy po
cost- effectiveness</w>
ath le
0 2</w>
vir us</w>
petro leum</w>
main tains</w>
ir an</w>
ga z
econom ically</w>
co al</w>
victi m</w>
stra its</w>
ital y</w>
1 a</w>
re v</w>
phr ase</w>
part ner</w>
im mun
ill ness</w>
f at
commen ted</w>
abo ve-
suppli ers</w>
re sist</w>
pre sum
ide ology</w>
accoun tants</w>
pus hing</w>
op ens</w>
fin ished</w>
deep en</w>
cl ass
am ple</w>
vo ic
s mar
repe aled</w>
qu een</w>
organis ations</w>
go s</w>
tw ith
twith standing</w>
succ es
resign ation</w>
no twithstanding</w>
near by</w>
explic itly</w>
attr acting</w>
all- round</w>
under stands</w>
und ant</w>
suppl ied</w>
resist ance</w>
ko so
hi on</w>
heavi er</w>
go tten</w>
ev a</w>
encoura gement</w>
ear nings</w>
destro yed</w>
ardu ous</w>
9 1</w>
198 1</w>
sp el
s h</w>
ri de</w>
invest ing</w>
high- level</w>
he ight</w>
g ic</w>
cra tic</w>
view point</w>
t se</w>
st ar</w>
prot est</w>
co operate</w>
be l</w>
vi able</w>
scru pul
sa i</w>
rel ate</w>
medium -
m ur
jeop ardi
free ly</w>
clim ate</w>
10 0,000</w>
vo ke</w>
virtu e</w>
tac tics</w>
squ arely</w>
inclu sion</w>
in jury</w>
in ity</w>
defend ant</w>
bar row</w>
am big
af ore
ad ult</w>
ukra ine</w>
tri ps</w>
terror ism</w>
t less</w>
insp ect</w>
i ent</w>
h ome
belong ing</w>
tel ling</w>
ji ang
e able</w>
deplo y</w>
cop ies</w>
assess ments</w>
tend ency</w>
subsidi ze</w>
respon ses</w>
or ation</w>
law yer</w>
ho t</w>
8 6</w>
wor sen
ro man
polytechn ic</w>
pha ses</w>
n an</w>
koso vo</w>
justi fication</w>
coordin ation</w>
chan ces</w>
y ue</w>
vide o</w>
tonn es</w>
public ations</w>
negoti ate</w>
gu ided</w>
fam ous</w>
dispen sable</w>
cl p</w>
observ ation</w>
kw un</w>
juven ile</w>
car ries</w>
tor ily</w>
ques tioned</w>
purcha sing</w>
prosp ect</w>
prefe rential</w>
pan els</w>
mater i
den y</w>
cho o
ap parent</w>
procee ding</w>
por tu
ple dges</w>
enfor ced</w>
dri ven</w>
cheung- kwok</w>
au stri
weap on</w>
vis ing</w>
ve ge
repa irs</w>
re tained</w>
orien tation</w>
nam ed</w>
hu an</w>
gen eva</w>
deman ded</w>
wor th
pres sion</w>
gra tia</w>
g ul
boun d
abst ain</w>
y an
pre text</w>
or al</w>
dis satisfied</w>
accoun ted</w>
than ked</w>
readju st
inter viewed</w>
deepen ing</w>
co-ordin ating</w>
c t
brea king</w>
advis er</w>
you ths</w>
inform al</w>
f ty</w>
exc ise</w>
tou ched</w>
tel ls</w>
simul tan
reconna issance</w>
l ung</w>
hegem on
go ld</w>
facil ity</w>
cam p</w>
bound aries</w>
wid ening</w>
spon s
ro c
ear ning</w>
appropri ately</w>
sh an
pre jud
liber alization</w>
hel ps</w>
deci sive</w>
dama ged</w>
conve yed</w>
cigaret tes</w>
broad ly</w>
braz il</w>
boo k
sino- japanese</w>
reluc tant</w>
pol it
ma il</w>
in duc
fel low</w>
sigh ted</w>
separ ated</w>
m t</w>
m ale</w>
is tic
inno cent</w>
executive- led</w>
ex it</w>
de lin
convinc ing</w>
comm on
acqu ired</w>
unanim ously</w>
ru b
po lar
journ alists</w>
construc t</w>
ad judic
inci dence</w>
ful fill</w>
essenti ally</w>
barri ers</w>
al istic</w>
under going</w>
ol s</w>
mo vements</w>
diversi fied</w>
descri be</w>
de serves</w>
coun sel</w>
commun ists</w>
ri d</w>
h i-
constitu tes</w>
commen ced</w>
circul ation</w>
al ty</w>
wholes ale</w>
vic es</w>
vi su
short fall</w>
scen ari
occur rence</w>
inv ari
innov ations</w>
hal f-
da ya</w>
compar atively</w>
acknowle dge</w>
suppor tive</w>
rela xed</w>
practi sing</w>
pho to
p raised</w>
in dispensable</w>
for ma
bl ue</w>
ad dic
r ate
par tly</w>
fung- kwok</w>
ex por
dri ver</w>
direc torate</w>
consor ti
chin g-
as ing</w>
vig il
vers ity</w>
senten ced</w>
psy chi
noti fication</w>
multi lateral</w>
ge or
fire arms</w>
ear ned</w>
dy nam
clo sure</w>
5 7</w>
tibet an</w>
sy ri
pro cu
observ ations</w>
indonesi a</w>
ide als</w>
categ or
ag eing</w>
ach es</w>
above- mentioned</w>
po land</w>
genu inely</w>
dea ths</w>
d pp</w>
b ought</w>
viol ated</w>
to ol</w>
soph istic
po ll</w>
pl astic</w>
h -
desi red</w>
who le-
wast es</w>
struc k</w>
ro te</w>
promulg ated</w>
four thly</w>
corrid or</w>
ch uan</w>
casu alties</w>
b re
vic inity</w>
un like</w>
there after</w>
stra tions</w>
speci alized</w>
prece dent</w>
p oul
lan ding</w>
justi fy</w>
in consistent</w>
id en
de ter</w>
de t
back ward</w>
afford ability</w>
1 20</w>
w all</w>
us al</w>
ta ges</w>
low ered</w>
ky o</w>
insp ected</w>
id ation</w>
fron t-
travel lers</w>
repl ied</w>
min orities</w>
in decent</w>
hi- tech</w>
exer t</w>
excee ds</w>
du ly</w>
contain ers</w>
au th
any way</w>
ab used</w>
z ed
smar t</w>
ru i
rela x
poul try</w>
pharm acy</w>
lob b
invari ably</w>
dis satisfaction</w>
cyc le</w>
contribu ting</w>
consci ous</w>
avo ided</w>
advan cing</w>
ta min
so red</w>
re organization</w>
profic iency</w>
piec es</w>
al ban
web site</w>
w ind</w>
tur ns</w>
prohi bition</w>
ple dged</w>
ness es</w>
mo tive</w>
log ical</w>
le tting</w>
impro per</w>
gener ous</w>
foreca sts</w>
discrimin atory</w>
sl ope</w>
si ck</w>
o x
fl ying</w>
discipl ined</w>
dic t
bas es</w>
ti ll</w>
perfec tly</w>
m c</w>
it ative</w>
iden tical</w>
ar ises</w>
ad ults</w>
6 8</w>
ur gently</w>
suffici ently</w>
sp ecu
oc s</w>
lu i</w>
l t
kee ps</w>
hon .</w>
fin alized</w>
ate ment</w>
typ ical</w>
statis tical</w>
sam ples</w>
por tion</w>
is c
illustr ate</w>
frau d</w>
fin ds</w>
continu ity</w>
bur dens</w>
sust ain</w>
so ft</w>
k new</w>
f f</w>
en t
budge ts</w>
- funded</w>
xi amen</w>
s log
rout ine</w>
re stra
me tro
kazak h
g ir
fe els</w>
enjo ys</w>
diff er</w>
w rote</w>
tru sted</w>
promo tional</w>
pol ling</w>
mil lions</w>
la ying</w>
kwok- keung</w>
i ds</w>
du al</w>
de tri
com posed</w>
a ren
v es
u ght</w>
sum mar
plen ary</w>
it ations</w>
develop er</w>
cr ack</w>
ara b</w>
advan cement</w>
- off</w>
where ver</w>
speci ally</w>
pro active</w>
lu x
licen sees</w>
impe tus</w>
enjo ying</w>
em power</w>
chall eng
we igh
s our
reven ues</w>
pas sive</w>
mi xed</w>
l end</w>
high ways</w>
fa ther</w>
b ao</w>
as ser
z hu
ven cy</w>
ta bles</w>
sha pe</w>
sh oc
senti ments</w>
practi se</w>
ge ous</w>
fac es</w>
evi d
de vices</w>
cu ts</w>
complex ity</w>
br us
under ground</w>
u .
re minded</w>
r is</w>
po c
ma kers</w>
her o
e gy
ce ase</w>
benef ited</w>
approach es</w>
add ressing</w>
accompan ied</w>
te ach</w>
sci ences</w>
regret table</w>
pro li
peri o
oper ates</w>
kazakh stan</w>
j l
excep tional</w>
comb ating</w>
be i</w>
ap pen
succe e
guil ty</w>
for gotten</w>
confid ential</w>
cau tious</w>
al lies</w>
adjour nment</w>
st ad
sex u
pre serving</w>
li ft</w>
j an</w>
incorpor ate</w>
gri ev
endor se</w>
co l</w>
war m
u. s.</w>
lo dge</w>
levi ed</w>
inc umb
ge ts</w>
fil ls</w>
fe hd</w>
en abled</w>
conc es
cam ps</w>
budge tary</w>
asp iration</w>
survi ve</w>
stran ge</w>
spon sored</w>
om in
nar co
mexic o</w>
don ations</w>
dela ys</w>
bo ats</w>
writ e</w>
thre ats</w>
ten ancy</w>
syn dic
sec rets</w>
jl g</w>
en ding</w>
commit ting</w>
zed ong</w>
year- old</w>
un scrupul
to m</w>
sympa thy</w>
school ing</w>
proli fer
gul f</w>
democra tization</w>
conf isc
concentr ated</w>
bl o
1 2
tre ating</w>
si sts</w>
shar ply</w>
relax ation</w>
op tim
k un
fore ver</w>
expec tation</w>
assum ption</w>
tan ta
mechan ical</w>
fl u</w>
emer ge</w>
divor ce</w>
ar ouse</w>
tanta mount</w>
sign al</w>
set tling</w>
satisfac torily</w>
proto col</w>
pro minent</w>
pres sures</w>
inst all</w>
fru it
acqu i
a be
worth while</w>
tic kets</w>
sop hi
sophi e</w>
h si
enc ing</w>
disadvanta ged</w>
cu ba</w>
com prises</w>
cle arer</w>
proc essions</w>
nga i</w>
mess ages</w>
lobb ying</w>
es e-
diplom acy</w>
anim als</w>
w ished</w>
vis as</w>
un h
tw en
sou th
pric ing</w>
mis sing</w>
la i</w>
bid ding</w>
ber n
ter ies</w>
re alization</w>
phil ip</w>
ob ser
don ation</w>
4 ,000</w>
to kyo</w>
the tic</w>
qu a
prec au
ma sters</w>
in ner</w>
ex po
sta tioned</w>
en i
demonstr ation</w>
conven tional</w>
bul ance</w>
6 3</w>
scienti sts</w>
graph ic</w>
fur n
exp atri
dec lined</w>
conces sionary</w>
cap abilities</w>
ten ders</w>
smo kers</w>
persu ade</w>
palest ine</w>
on ian</w>
li ved</w>
human itarian</w>
di tion</w>
streng ths</w>
recogn izes</w>
le i
facilit ating</w>
di min
de sp
competi tors</w>
b es</w>
am bulance</w>
worl d-
staff ing</w>
re sign</w>
protec tive</w>
overwhel ming</w>
ou tre
is ation</w>
har sh</w>
compe ten
ching- fai</w>
ash ed</w>
accur ately</w>
academ ics</w>
sur prise</w>
so ever</w>
re y</w>
pol ls</w>
jec tions</w>
investig ating</w>
inc in
cho i-
c z
arbit ration</w>
sur ge</w>
refer r
promp t</w>
pro spective</w>
non e
none theless</w>
em an</w>
e ously</w>
cre ative</w>
consoli dated</w>
bern ard</w>
sup posed</w>
sor ts</w>
seri ousness</w>
pe i</w>
p in
lin king</w>
he igh
ga thered</w>
fi er
as signed</w>
2 50</w>
up held</w>
undermin ed</w>
threat ened</w>
tar ies</w>
squat ter</w>
o d-
in convenience</w>
front- line</w>
e g
cont ingent</w>
compu ter
choi- hi</w>
chair men</w>
3 a</w>
w are</w>
s ca
qi ao</w>
loc alization</w>
instru ments</w>
im pa
g ary</w>
de vote</w>
cad re</w>
any body</w>
ves sel</w>
territ or
tar ily</w>
surroun ding</w>
sub jec
recei pt</w>
pursu it</w>
pre serv
n ia</w>
land fills</w>
h ung</w>
fru str
exclu ded</w>
cy ber
con tamin
200 4</w>
relation ships</w>
publ ishing</w>
organiz ational</w>
main stream</w>
hon or</w>
ex act</w>
dis charged</w>
d i</w>
cre w</w>
c um
bel ar
appen di
what soever</w>
ti able</w>
shor t-
sen ding</w>
non- government</w>
incumb ent</w>
hear ts</w>
em powers</w>
el ev
chu en</w>
chec king</w>
assum ing</w>
8 4</w>
super vise</w>
sup plement</w>
rui huan</w>
high ligh
endor sement</w>
dur ation</w>
dis ast
conf erred</w>
bag s</w>
b in</w>
appro ving</w>
unil ater
tra inees</w>
territor y-wide</w>
sophistic ated</w>
restaur ant</w>
refe rences</w>
prejud ice</w>
na val</w>
kil ome
impar tial</w>
g ate</w>
decision -making</w>
co t
cen sorship</w>
break through</w>
stabil ize</w>
preserv ation</w>
pneumoconio sis</w>
o v</w>
neg ligence</w>
happen ing</w>
destruc tion</w>
cau tion</w>
t les</w>
substan ti
no -
mon u
mode st</w>
in y</w>
explan ations</w>
co-ordin ated</w>
b acks</w>
wa ve</w>
unscrupul ous</w>
om bud
mi ti
fron tier</w>
cambodi a</w>
assist ed</w>
appendi x</w>
rus h</w>
mo k</w>
ma gaz
la sting</w>
govern ed</w>
consist ency</w>
b ol
b adly</w>
tur k
tol ls</w>
pharmac eu
ir o</w>
fo ld</w>
deman ding</w>
consorti um</w>
che k</w>
war ned</w>
restrain t</w>
in jection</w>
gra titude</w>
der ived</w>
contr ast</w>
197 0s</w>
yu xi</w>
selec ting</w>
offici ally</w>
n ity</w>
institu ted</w>
he rent</w>
fas hion</w>
d ity</w>
d am
coven ants</w>
attemp ted</w>
accord ed</w>
techn ic
t ty</w>
sti c</w>
so oner</w>
long- standing</w>
fe e
enfor cing</w>
endeav our</w>
e rec
comm u
capit a</w>
alterna tives</w>
accep ts</w>
stipul ate</w>
specul ators</w>
sp are</w>
shi p
reli ance</w>
prolifer ation</w>
ist an
ho st
decreas ed</w>
bi tions</w>
be st
attribu ted</w>
198 0</w>
voic ed</w>
insol vency</w>
indic ators</w>
gg y</w>
every where</w>
eth ics</w>
dil ig
convic tions</w>
consoli dation</w>
cheung- ching</w>
acc us
6 6</w>
wat er
tigh ten</w>
system atic</w>
serv ant</w>
sai- chu</w>
procu rement</w>
mu sic</w>
interpre t</w>
inde fin
hk sar</w>
hear ings</w>
er ating</w>
2. 30</w>
vo ter</w>
us age</w>
process ed</w>
po o</w>
patro l</w>
in an</w>
comp iled</w>
ass ing</w>
st ore
res or
rec over
polic y-
ombud sman</w>
du plic
au c
ang er</w>
y in-
warran ts</w>
trad ers</w>
n ly</w>
identi fication</w>
fundamen tally</w>
fla g</w>
destro y</w>
con su
bom bing</w>
al arm</w>
advoc ating</w>
succ ession</w>
s ong</w>
re moving</w>
lead s</w>
kenne th</w>
independ ently</w>
govern ment-
fore most</w>
er age</w>
conver sion</w>
c in
ban ned</w>
autom atically</w>
3 ,
war nings</w>
stra igh
per cep
par ti
mode ls</w>
malaysi a</w>
la tin</w>
interpre ted</w>
im men
econom ics</w>
design s</w>
shr ine</w>
reserv ation</w>
re inst
ra d</w>
law -
incorpor ation</w>
fi able</w>
cz ec
cust o
compon ents</w>
bi o
alleg ations</w>
air line</w>
acknowle dged</w>
v a
un realistic</w>
stad ium</w>
rein force</w>
pro long
pa ul</w>
emo tional</w>
bl ue
20 th</w>
titu des</w>
question na
pe ggy</w>
in habit
hard ships</w>
fo ods</w>
f ly</w>
er ad
conven tions</w>
ar tific
6 7</w>
197 9</w>
ti als</w>
sk y</w>
neutr al</w>
harmon ious</w>
eff luent</w>
deb ating</w>
cul ts</w>
anim al</w>
tsu i</w>
surpris ing</w>
su spects</w>
pun ished</w>
lei sure</w>
land s
hel ic
erad ic
defin i
yin- fat</w>
stipu lations</w>
mac ro
liti gation</w>
gu est</w>
crow ded</w>
athle tes</w>
un usual</w>
si tion</w>
sa ved</w>
public ize</w>
k age</w>
in aug
helic op
f m</w>
expo sure</w>
e ag
construc ting</w>
chan g</w>
bureau cratic</w>
aren a</w>
amoun ted</w>
200 5</w>
la tionary</w>
initi ate</w>
in ter</w>
hear tedly</w>
fe rences</w>
comfor table</w>
civil ian</w>
0 3</w>
stream line</w>
resolu tions</w>
readjust ment</w>
out sour
le af
k o</w>
k mt</w>
ho l</w>
here by</w>
ha inan</w>
f arm</w>
es cape</w>
effici ently</w>
ear th
dis regard</w>
dis pat
deterior ation</w>
avi an</w>
ann um</w>
ta ke
str ata</w>
ste el</w>
sle ep
sk ill</w>
promis ing</w>
practic ally</w>
for cing</w>
depri ve</w>
de tained</w>
cha ir</w>
ben ch
alco hol</w>
8 3</w>
uni form</w>
und eni
sur charge</w>
sugge sting</w>
ro ck</w>
repl ies</w>
rec la
over looked</w>
out dated</w>
offici o</w>
k ung</w>
im ply</w>
h es
educ ated</w>
counter part</w>
bro ke</w>
b al</w>
z eng</w>
thir ds</w>
predic ted</w>
fr inge</w>
dele tion</w>
cross- border</w>
advertise ment</w>
advan ces</w>
volun tarily</w>
up ward</w>
under gone</w>
t ted</w>
qu et</w>
p hon
free zing</w>
disast ers</w>
demon strations</w>
ap s</w>
ach ing</w>
6 2</w>
viol ate</w>
sign boards</w>
republic an</w>
re location</w>
qu ie
po t</w>
narco tics</w>
i que</w>
gr oun
fin ish</w>
def lation</w>
dec lining</w>
complemen tary</w>
collap se</w>
classi fication</w>
bor rowing</w>
z hong
trans mission</w>
reserv ed</w>
ref usal</w>
pw c</w>
prec ise</w>
le ases</w>
fruit ful</w>
foc using</w>
ear marked</w>
c l</w>
accompl ish</w>
tific ations</w>
ten sion</w>
re n</w>
p raise</w>
minim al</w>
identi fying</w>
d an</w>
con rad</w>
calcul ating</w>
bureau cr
sp ain</w>
prosecu te</w>
pri de</w>
gi ble</w>
explo sion</w>
enthusi astic</w>
constitu ted</w>
c ure</w>
adju sting</w>
wa ke</w>
sm en</w>
ref uses</w>
knowledge -based</w>
h id
el ling</w>
8 2</w>
time -
the ories</w>
ste ering</w>
ri dic
pat ron
know ing</w>
do ver</w>
co- operative</w>
aud rey</w>
3 ,000</w>
who le
s p</w>
o vern
l l
intere sting</w>
g c</w>
encoura ges</w>
tra m
misunder stood</w>
lim itations</w>
host els</w>
clin ic</w>
bot tom</w>
aw ards</w>
solic itor</w>
sa d</w>
psychi atric</w>
overn ight</w>
out break</w>
ou l</w>
off shore</w>
fortun e</w>
f ile</w>
dis gu
chron ic</w>
ban quet</w>
b on</w>
un certain</w>
s wee
re payment</w>
mar i
maca u</w>
it -
en tr
cyber port</w>
common wealth</w>
char itable</w>
broad er</w>
aban don</w>
sleep ers</w>
pra is
mongoli a</w>
hur t</w>
gar den</w>
enqu iries</w>
em e
dre am</w>
counter fe
b ab
assa ult</w>
200 8</w>
vic e-
sco red</w>
north -
ming- wah</w>
land fill</w>
il li
ho sted</w>
enac ting</w>
chec ked</w>
vac ancy</w>
sino- russian</w>
respon ding</w>
re alities</w>
polit an</w>
p ts</w>
oun ding</w>
man ual</w>
id able</w>
hid den</w>
expl oring</w>
exp iry</w>
cs d</w>
chi- wood</w>
val idity</w>
typ ho
preci ous</w>
hel pl
he ated</w>
griev ances</w>
grad es</w>
go od-
fru its</w>
en ess</w>
distinc tion</w>
discrimin ate</w>
detec tion</w>
constrain t</w>
comple ting</w>
comple ment</w>
compe ting</w>
bul gar
ag ger
under way</w>
tur no
tu ition</w>
su ms</w>
ri ding</w>
re si
n gos</w>
ku k</w>
fro zen</w>
di ag
che ap</w>
b n</w>
1. 2</w>
so il</w>
se hk</w>
reduc tions</w>
hon -
ex agger
el o
di c</w>
demo lition</w>
abandon ed</w>
tran sm
t ough</w>
sup pose</w>
stor m</w>
reflec tion</w>
purcha sed</w>
prolong ed</w>
plo t</w>
per sist</w>
medium- sized</w>
it es</w>
ing ual</w>
gol den</w>
explic it</w>
dis semin
di e</w>
c us
tol erate</w>
t esti
secu red</w>
progra ms</w>
m in</w>
gent l
deleg ates</w>
con junction</w>
cal i
7 3</w>
sto res</w>
re taining</w>
p am
milit ar
ir on</w>
ga ther</w>
deduc tion</w>
wa sted</w>
religi on</w>
polic emen</w>
poin ting</w>
i ve</w>
gr ace</w>
explain s</w>
du ty-
b all
7 2</w>
ti ble</w>
superi ority</w>
se w
ro ad
per ce
particul ars</w>
motor ists</w>
labor atory</w>
inten tions</w>
inc ap
haz ards</w>
eluci date</w>
dra g
contra vention</w>
bl in
tr ac
sub ordin
max im
co ol
bel l</w>
sta ying</w>
s light</w>
pan cy</w>
im peri
h ering</w>
exp ects</w>
detec ted</w>
d b</w>
b one</w>
autom atic</w>
as tically</w>
al ig
t as</w>
reti re</w>
poten tials</w>
pa k
over time</w>
min g
la y
impor ting</w>
immig rant</w>
foreign ers</w>
dr astically</w>
doub tful</w>
cou pled</w>
blue print</w>
well- known</w>
up date</w>
unilater ally</w>
un re
turno ver</w>
si m</w>
scrutin ize</w>
persist ently</w>
out set</w>
multi ple</w>
min i
is en</w>
down ward</w>
def ects</w>
com ings</w>
br un
aler t</w>
tion ism</w>
tai pei</w>
safeguar ded</w>
qu an
nom ination</w>
kin -
el lit
b o</w>
acqui sition</w>
well- off</w>
un ite</w>
techn iques</w>
speci alists</w>
le g</w>
deliber ate</w>
contr actual</w>
comp as
co al
civil ized</w>
abe th</w>
6 9</w>
ying- fan</w>
ten dering</w>
st ering</w>
seas on</w>
scenari o</w>
pus hed</w>
prof ile</w>
pir ated</w>
patrio tic</w>
contraven e</w>
cen ts</w>
ar isen</w>
xi ang</w>
w en
om al
neighbor ly</w>
hous ed</w>
el iz
e ering</w>
du tiable</w>
d .</w>
citiz en
ce as
c ell
at titudes</w>
an ti</w>
tur key</w>
ta g
slo v
re forming</w>
practition er</w>
occur s</w>
negoti ating</w>
modi fied</w>
mic ro
libr ary</w>
l a</w>
er ring</w>
emer gence</w>
contrac ted</w>
c k
br illi
adop ts</w>
y ung-
y en</w>
s s
renew ed</w>
offen sive</w>
mar king</w>
m ic</w>
lt d.</w>
f ate</w>
eliz abeth</w>
di versity</w>
conver gence</w>
comm em
col um
ap r</w>
ton ight</w>
senti ment</w>
s add
ret rog
pharmaceu tical</w>
peti tion</w>
maj esty</w>
exhi bitions</w>
en tion</w>
czec h</w>
concentr ation</w>
centr alized</w>
carri er</w>
arri ving</w>
am bit</w>
under -
st ating</w>
insist ed</w>
descri ption</w>
canad ian</w>
arbitr ary</w>
4 a</w>
worsen ing</w>
whole- day</w>
sat ellit
s pre
recti fication</w>
par amount</w>
kil ling</w>
inf lationary</w>
ful filled</w>
commission ing</w>
an ian</w>
vic ious</w>
tempor arily</w>
re vit
rad ical</w>
mtr cl</w>
gu es
elimin ated</w>
dis appointment</w>
de vise</w>
d at
cre a
conduc ts</w>
con secu
bl ack
6 ,000</w>
200 7</w>
0 5</w>
wal ks</w>
th row</w>
mat ches</w>
m ass
lo y
indic ating</w>
in tim
gre w</w>
gazet ted</w>
con ferences</w>
appreci ated</w>
accred itation</w>
w anese</w>
tai wanese</w>
p ang</w>
k it</w>
ha sti
f an
explo itation</w>
execu tives</w>
cs c</w>
con form</w>
be at</w>
attribu table</w>
6 1</w>
uncertain ties</w>
short comings</w>
rie ved</w>
remedi es</w>
recru ited</w>
kam- chuen</w>
hasti ly</w>
dis content</w>
to x
ti k</w>
regul ar
jour ney</w>
ital ian</w>
il ls</w>
hk ta</w>
he c</w>
fic ations</w>
er ror</w>
def er</w>
dec eased</w>
d au
consi sts</w>
ad mir
10 .
1 80</w>
1 60</w>
specu lative</w>
sp ouse</w>
shr in
j ing
inter ru
i res</w>
f ts</w>
evalu ate</w>
di o
comb ination</w>
circ le</w>
bro ade
ali ke</w>
15 th</w>
s wi
red ress</w>
recru iting</w>
por no
per taining</w>
mo bility</w>
ji ab
highligh ted</w>
he ung</w>
for war
fe ars</w>
demonstr ates</w>
chan cell
avo idance</w>
ren tals</w>
r oughly</w>
one- way</w>
moder ate</w>
e ar</w>
contradic tion</w>
bat ch</w>
3 .5</w>
view points</w>
tri ads</w>
t ours</w>
sub jected</w>
simultan eously</w>
sel dom</w>
pre gn
par tial</w>
on ed</w>
licen see</w>
gu es</w>
ess ed</w>
ep ide
divi de</w>
diag no
dau gh
confid enti
clu bs</w>
cham pion
can v
an ish</w>
tr ic
su en</w>
sil ent</w>
p it
inhabit ants</w>
gun s</w>
dec ei
coal ition</w>
cham bers</w>
bl e-
appe arance</w>
tri gg
satellit es</w>
reflec ting</w>
rate able</w>
radi o
proce dur
meaning less</w>
me at</w>
l ou
jiab ao</w>
intensi fied</w>
har der</w>
gen e
disc ourage</w>
defe at</w>
contradic tory</w>
carri ers</w>
sho o
ro ll</w>
rig id</w>
phenomen a</w>
marx ist</w>
man ship</w>
issu ance</w>
inter connection</w>
i er</w>
execu tion</w>
conf used</w>
comfor t</w>
co o
choo sing</w>
ve ter
succee ded</w>
request ing</w>
re di
pro ves</w>
physi cally</w>
of -
mus e
inter- departmental</w>
figh ter</w>
explain ing</w>
exist ed</w>
cp f</w>
bud d
bri dges</w>
8 1</w>
visu al</w>
tradi tions</w>
town ship</w>
swe den</w>
substitu te</w>
profit -making</w>
oun dly</w>
lead ed</w>
han dover</w>
extra ordinary</w>
cris es</w>
belar us</w>
alloc ating</w>
xi de</w>
vi sible</w>
three- year</w>
ta ught</w>
supervis ors</w>
some body</w>
reve al</w>
pir acy</w>
pak istan
inten se</w>
hus band</w>
councill or</w>
yu n</w>
unh cr</w>
trage dy</w>
tol er
re nov
radi ation</w>
k am</w>
invest or</w>
in ject</w>
haz ard</w>
e ur
dar k</w>
dang ers</w>
confidenti ality</w>
com pa
bo ld</w>
z u
two- way</w>
resolu te</w>
pu i</w>
progres sively</w>
n gan</w>
inv al
err ors</w>
collabor ation</w>
ch ur
c key</w>
acc es
sub version</w>
st ore</w>
solem n</w>
seven th</w>
s ers</w>
ro ws</w>
nor theast</w>
e a</w>
dama ging</w>
cp r</w>
batt le
ab sur
7 8</w>
ye v</w>
v a</w>
utili zed</w>
ts in</w>
truc ks</w>
tem per
sym posi
sym bo
stri kes</w>
preven ted</w>
plat forms</w>
li fel
indu l
ho tline</w>
heal th
e oc</w>
dra in</w>
sa mu
reas t</w>
pr d</w>
n est</w>
har d-
guarante es</w>
g ore</w>
e ts</w>
deli gh
cro a
bi a</w>
2 a</w>
work place</w>
unde res
tr il
samu el</w>
qual ities</w>
procedur al</w>
integr al</w>
in herent</w>
in forma
implic ation</w>
im minent</w>
g or
fore hand</w>
fier ce</w>
crea tivity</w>
consor tia</w>
be forehand</w>
acces sible</w>
vis a-
tex tile</w>
sel s</w>
representa tiveness</w>
re b
pu zz
pro jections</w>
peac e
l est</w>
ing- up</w>
g en</w>
follow ers</w>
defen ding</w>
de fault</w>
7 7</w>
yung- kan</w>
visa- free</w>
un known</w>
tal ented</w>
sim on</w>
si chuan</w>
persist ent</w>
me tic
hor se</w>
fran k</w>
den sity</w>
ad hering</w>
ac p</w>
separa tist</w>
scrutin izing</w>
refuge e</w>
practi sed</w>
p -
mem ory</w>
ie ties</w>
ic cpr</w>
high- quality</w>
fe et</w>
enrol ment</w>
diver se</w>
detri mental</w>
d u</w>
condi tional</w>
ch ris</w>
ce l</w>
best os</w>
b its</w>
as bestos</w>
tian jin</w>
ti les</w>
six -
s can
quanti ties</w>
post pon
ph s</w>
par a
lin ess</w>
l ating</w>
envis aged</w>
consecu tive</w>
chancell or</w>
ass ment</w>
accel erated</w>
work shops</w>
v ent</w>
t emp
recei ves</w>
open ness</w>
h ung
fe b</w>
estim ation</w>
bil ingual</w>
ambi tious</w>
under took</w>
pre- primary</w>
obser vers</w>
ob scene</w>
n p
m uni
ku omin
in sists</w>
in sid
cong res
commo dity</w>
advoc ates</w>
tom my</w>
te en</w>
quo tas</w>
prud ence</w>
pre ference</w>
kuomin tang</w>
fra g
exces sively</w>
enti tlement</w>
emer ging</w>
e at</w>
complain ed</w>
bi ased</w>
anx iety</w>
197 8</w>
up dated</w>
off -
my an
hung ary</w>
fu els</w>
citizen ship</w>
ch er</w>
behavi or</w>
z he
voc ation</w>
text book</w>
sup press</w>
sing -
scre en</w>
noti fied</w>
le v
fra me</w>
cros s
un due</w>
um i</w>
regi ment</w>
r i</w>
pl uses</w>
offend er</w>
men tary</w>
embar r
earli est</w>
demo l
dead line</w>
brilli ant</w>
aim ing</w>
surve y
strugg les</w>
st y</w>
sp an</w>
s an</w>
row n</w>
re min
pil lar</w>
nan jing</w>
n ul
mul tin
lo d
lad y</w>
infring ement</w>
hu a
eigh th</w>
d enti
capit alist</w>
b ow
ash es</w>
ap prais
.... .</w>
retro spective</w>
presum ption</w>
n am</w>
magistr ate</w>
inqu iries</w>
indi gn
hy dro
ho sting</w>
g lor
eng land</w>
deterior ating</w>
deci des</w>
conven ed</w>
conclu ding</w>
cle ared</w>
c d</w>
v i</w>
superi or</w>
renew able</w>
qual ify</w>
p ick</w>
mi x</w>
hy f</w>
gener ating</w>
fat al</w>
con sp
communic ate</w>
chi ro
warm ly</w>
w rong
ten th</w>
spec ies</w>
re sts</w>
ra phs</w>
parag raphs</w>
mo vi
ko iz
he ed</w>
gree tings</w>
geor ge</w>
f it
eth ical</w>
don ald</w>
chil d
bom b</w>
audi ence</w>
administ ered</w>
accompl ished</w>
whole heartedly</w>
t an</w>
sub mar
re juven
r o</w>
pl ing</w>
pam ph
obstac le</w>
marg inal</w>
mach ines</w>
lif ts</w>
ev ade</w>
deleg ations</w>
de preci
chiro prac
cha os</w>
be ings</w>
ag u
aff air</w>
u gu
sion ate</w>
secur ing</w>
ref using</w>
polar ization</w>
or um</w>
or ate</w>
men tions</w>
koiz umi</w>
k id
commen t
br and</w>
author ization</w>
up coming</w>
suspic ion</w>
sur pluses</w>
re m
pre dec
par ad
pakistan i</w>
pa in</w>
mari time</w>
log y</w>
lif ting</w>
kin- shing</w>
it ate</w>
correc tional</w>
constitu ents</w>
bro kers</w>
200 6</w>
yel tsin</w>
wi den</w>
t so</w>
spl it
rever se</w>
predic a
myan mar</w>
k ill</w>
k cr</w>
ji e</w>
dee per</w>
che aper</w>
am id</w>
ur ugu
subjec tive</w>
sha m</w>
m ation</w>
inv iting</w>
hard ware</w>
h ill</w>
g al</w>
clean sing</w>
ce ments</w>
bon n</w>
auth en
ar d
an gol
unanim ous</w>
stream lining</w>
st even</w>
ridic ulous</w>
qu orum</w>
qu ery</w>
philipp ine</w>
mp fa</w>
indefin itely</w>
in take</w>
im position</w>
gu ess</w>
fortun ate</w>
fo li
ex clude</w>
econom ists</w>
cambodi an</w>
bri bery</w>
agg rieved</w>
advis ers</w>
ya su
wat ching</w>
ter y</w>
tan ks</w>
t sim</w>
syndic ates</w>
symposi um</w>
sign at
shor ten</w>
reli es</w>
re conciliation</w>
r ounds</w>
plen ty</w>
percep tion</w>
ou tw
noti fy</w>
ne ther
loophol e</w>
less ly</w>
kai- ming</w>
en trusted</w>
da y-
archit ec
administ er</w>
ab m</w>
vi ability</w>
termin ation</w>
st ro
secon d-
ren min
re placing</w>
po sters</w>
pip es</w>
non- intervention</w>
m p</w>
jus tifications</w>
influ enced</w>
impl ies</w>
experi encing</w>
end less</w>
dis armament</w>
certain ty</w>
assum ptions</w>
an ia</w>
7 9</w>
stan ts</w>
sexu ality</w>
sacrific e</w>
ris es</w>
parlia ments</w>
np csc</w>
isol ated</w>
figh ters</w>
en ligh
defini tions</w>
brea ks</w>
approach ed</w>
air space</w>
wa ves</w>
su b</w>
stal ls</w>
renmin bi</w>
re lic
ong- il</w>
off set</w>
critici zing</w>
adjudic ation</w>
absor b</w>
a u</w>
trea ties</w>
tack led</w>
re im
p ted</w>
neighb ours</w>
mo thers</w>
in sti
expl oration</w>
em anci
emanci p
dis posed</w>
compl acent</w>
but ton</w>
b acking</w>
an net
5 a</w>
5 .5</w>
th ri
retrog res
rela xing</w>
re vising</w>
p hu
immen se</w>
en sures</w>
clar ified</w>
at t</w>
approach ing</w>
accur acy</w>
a ver
1. 3</w>
yugosla v</w>
w ishing</w>
ven ti
tu m
trou bles</w>
sign als</w>
restric ting</w>
ra rely</w>
pollu tants</w>
p ing-
op pon
o ath</w>
nation wide</w>
mother -
man date</w>
leng thy</w>
con spir
arti ll
7 6</w>
7 1</w>
zhe jiang</w>
t ree</w>
sub marine</w>
st ressing</w>
sem i-
reim bur
recommen ds</w>
re tail
li c</w>
landlor d</w>
fl our
finan ced</w>
ever -
en vo
elim ination</w>
ear nest</w>
drin k</w>
dialo gues</w>
coun ted</w>
ch k</w>
9 ,
3 0
ug c</w>
see able</w>
port foli
ple as
pl ain</w>
on ry</w>
o do
lo fty</w>
ha m</w>
express ly</w>
exp ire</w>
every day</w>
custom er</w>
competen ce</w>
co he
certi fication</w>
admin istr
wai ver</w>
vi i</w>
ver dic
v ague</w>
ton y</w>
spea ks</w>
proc ession</w>
on- going</w>
nomin ated</w>
lot teries</w>
j ord
it ude</w>
indonesi an</w>
hong kong</w>
el e
disru ption</w>
cross- harbour</w>
ca th
apolog ize</w>
x es</w>
var ied</w>
upgrad ed</w>
tion -
spon sorship</w>
spea kers</w>
she ung</w>
insid er</w>
hosti le</w>
guang sheng</w>
den ed</w>
d ry</w>
chun -
bra in</w>
un happy</w>
tiz ed</w>
store y</w>
statu te</w>
sp ur</w>
sex es</w>
ous es</w>
mac ed
inc ur</w>
ent ourage</w>
electron ics</w>
compl ied</w>
chick ens</w>
cher ish</w>
ch ris
annet te</w>
wat ch
presid ed</w>
p ical</w>
municip ality</w>
k i</w>
inf er
gan gs</w>
e e</w>
cin em
accel erating</w>
200 ,000</w>
zer o</w>
world- class</w>
prin ce</w>
pass es</w>
ir on
intercep tion</w>
fore seeable</w>
er ron
diplom a</w>
ban ds</w>
am ed</w>
sur render</w>
practic ing</w>
le ague</w>
interf ering</w>
influ x</w>
g ong</w>
f ought</w>
ban ner</w>
as sign
al ter</w>
z oning</w>
z heng</w>
ven tures</w>
tra ins</w>
sul phu
submar ines</w>
spre ading</w>
ra w</w>
privile ge</w>
multin ational</w>
mother- tongue</w>
magistr ates</w>
ic als</w>
hop efully</w>
farm ing</w>
earth qua
deal ers</w>
com prise</w>
chi- yuen</w>
artill ery</w>
ann an</w>
wal k</w>
sac red</w>
ret ention</w>
re ward</w>
re l</w>
question able</w>
plan ting</w>
p es</w>
n tr</w>
en sured</w>
dynam ic</w>
deligh ted</w>
compl ain</w>
chick en</w>
ch ile</w>
bor o</w>
bel gi
aggrav ate</w>
administ ering</w>
8 a</w>
termin ate</w>
ta ji
su its</w>
st ock
ra y</w>
qu er
neighb ors</w>
mo z
le en</w>
k an-
kan- pui</w>
graph y</w>
gra ti
ei a</w>
do g</w>
corpor a
ball istic</w>
artific ial</w>
val ley</w>
up set</w>
typho on</w>
star ts</w>
spe ed
sp ouses</w>
see kers</w>
reserv o
r an</w>
presid ents</w>
patron age</w>
objec tively</w>
k in</w>
coun ties</w>
wel coming</w>
var ies</w>
st ored</w>
restric tive</w>
rac ing</w>
prof oundly</w>
pollu ter</w>
pedestri ans</w>
p h</w>
lob by</w>
lo s</w>
leaf lets</w>
kilome ters</w>
i encies</w>
gran d
fe ed
expatri ate</w>
defe ated</w>
counter -
congrat ulations</w>
condem ned</w>
ann ian</w>
all y-
work able</w>
resear ches</w>
remar ked</w>
ong- leen</w>
n ig
mo tives</w>
lod gers</w>
inst ability</w>
indu ce</w>
go ver
environ mentally</w>
e i</w>
dou ble-
dis placed</w>
che ong-leen</w>
att acked</w>
3 0,000</w>
w ong-
tur n
tri als</w>
sw im
rob bery</w>
que ue</w>
qi yue</w>
instru ment</w>
emig ration</w>
dis miss</w>
counterfe it</w>
contem pl
w annian</w>
spl itting</w>
privile ged</w>
priv ately</w>
p ages</w>
or -
neighbour hood</w>
fortun ately</w>
f all
do zen</w>
d wel
counc il
consu lar</w>
capit alism</w>
ca st
bul k</w>
alleg ation</w>
ab iding</w>
tribu te</w>
thre sh
st ol
recur rence</w>
prin ting</w>
mea sured</w>
manufac ture</w>
li sts</w>
gre en
gh an
exemp tions</w>
evid ently</w>
eur o</w>
enqu iry</w>
dea f</w>
cor ro
belong s</w>
b ou
z hao
wong- fat</w>
vi en
un licensed</w>
truste es</w>
selec tive</w>
sanc tion</w>
rec al
pl un
lim itation</w>
land sli
l as
ji a</w>
haz ar
hazar dous</w>
ch eng
beg ins</w>
austri a</w>
ab undant</w>
tri gge
trigge red</w>
ther ap
ten ds</w>
taxpay er</w>
stra ight</w>
slow ly</w>
p ntr</w>
our ing</w>
kun i</w>
inter views</w>
indic ator</w>
hast e</w>
exclu ding</w>
dr ac
develop s</w>
cu ban</w>
contribu tory</w>
contin uation</w>
clean ing</w>
ch ant</w>
be red</w>
au g</w>
anx ious</w>
a waiting</w>
a ero
1 1
scrutin ized</w>
pre tty</w>
pl u
monit ors</w>
men ted</w>
in stances</w>
glor ious</w>
fu -
foo t</w>
f eng</w>
diffe rently</w>
defic iencies</w>
cou ples</w>
zer land</w>
u ps</w>
there in</w>
techn ically</w>
speci fies</w>
spec tr
k ar
f arms</w>
equi vo
el and</w>
drac onian</w>
confron ting</w>
chin ese-
car bon</w>
bang guo</w>
b reaches</w>
analy sts</w>
am muni
ab uses</w>
utili ze</w>
swit zerland</w>
smo ky</w>
shoc ked</w>
rad ar</w>
profession alism</w>
outsour cing</w>
n y</w>
mis conduct</w>
me ter</w>
for fe
enti ty</w>
cor ner
avo iding</w>
vien na</w>
un expected</w>
twen ty-
sulphu r</w>
reinst atement</w>
referr al</w>
peas ant</w>
olymp ics</w>
o be
min d
lu gg
lev ying</w>
im balance</w>
f ab
e ating</w>
distinc t</w>
dedic ation</w>
c ry</w>
attemp ting</w>
argu ing</w>
amoun ting</w>
yasu kuni</w>
weap onry</w>
wal ls</w>
up gc</w>
trea sure</w>
thr ust</w>
some how</w>
procurat orial</w>
princi pled</w>
o i</w>
j um
ha bit</w>
h ke
flo ating</w>
egy pt</w>
design ation</w>
colon y</w>
cli ent</w>
chem icals</w>
ar ded</w>
substanti ated</w>
st am
situ ated</w>
pre served</w>
o ke</w>
mach ine</w>
integr ating</w>
h iring</w>
de vised</w>
brus sels</w>
ban ning</w>
author itative</w>
adhe rence</w>
tex tiles</w>
sp r
ro of
ra ises</w>
pu ll</w>
pro tests</w>
pro jection</w>
neighbor ing</w>
feed back</w>
erron eous</w>
dat ab
viol ating</w>
u ity</w>
roman ia</w>
recover ing</w>
re stor
re affirmed</w>
ra mp
on- the-
on wards</w>
n it
modi fications</w>
industri alization</w>
incor rec
fi res</w>
epide mic</w>
down s</w>
com ac</w>
bor row
b ree
analy se</w>
am bu
air ports</w>
to ols</w>
t ine</w>
sympa thetic</w>
pol ish</w>
o u</w>
no ting</w>
manufactu red</w>
macro economic</w>
le ban
i e</w>
hon est
gover n</w>
el ders</w>
du l
di men
compas sionate</w>
commun ique</w>
col om
ch ers</w>
bl oc
apprais al</w>
ag greg
1 30</w>
threat en</w>
self- employed</w>
respec ting</w>
reci pro
ping- cheung</w>
pha sed</w>
perform ances</w>
justi fiable</w>
expres ses</w>
el ine</w>
drin king</w>
co stly</w>
cha in</w>
b ond</w>
assi stants</w>
archit ects</w>
arbitr arily</w>
anti- corruption</w>
an gr
air-condi tioning</w>
1 40</w>
trigg er</w>
syri a</w>
pun ish</w>
magaz ine</w>
jo ckey</w>
ing es</w>
honest ly</w>
form ity</w>
dra matic</w>
cle ar-
8 ,000</w>
un healthy</w>
ter ri
oura bly</w>
men tal
ku i-
kenne dy</w>
it ated</w>
industri alists</w>
cor ps</w>
congratul ate</w>
ch ong
broade n</w>
blin dly</w>
absur d</w>
v ation</w>
un avo
subsidi zing</w>
shor ter</w>
sha dow</w>
restor ation</w>
produc ers</w>
presen ting</w>
ou ts</w>
new -
gu o
cu b
consoli dating</w>
bang kok</w>
balan cing</w>
0 .5</w>
tun e</w>
pleas ant</w>
in- house</w>
import ers</w>
for ged</w>
fish ery</w>
elector ate</w>
educ ating</w>
e ve</w>
continu al</w>
cal cu
aff luent</w>
ab users</w>
a qu
vi o
var ying</w>
specific ations</w>
sp anish</w>
sing- chi</w>
over look</w>
om ing</w>
label s</w>
im md</w>
fe i</w>
f iled</w>
excep tions</w>
domin ant</w>
dis h</w>
coun tr
connec tions</w>
co smo
bri e
battle field</w>
threat ening</w>
ten ure</w>
stri king</w>
st ret
shel ter</w>
s cep
predic t</w>
mer chant</w>
ma g
jec ting</w>
fin land</w>
coordin ated</w>
ce ased</w>
brie fin
aw a</w>
z a</w>
warran ted</w>
te en
supervis ing</w>
squat ters</w>
s me
s c</w>
presen tation</w>
poten tially</w>
op en-
hu b</w>
fu- wah</w>
fa ul
eng ines</w>
el l</w>
eas ing</w>
cultiv ate</w>
bureaucr acy</w>
bal lot</w>
sp ar
simpl ify</w>
revi ve</w>
respon sive</w>
policy- making</w>
po ore
p ne
p en</w>
mis concep
hypo the
gre ening</w>
g au
func tioning</w>
distingu ish</w>
conver ted</w>
confron ted</w>
bur g</w>
an men</w>
adhe red</w>
who ever</w>
view ing</w>
valu ed</w>
u lative</w>
sub- committee</w>
retail ers</w>
ramp ant</w>
modi fication</w>
it ure</w>
is tically</w>
in- service</w>
foo ting</w>
f eng
exp o</w>
de mar
bos nia</w>
ass embl
0 4</w>
we ar</w>
tin a</w>
qual ifying</w>
pu s</w>
p iling</w>
occup y</w>
neg li
jiang su</w>
jian xing</w>
iz hou</w>
fron ts</w>
flexi bly</w>
fail ures</w>
deli vering</w>
deal ings</w>
co ast</w>
c a</w>
bor row</w>
boo sting</w>
autom o
ar rog
- -
vigil ance</w>
success es</w>
sub standard</w>
sam ple</w>
pres ti
n igh
lun ch</w>
hegemon ism</w>
hear ted</w>
happ iness</w>
di um</w>
den tally</w>
cross ings</w>
bl ock
bl an
belie fs</w>
sympa th
succes sive</w>
standardi zed</w>
questionna ire</w>
quer ied</w>
pl ain
landlor ds</w>
kui- chun</w>
inter ior</w>
ing redi
fe ud
ex or
effec ted</w>
deterior ate</w>
contem por
compa res</w>
character istic</w>
ch ose</w>
cal m</w>
bri g
trage dies</w>
stol en</w>
st aged</w>
perce ived</w>
me ag
la h</w>
l csd</w>
incorrec t</w>
explo red</w>
ess ors</w>
e way</w>
dr ought</w>
conspir acy</w>
barri sters</w>
arm ing</w>
5 th</w>
venti lation</w>
ut terly</w>
sup porters</w>
spec tives</w>
shi u-
sen g</w>
prescri be</w>
pre- school</w>
popular ity</w>
pollu ted</w>
per spectives</w>
ma p</w>
liqu or</w>
lia oning</w>
lia ise</w>
insu rer</w>
instal ling</w>
inaug ur
id ated</w>
i ances</w>
go d</w>
ful filling</w>
e tr
demar c
complain ants</w>
briefin gs</w>
bo x</w>
au to
anti- smoking</w>
an th
afore said</w>
1. 7</w>
zhu hai</w>
tra gic</w>
tex ts</w>
simpl ified</w>
shel l</w>
r ally</w>
probl em
priv y</w>
organiz ers</w>
hypothe tical</w>
ge red</w>
for ce
execu ted</w>
ener ge
embar ked</w>
divi sions</w>
b ai
truste e</w>
tril lion</w>
sub mitting</w>
sta ke</w>
spokes woman</w>
pre mature</w>
pr one</w>
monu ments</w>
medi ation</w>
k i
in adequacy</w>
in adequ
ec e</w>
def erred</w>
chi u</w>
calcu lations</w>
ar ats</w>
al lay</w>
ac ce
vege tables</w>
transf ers</w>
trans plant</w>
tian anmen</w>
ti mo
timo thy</w>
thresh old</w>
se -
pref ec
portu gal</w>
ol i</w>
meth odo
men tioning</w>
inf ected</w>
impres sed</w>
ill nesses</w>
gir ls</w>
g att</w>
franch ises</w>
fav ourably</w>
dong jiang</w>
dest ination</w>
contempor ary</w>
con vers
ch ie
at tered</w>
ar gen
ammuni tion</w>
al im
1 10</w>
yong yang</w>
ya u</w>
win ter</w>
sew erage</w>
ri vers</w>
re new</w>
re housed</w>
re es</w>
per cus
manag erial</w>
informa tion
guang xi</w>
gen der</w>
fluctu ations</w>
de ser
aud iting</w>
5 00,000</w>
un equivo
two- year</w>
spee dy</w>
spectr um</w>
sm all-
ran dom</w>
possess es</w>
phon es</w>
or ship</w>
one- off</w>
gentl eman</w>
con currently</w>
comp elled</w>
chron ically</w>
cast le</w>
br e</w>
arre ars</w>
vo la
ver bal</w>
to ken</w>
ti ers</w>
supplemen taries</w>
stabil izing</w>
sla ugh
self- regulation</w>
recei pts</w>
re loc
prof .</w>
n ic
meag re</w>
la sted</w>
introduc es</w>
intermedi ary</w>
infec tion</w>
in ven
impres sive</w>
hand ful</w>
engine er</w>
ec ology</w>
dis co
de st</w>
cosmo politan</w>
consum ing</w>
consp ic
commen ting</w>
brun ei</w>
appl a
aggres sive</w>
2 6
wing- lok</w>
vehic ular</w>
st ops</w>
s na
piec eme
pieceme al</w>
lu o</w>
inadequ acies</w>
gene tic</w>
fore sight</w>
discre tionary</w>
countr y
consci ousness</w>
bil lions</w>
ba il</w>
argen tina</w>
wee kly</w>
un leaded</w>
trans form</w>
ri min
reli ed</w>
pne um
organis ation</w>
nether lands</w>
mat ur
lan e</w>
inter change</w>
foc uses</w>
diffe ren
d able</w>
chong qing</w>
chair manship</w>
bu b
b ac
auc tion</w>
arti stic</w>
ap p
un official</w>
subscri ption</w>
su itably</w>
sti f
slow down</w>
sho t</w>
re construction</w>
prece ding</w>
mid night</w>
mer chan
life -
lab our
ish ments</w>
exor bit
character ized</w>
be it</w>
au x
appl iances</w>
ambig uous</w>
al beit</w>
z i
v inc
un favourable</w>
un duly</w>
succes sively</w>
slov ak
shir k</w>
re now
protec tionism</w>
predica ment</w>
pla yers</w>
k ara
indic ations</w>
impa ired</w>
il lic
il es</w>
helpl ess</w>
f sd</w>
f lu
ev asion</w>
entr ance</w>
elimin ating</w>
de -
curren cies</w>
us eless</w>
stimul ating</w>
st all</w>
slog an</w>
shiu- kit</w>
r at
princip als</w>
post al</w>
pack ages</w>
li kes</w>
len ient</w>
l es
k er
insu rers</w>
in her
in effective</w>
ili ary</w>
ga tive</w>
evol ution</w>
dou bled</w>
distor ted</w>
c -funded</w>
back bone</w>
alim ony</w>
addic ts</w>
vinc ent</w>
ti ed</w>
ti ality</w>
res en
purcha ses</w>
possi bilities</w>
oun ced</w>
mater nity</w>
man ned</w>
illic it</w>
if ies</w>
gr ass</w>
fo stering</w>
fi red</w>
expor ted</w>
cigaret te</w>
3 50</w>
volunte ers</w>
sw er
shif ted</w>
rig or
per pe
no where</w>
long er
hon- chung</w>
har v
fo cal</w>
emphasi zes</w>
e e
do gs</w>
dict at
depreci ation</w>
assembl ies</w>
appreci ates</w>
accep tability</w>
ab ra
verdic t</w>
ven e
super fic
si ves</w>
s lugg
reve als</w>
recipi ent</w>
percen tages</w>
pen etr
o aa</w>
na vig
multi- storey</w>
mil est
in door</w>
i aries</w>
h en</w>
guar di
fa ith
en shr
discipl ines</w>
dis count</w>
arran ging</w>
ad ol
1 2.
ur y</w>
unde rem
underem plo
top us</w>
s core</w>
recogn izing</w>
r c</w>
pain ful</w>
outre aching</w>
occur ring</w>
oc topus</w>
mur der</w>
longer -term</w>
j er
infer ior</w>
in separ
fac ul
eag er</w>
di a
d un
cre ates</w>
competi tions</w>
b d
apolog y</w>
aff ili
w u
un swer
un clear</w>
through put</w>
swim ming</w>
su ited</w>
ma tically</w>
her self</w>
he a
fa i
eng ine</w>
declar ations</w>
contamin ated</w>
bulgar ia</w>
al ia</w>
1. 4</w>
z huang</w>
t ate</w>
stra ined</w>
rest ored</w>
precau tions</w>
p yongyang</w>
no tion</w>
n es
law fully</w>
jud ged</w>
in ations</w>
impar tiality</w>
datab ase</w>
crow ding</w>
condem n</w>
con forms</w>
cha o
ce -
bir ds</w>
aux iliary</w>
an c
8 ,
1 000</w>
vo id</w>
ve to</w>
vac u
th rown</w>
terror ists</w>
tc m</w>
se greg
scal es</w>
rob ust</w>
read s</w>
pollu ters</w>
muse um</w>
municip alities</w>
mobil ize</w>
mir ac
g m
for -
disc oura
dela ying</w>
cr ack
cong resses</w>
commun iques</w>
cham pi
ch ong-il</w>
ad j
abol ishing</w>
yun nan</w>
ye arly</w>
y ang
volunte er</w>
ti tles</w>
ten se</w>
solic it</w>
re fund</w>
quar an
procee ded</w>
no te
na tive</w>
me al</w>
la gging</w>
inter face</w>
influ ential</w>
hor iz
hast y</w>
exp ounded</w>
exc uses</w>
emp t</w>
ec o-
diversi fication</w>
de vice</w>
crow d</w>
coun ters</w>
comm its</w>
co ins</w>
benefic iaries</w>
bankru pt</w>
ambu lan
abra ham</w>
un necessarily</w>
um es</w>
righ t-
revi sions</w>
quar terly</w>
pneum onia</w>
pi er</w>
pati ence</w>
one- third</w>
n ally</w>
lux ury</w>
incin er
inc ess
guar ding</w>
farm land</w>
discrimin ated</w>
compens ate</w>
ber ies</w>
appla use</w>
am a</w>
adj acent</w>
a yes</w>
z hong</w>
up -to-
soli dar
single- parent</w>
s car
reb ate</w>
read iness</w>
rac es</w>
prohib iting</w>
out lets</w>
li ang</w>
jord an</w>
im poses</w>
exorbit ant</w>
ess ly</w>
embo died</w>
embl em</w>
embar k</w>
distur b
dispu table</w>
dio xide</w>
clear- cut</w>
cen ters</w>
b reached</w>
appl au
wil d</w>
survey ors</w>
solidar ity</w>
r ated</w>
patter ns</w>
oc t</w>
maxim ize</w>
mani pul
m ong</w>
enthusias tically</w>
el d</w>
dil em
depend ants</w>
ct 9</w>
cr y
cr acking</w>
co ff
afore mentioned</w>
9 a</w>
un stable</w>
t b</w>
st ag
shor tened</w>
public ized</w>
propor tion
portu gu
pay ers</w>
ordin arily</w>
nomin al</w>
it y-
inten sity</w>
ghan istan</w>
determin es</w>
d- looking</w>
cr ude</w>
con federation</w>
ban gla
attr actions</w>
ar af
araf at</w>
af ghanistan</w>
- intensive</w>
vic tim
vacu um</w>
un c
tc .</w>
rob beries</w>
qu o</w>
propor tional</w>
portugu ese</w>
perio dic</w>
mist ak
m g</w>
in jected</w>
im pover
g m</w>
el ite</w>
e tc.</w>
duty- bound</w>
disturb ance</w>
distribu te</w>
det ect</w>
cri tics</w>
coordin ate</w>
consul ate</w>
commu ters</w>
7 .5</w>
6 ,
4 0
196 0s</w>
z hen
well- established</w>
taji kistan</w>
t d</w>
s ri</w>
reluc tance</w>
r y
n ish</w>
il a</w>
homo sexual</w>
ho m</w>
gre ece</w>
cr ash</w>
corpora tization</w>
bl at
bl air</w>
any where</w>
al i</w>
a b</w>
wa h-
unil ateral</w>
sur rog
renow ned</w>
prof itable</w>
ne ts</w>
l y
jeopardi ze</w>
ignor ing</w>
fl or
exha u
coun ts</w>
challeng ed</w>
ash ing</w>
unre mitting</w>
tle ments</w>
stu b
stra in</w>
sign ature</w>
shan dong</w>
rap e</w>
r ough</w>
quaran tine</w>
purcha sers</w>
patrio tism</w>
p ill
n b
kara oke</w>
junc ture</w>
intensi fying</w>
han g
cl udes</w>
bl ess</w>
architec tural</w>
adol es
5 0th</w>
un limited</w>
termin ated</w>
scen es</w>
s ly</w>
pro te
pain sta
li k
iz ations</w>
insepar able</w>
ex position</w>
eradic ate</w>
enshr ined</w>
diffe rential</w>
corner stone</w>
conver sely</w>
commis sions</w>
commem or
chiroprac tors</w>
c mc</w>
automo bil
appe aled</w>
an omal
1. 6</w>
war ding</w>
v acc
turk ish</w>
telec om</w>
stop ping</w>
rea p</w>
rati os</w>
op t</w>
methodo logy</w>
m ire</w>
m ates</w>
in compatible</w>
hin der</w>
eng ag
dra ws</w>
delin qu
conc ise</w>
compar ing</w>
a eg
4 .5</w>
v able</w>
ukra ini
temper ature</w>
tac tic</w>
shoo ting</w>
re pay</w>
ra tionally</w>
procurat orate</w>
p ig
p ads</w>
m ps</w>
hk pc</w>
hi v</w>
har assment</w>
f ang</w>
cultiv ation</w>
aggreg ate</w>
4 th</w>
wee k
ver ify</w>
urugu ay</w>
un rest</w>
un fairness</w>
truc k</w>
tigh tening</w>
tac tical</w>
straigh t
se oul</w>
sa tions</w>
retrogres sion</w>
recyc led</w>
pro position</w>
pe red</w>
pa o</w>
nar row
mor i</w>
lor d</w>
le i</w>
in different</w>
deplo ying</w>
con s</w>
con ge
con fine</w>
b d</w>
analy ze</w>
advanta geous</w>
197 2</w>
wh c</w>
ta p</w>
su ffic
spel l</w>
scra pping</w>
psycholog ists</w>
pro s</w>
mo du
middle- aged</w>
magn itude</w>
lan ded</w>
inv asion</w>
gen cies</w>
g ros
excep tionally</w>
ex ca
envis age</w>
elo qu
do z
dilem ma</w>
destro yers</w>
de af
d ust</w>
cancel led</w>
arm ies</w>
adv ising</w>
accor ds</w>
accompan ying</w>
wor dings</w>
to- day</w>
red undant</w>
op ec</w>
o t</w>
mor ality</w>
mis led</w>
mi su
la yo
ir regular
gree k</w>
fal un</w>
f ong</w>
cum ulative</w>
cul tures</w>
celebr ate</w>
5 000</w>
we b</w>
wah- sum</w>
tr a</w>
recei ver</w>
quie t</w>
pill ars</w>
mis sed</w>
m as</w>
lim iting</w>
k it
jo bless</w>
immun ity</w>
h inges</w>
fi x</w>
fee ding</w>
dis charging</w>
det ach
child hood</w>
bub ble</w>
broadca sters</w>
bi ological</w>
bel grade</w>
zu el
war ships</w>
unavo idable</w>
ul ter
three- tier</w>
repatri ated</w>
qu an</w>
q in</w>
proprie tors</w>
perman ently</w>
parad ise</w>
om is
nur ture</w>
min es</w>
mea su
in fir
in disputable</w>
hom e-
for ums</w>
for ge</w>
flow s</w>
attr action</w>
att acking</w>
ar ab
vene zuel
under ing</w>
tol o</w>
ti ze</w>
technic ians</w>
t reason</w>
stand point</w>
sem ination</w>
s db</w>
pic ked</w>
ow es</w>
of ta</w>
nb sp</w>
me i</w>
f ed</w>
emer gencies</w>
dis advantages</w>
deleg ate</w>
commen dable</w>
comb ine</w>
co aches</w>
anticip ate</w>
amen ds</w>
15 0,000</w>
13 .
web sites</w>
undermin ing</w>
tic ket</w>
repe ating</w>
real istically</w>
ple ments</w>
pan ic</w>
pal ace</w>
o we</w>
o h</w>
mis lead</w>
mem orial</w>
magn ific
in voked</w>
il l-
haw kers</w>
g all
flo ods</w>
fil es</w>
enrol led</w>
en ric
em sd</w>
e h</w>
bac ter
a zer
ti s</w>
subordin ate</w>
slovak ia</w>
shel ters</w>
sh en</w>
repor tedly</w>
recor ding</w>
perio dic
li eu</w>
la os</w>
is s</w>
ir n</w>
empha tically</w>
de pression</w>
d le</w>
cur bing</w>
cra st
council or</w>
au tum
alig nment</w>
up-to- date</w>
und ers</w>
tr acted</w>
tion ers</w>
sion ally</w>
relie ved</w>
pe l</w>
o kin
lo ving</w>
legislat or</w>
lan d-
im practical</w>
g lo
fir ing</w>
e y</w>
e d-
des h</w>
depend ence</w>
defen sive</w>
de pot</w>
custo dy</w>
ch ment</w>
ca irn</w>
autum n</w>
announ cements</w>
an xi</w>
an gered</w>
197 3</w>
z hi
v is</w>
un democratic</w>
u k</w>
tox ic</w>
thir d-
pl agu
over see</w>
me tr
in complete</w>
ho i</w>
haw ker</w>
fire power</w>
environ mental
dest iny</w>
charac ters</w>
c age</w>
bi ds</w>
aud itors</w>
197 4</w>
wide -
ukraini an</w>
them es</w>
ta pes</w>
rel ess</w>
quan you</w>
pro crast
ob sole
mo l
la bel</w>
intermedi ate</w>
im mo
hon oured</w>
gros sly</w>
fund -
fer ries</w>
f itting</w>
cor ner</w>
convers ation</w>
clar ity</w>
chur ch</w>
azer bai
affir ma
accus ations</w>
a ma
win dow</w>
u z
through s</w>
tan k</w>
st ories</w>
sec rec
op tical</w>
obsole te</w>
lifel ong</w>
job -
it em
human e</w>
fron tline</w>
f righ
disc s</w>
defic iency</w>
day- to-day</w>
cler ical</w>
c is</w>
bl unders</w>
be tra
angr y</w>
an ce
air-condi tioned</w>
acti v
ab reast</w>
5 0s</w>
tan gible</w>
t ch</w>
str ous</w>
sou l</w>
sid ed</w>
secrec y</w>
se f</w>
re house</w>
re act</w>
oun ce</w>
no- smoking</w>
nig er
mar ital</w>
levi es</w>
inten tionally</w>
in justice</w>
hegem ony</w>
h at
forwar d-looking</w>
doz ens</w>
diver gent</w>
der iv
cont acted</w>
belie ving</w>
b ars</w>
b acked</w>
an alo
af p</w>
admir ation</w>
1 70</w>
yu -
w ish
to ile
t ness</w>
sur ances</w>
straight forward</w>
roof top</w>
problem atic</w>
pro stitu
over riding</w>
over la
motiv ated</w>
mis sible</w>
marke t-
in t
hal t</w>
explo ited</w>
el y-
differen ti
coun ting</w>
conspic uous</w>
co inci
bit ter</w>
9 th</w>
1. 8</w>
tu p</w>
toler ance</w>
to c</w>
t- up</w>
sym pt
slugg ish</w>
sh ou
s ounds</w>
navig ation</w>
mobil ization</w>
lan ders</w>
ky r
ill ary</w>
fun eral</w>
fe ed</w>
doc tr
cru ise</w>
circum stance</w>
chec k
c oura
budd h
break throughs</w>
at -
allevi ating</w>
alban ia</w>
197 6</w>
ver ification</w>
v ms</w>
ur ban
tra de
stran ded</w>
rub ber</w>
ri bao</w>
promo tes</w>
progres sing</w>
pref erred</w>
predic table</w>
peace keeping</w>
non- profit-making</w>
moun tain</w>
magnific ent</w>
hear t
ha ble</w>
ger y</w>
expres sions</w>
exclu sively</w>
er ings</w>
eigh t-
dis agreement</w>
di al
demol ished</w>
chris tian</w>
ate -
aero space</w>
4 50</w>
wh it
transf erring</w>
toile ts</w>
sum mon
sai- cheong</w>
rum s
recogn ised</w>
re located</w>
re ac
ra ids</w>
r a</w>
milest one</w>
mac ro</w>
it ability</w>
inf lic
helicop ter</w>
hal ls</w>
dr ills</w>
d well</w>
d an
cyc les</w>
curricul a</w>
conge sted</w>
cl ashes</w>
challeng ing</w>
cat aly
bangla desh</w>
apart ment</w>
al arming</w>
20 10</w>
war n</w>
vis itor</w>
univers ally</w>
soci ally</w>
sco res</w>
re percus
publ ish
pregn ant</w>
mil d</w>
me als</w>
man ila</w>
ligh ting</w>
inc lined</w>
explo sives</w>
engag ement</w>
dis cover</w>
conflic ting</w>
underes tim
sear ching</w>
resen tment</w>
prohib its</w>
pri ze</w>
postpon ed</w>
infec tious</w>
indign ation</w>
high- ranking</w>
ge ared</w>
full- scale</w>
fel d</w>
excell ence</w>
dis sen
deaf ness</w>
de signing</w>
da w</w>
consist ing</w>
congres smen</w>
canv assing</w>
c u</w>
at y
anti- discrimination</w>
weak nesses</w>
vio lations</w>
ta pe</w>
ste l</w>
sacrific ed</w>
rums feld</w>
rejuven ation</w>
promul gation</w>
pr on
no v</w>
nin e-
luc ky</w>
liqu e
libr aries</w>
ho stel</w>
fore st</w>
fo ol
ess ing</w>
enem ies</w>
duplic ation</w>
dis semination</w>
de ed</w>
cred itors</w>
conve yan
conce ived</w>
co sting</w>
casu al</w>
b j</w>
anx ieties</w>
alban ian</w>
197 5</w>
tri vi
ten ancies</w>
technolog y-
tag on
si an</w>
sh ed</w>
seven -
scan d
rus hed</w>
retra inees</w>
reli ability</w>
recla im
reas s
peti tions</w>
pe king</w>
mis gi
misgi vings</w>
m outh</w>
it ary</w>
im f</w>
id a</w>
happ ily</w>
flow ers</w>
fav or</w>
explo it</w>
dis ney</w>
at ely-
ad ds</w>
regul ators</w>
re voke</w>
re union</w>
presid ency</w>
ple -
p es
occup ants</w>
na z
mortg ages</w>
mer ging</w>
liqu idity</w>
li vely</w>
le f
kyr gy
infr inging</w>
ide olog
i ously</w>
good- neighborly</w>
fav oured</w>
ex pose</w>
en ly</w>
dis appear</w>
defin ing</w>
by- laws</w>
austri an</w>
aty pical</w>
al bright</w>
undeni able</w>
the at
sle ep</w>
renov ation</w>
reason ing</w>
priv ately-
peac efully</w>
p essi
objec ted</w>
ne p
matur ity</w>
liter ature</w>
lay out</w>
lan es</w>
jo se
har b
den ying</w>
crack down</w>
can cel</w>
be ars</w>
b c
ass ed</w>
ali ve</w>
viol ates</w>
un k</w>
t one</w>
swee ping</w>
sup pression</w>
self- discipline</w>
run way</w>
ri ous</w>
reas sure</w>
r mb</w>
prece dents</w>
pessi mis
om ed</w>
influ ences</w>
il ian</w>
ic heng</w>
house wives</w>
hom eless</w>
ge able</w>
g- 8</w>
fo k</w>
envo y</w>
enti ties</w>
end anger</w>
emphasi zing</w>
distingu ished</w>
conf using</w>
ce daw</w>
calcul ate</w>
ca sting</w>
abl es</w>
vig or</w>
vi c</w>
the ater</w>
super vised</w>
super markets</w>
split tist</w>
sha me</w>
safe ly</w>
sadd am</w>
prud ently</w>
pro tracted</w>
popu lated</w>
pilo ts</w>
on line</w>
occa sional</w>
lands cape</w>
la yer</w>
ir rational</w>
inst or
in i</w>
hon esty</w>
hi de</w>
ha bits</w>
grati fying</w>
foun dations</w>
exha us
dist ant</w>
dis pose</w>
depos it-
cry st
compar ative</w>
b is
authen tic</w>
affir m</w>
ad mi
un founded</w>
si zes</w>
ret re
ren dering</w>
pur po
pe gged</w>
pa ren
over ly</w>
organ ic</w>
occup ations</w>
maced onia</w>
liqu idation</w>
lif ted</w>
li en</w>
lea kage</w>
la undering</w>
in hi
i ally</w>
equ ip</w>
e es</w>
dro pping</w>
dis order</w>
conveyan cing</w>
commen tary</w>
commen sur
collec tively</w>
chi- fai</w>
ch ip</w>
car d
author ised</w>
arti sts</w>
aggrav ated</w>
y um</w>
weak ened</w>
ti sts</w>
sta yed</w>
recti fied</w>
re jection</w>
prosp er</w>
plan ted</w>
part y-
p b</w>
over crowding</w>
liqu id
legis lating</w>
l oud</w>
l ately</w>
jose ph</w>
inspec torate</w>
fab ric
exha ust</w>
end angered</w>
earthqua ke</w>
di re</w>
deep -
de ple
bench mark</w>
asi ve</w>
w cr</w>
v in</w>
two- state</w>
sympt oms</w>
sup er</w>
sty les</w>
stric ken</w>
shel ved</w>
sha ke</w>
se ated</w>
program ming</w>
pa ins</w>
okin awa</w>
ma them
lique fied</w>
item ized</w>
inter action</w>
hon or
down -to-
deposit- taking</w>
demarc ation</w>
commensur ate</w>
comman ders</w>
com promised</w>
al ised</w>
vigil ant</w>
uz be
un reasonably</w>
theore tically</w>
suic ides</w>
so aring</w>
sil ence</w>
si a</w>
sha anxi</w>
re mission</w>
produc es</w>
poc kets</w>
inc eption</w>
impl ied</w>
i b
groun dless</w>
gra ms</w>
fund- raising</w>
fil ing</w>
down-to- earth</w>
cultiv ating</w>
croa tia</w>
colum n</w>
class rooms</w>
class room</w>
affirma tive</w>
win ding</w>
w sd</w>
un fairly</w>
ta c</w>
sa bo
ric ular</w>
popu l
p in</w>
out bound</w>
north- south</w>
mini buses</w>
luc k</w>
la ys</w>
intel li
inspec tor</w>
ha i
frau dul
domin ated</w>
dispat ched</w>
disa strous</w>
commen ded</w>
assign ment</w>
aeg is</w>
6 .5</w>
xia o
th a</w>
te a</w>
ta tional</w>
slog ans</w>
siu- yee</w>
sign atory</w>
radio active</w>
pur view</w>
pl ur
per tin
para meters</w>
p ers</w>
obstruc tion</w>
mo ses</w>
militar ism</w>
le ton</w>
las er</w>
k yo
ha ul</w>
extr ic
exer ted</w>
delin e
deliber ated</w>
congratul ated</w>
com posite</w>
co existence</w>
chec k-
c m
bom bs</w>
autom ation</w>
alli ed</w>
al ling</w>
13 2</w>
1. 1</w>
ten n
sem ic
repe ti
pr e</w>
obstruc t</w>
ob serving</w>
mo ver</w>
mani pu
lands cap
ingredi ents</w>
in o</w>
govern ors</w>
gau ge</w>
er ates</w>
econom ist</w>
dun n</w>
di str
da i</w>
d ss</w>
co ach</w>
clean er</w>
civil ians</w>
char ity</w>
bar ak</w>
ar ding</w>
accus ation</w>
v an</w>
ur ing</w>
tric ks</w>
sp s</w>
solem nly</w>
set backs</w>
roo ted</w>
rol ling</w>
re actions</w>
pre valent</w>
parti te</w>
pack aging</w>
one- vote</w>
nur turing</w>
mongoli an</w>
man eu
long- range</w>
fu zhou</w>
for d</w>
far- sighted</w>
ep tive</w>
dra g</w>
credi ble</w>
c iting</w>
bo ys</w>
b ounds</w>
analy ses</w>
af cd</w>
wrong ly</w>
up dating</w>
trivi al</w>
tour na
to ys</w>
summar ized</w>
suffic e</w>
signat ures</w>
repercus sions</w>
ra iny</w>
ra instor
premi ums</w>
post- secondary</w>
po sted</w>
nep al</w>
metic ulous</w>
lo aded</w>
liber ty</w>
ku wait</w>
hol dings</w>
h inter
g rows</w>
col lu
braz ilian</w>
bat tered</w>
an tony</w>
an hui</w>
.. .</w>
wel l
weak en</w>
wat ched</w>
undeni ably</w>
un attended</w>
th ouse</w>
sing leton</w>
separa tism</w>
restra ined</w>
recal led</w>
moun ted</w>
me tal</w>
mathem a
mal practices</w>
ma d</w>
jo han
il ers</w>
gor ges</w>
end -
def ec
confisc ated</w>
bab ies</w>
as surances</w>
anc illary</w>
ab using</w>
yu an
standardi ze</w>
spel t</w>
sh ock</w>
re v
prev ail</w>
particul ates</w>
mono pol
l led</w>
j ump</w>
ir re
instruc ted</w>
hu bei</w>
hsi ung</w>
helicop ters</w>
heigh ts</w>
ge st
g ates</w>
form at</w>
fi xing</w>
fai rer</w>
endeav ours</w>
dictat orship</w>
depu tations</w>
de vising</w>
connec ting</w>
complain ant</w>
compl ying</w>
bl e
6 a</w>
ud i</w>
spons or</w>
shen yang</w>
se tup</w>
s y</w>
ron t</w>
roc ket</w>
re an</w>
predec essor</w>
plu g</w>
is lam
intermedi aries</w>
induc ed</w>
hand -
gi ant</w>
ful ness</w>
extra -
expor ting</w>
di et</w>
deleg ated</w>
ch t</w>
cam pus</w>
c n
analy sed</w>
wi dened</w>
targe ting</w>
t md</w>
sa f
religi ons</w>
portfoli o</w>
over due</w>
nec essi
necessi ties</w>
movi e</w>
lu k</w>
l an</w>
inaugur ation</w>
exten ds</w>
conver t</w>
co sme
appro ves</w>
agre eing</w>
acc ru
a h
tow er</w>
squ ee
sp ared</w>
revi val</w>
reck less</w>
re fin
puzz led</w>
presid ing</w>
pertin ent</w>
ma ster
liter ary</w>
lit re</w>
il in</w>
e di
discrimin ately</w>
comman ding</w>
coff ers</w>
certi fied</w>
bas ing</w>
barri er</w>
arri ves</w>
acqu iring</w>
7 ,000</w>
yiu- tong</w>
view ers</w>
two- thirds</w>
tro op</w>
t ps</w>
self- financing</w>
rog en</w>
resor ted</w>
ran ges</w>
post p
mo od</w>
miti gation</w>
ko u</w>
ke ting</w>
ir d</w>
i a
he res</w>
foreca sting</w>
f t
f cs</w>
chun- hoi</w>
automobil e</w>
ar ose</w>
197 7</w>
14 .
z y</w>
with stand</w>
ug c-funded</w>
tion ist</w>
suff erings</w>
st e</w>
spons oring</w>
speci fying</w>
shif ting</w>
sec ession</w>
roman ian</w>
ra ft</w>
promp ted</w>
palestini ans</w>
nit rogen</w>
moun tains</w>
m el
label led</w>
la g</w>
islam ic</w>
ira c</w>
in significant</w>
in discriminately</w>
impover ished</w>
hosti lity</w>
hang zhou</w>
feud al</w>
ex tradition</w>
ec r
e- chung</w>
daugh ter</w>
d ingly</w>
consci ously</w>
z hon
vo king</w>
ul sd</w>
te dness</w>
str add
sp heres</w>
sl ack
s ligh
recipro cal</w>
read just</w>
pi ers</w>
on es
occa sionally</w>
n ian</w>
metro pol
mer ged</w>
life style</w>
ke t
emb race</w>
disco very</w>
d ps</w>
d inner</w>
confisc ation</w>
con n
cha o</w>
ch irac</w>
belgi um</w>
b orders</w>
at tainment</w>
anth ony</w>
te ous</w>
surrog acy</w>
stree t-
rein forced</w>
re developed</w>
post graduate</w>
porno graphic</w>
pamph lets</w>
ou ter</w>
nor ms</w>
neg lec
motiv ation</w>
mid st</w>
m er</w>
l ha
k g</w>
in ability</w>
ic he
fore sts</w>
f ry</w>
el ior
dis qualified</w>
d am</w>
conscienti ous</w>
br ac
am elior
affir mation</w>
ac he</w>
a wait</w>
x ia</w>
v ingly</w>
ti ger</w>
t ing-
south -
se iz
sa udi</w>
re bel
pro spec
pion e
pen sion
p sps</w>
overla pping</w>
non- compliance</w>
no table</w>
ne pal
mind ful</w>
le ased</w>
l ump</w>
illustr ates</w>
hk ce
ha med</w>
ger i
frustr ation</w>
flor ida</w>
es hi
econom ical</w>
divor ced</w>
brig ade</w>
ang les</w>
ulter ior</w>
tri partite</w>
tel ep
telep hon
sy l
success or</w>
soci o-
she er</w>
on-the- job</w>
modi fy</w>
man if
m -
ke jie</w>
jiang xi</w>
high- technology</w>
han oi</w>
gir l</w>
ful fil
franch is
discre pancy</w>
comp ile</w>
ch -
bu ff
aud itor</w>
an tagon
al a</w>
1. 9</w>
y ard
xi ao</w>
xi ang
wish ful</w>
wil l
wh iche
whiche ver</w>
un conditional</w>
un ci
tru th
th rowing</w>
suspic ious</w>
surpris ingly</w>
rigor ous</w>
reservo ir</w>
presti ge</w>
preci sion</w>
pat ents</w>
par tially</w>
one- stop</w>
mea suring</w>
mar vin</w>
inf il
hinter land</w>
hi red</w>
geo technical</w>
dis solution</w>
cr a</w>
chao tic</w>
bur st</w>
al tered</w>
acti veness</w>
0 7</w>
veter an</w>
up surge</w>
town gas</w>
superfic ial</w>
suff ers</w>
short- sighted</w>
pr ong
postp one</w>
mil k</w>
lha sa</w>
kai- nam</w>
infil tr
hun gar
fin nish</w>
f law
expec ting</w>
exhau sted</w>
el f</w>
descri ptions</w>
deepen ed</w>
cor oner</w>
compl i
cancel lation</w>
addi tionally</w>
ab atement</w>
z stan</w>
whe el
swi f
su e</w>
prong ed</w>
popular ization</w>
p ure</w>
oppon ents</w>
nes burg</w>
min i</w>
lo it
irregular ities</w>
inst ant</w>
homo sexuality</w>
drag on</w>
dra matically</w>
cot ton</w>
con formity</w>
comment ator</w>
bel ts</w>
be ts</w>
author ize</w>
at lan
ag e-
7 50</w>
2 2
yu- tai</w>
with drawing</w>
weal thy</w>
ti lity</w>
th es</w>
stand ings</w>
shi eld</w>
she ep</w>
self- immo
sc attered</w>
ro ger</w>
resid ing</w>
relie ving</w>
reg res
over loading</w>
ori um</w>
on- line</w>
occu pancy</w>
neutr ality</w>
mi x
merchan ts</w>
lea p</w>
la u
la ma</w>
kyo to</w>
intim idation</w>
in voke</w>
han ging</w>
es cor
en tail</w>
en lar
elev ated</w>
dis man
dis charges</w>
destruc tive</w>
da o</w>
coun tless</w>
bur ning</w>
back grounds</w>
attach ing</w>
ap est</w>
- out</w>
wor sen</w>
wide- ranging</w>
ven d
urban ization</w>
sum ming</w>
strugg ling</w>
sle e
s me</w>
read ings</w>
pre condition</w>
p uni
out sid
misconcep tion</w>
ju l</w>
isol ation</w>
individu ally</w>
gar ment</w>
fraudul ent</w>
fl us
ess ness</w>
dr ill</w>
dep ic
de faul
d ad</w>
corro bor
cop ing</w>
conten tion</w>
cohe sion</w>
christ mas</w>
ch est</w>
beau ty</w>
aud its</w>
2. 8</w>
15 ,000</w>
x ian</w>
tr acks</w>
swit ching</w>
shor tages</w>
se dition</w>
ret ren
re version</w>
ra inf
puni tive</w>
pic tures</w>
ones elf</w>
mus li
mat ched</w>
main landers</w>
m ou
long est</w>
liber ties</w>
johan nesburg</w>
ir anian</w>
in er
he bei</w>
fa st
f ted</w>
eth i
eco- tourism</w>
dra ins</w>
don ate</w>
distur bed</w>
defend ants</w>
dec eption</w>
da w
computer ized</w>
bra ve</w>
at om
wal king</w>
understand ably</w>
syri an</w>
subscri be</w>
stabil ized</w>
shoc king</w>
shel tered</w>
sec tor
recti fying</w>
qu eu
qing hong</w>
pr inc
plagu ed</w>
organ ised</w>
one- year</w>
o t
nur se</w>
norm alization</w>
mp ed</w>
mo red</w>
min ing</w>
join s</w>
information ization</w>
hungar ian</w>
hen an</w>
gras ping</w>
ga o</w>
fo ref
ex t
egy p
e dition</w>
den mark</w>
dem er
cs s</w>
consi st</w>
confirm ation</w>
c w
bu si
b ited</w>
ang el
ambassad ors</w>
al es</w>
academ ies</w>
y our
wat er-
ver t</w>
un popular</w>
tin y</w>
there of</w>
stream lined</w>
sligh test</w>
ship ment</w>
reg rets</w>
re wards</w>
re productive</w>
prescri ption</w>
per mitting</w>
outre ach</w>
nan o
misu se</w>
juven iles</w>
ish -
in tru
gues thouse</w>
gre y</w>
foref ront</w>
experi ments</w>
experi mental</w>
exclu sion</w>
erec ted</w>
en tran
dpr k-
contraven es</w>
chi- kin</w>
cheng du</w>
champion ships</w>
c cra</w>
ben evol
as certain
anti qu
ab sent</w>
ab er
2 3
15 .
your self</w>
weak ness</w>
vi an</w>
unswer vingly</w>
trans formed</w>
strong est</w>
speed ily</w>
sin -
s lower</w>
relev ance</w>
ran ked</w>
r ash
posi tioning</w>
pip e</w>
patro ls</w>
painsta king</w>
na sty</w>
mor oc
monopol istic</w>
low er-
ke -
inter fe
infr inge</w>
in sured</w>
hu ang
fin alizing</w>
ethi op
dissen ting</w>
dis continue</w>
dest inations</w>
de relic
concer t</w>
compens ated</w>
civil izations</w>
broad ening</w>
at ories</w>
appe aling</w>
a warding</w>
a is</w>
wind ows</w>
un resolved</w>
transm itted</w>
tol erable</w>
te es</w>
ste red</w>
resor ting</w>
remain der</w>
recru its</w>
rainf all</w>
o zone</w>
metropol is</w>
le asing</w>
laun ches</w>
l ment</w>
heart felt</w>
fur b
ex em
ero ded</w>
di e
denti sts</w>
correspon dingly</w>
col our</w>
co ol</w>
bl ows</w>
ba by</w>
analy zed</w>
a h</w>
196 7</w>
16 th</w>
xi ong</w>
we aring</w>
w ins</w>
sub head</w>
su itability</w>
stro ke</w>
slow ed</w>
singa po
shu t
semic on
semicon duc
se af
scra p</w>
school -based</w>
resp ir
ren ted</w>
re furb
pollu ting</w>
p y
interpre tations</w>
human ity</w>
enter prising</w>
e ars</w>
dr ums</w>
disgu ise</w>
coo king</w>
controversi es</w>
cit y
ca i</w>
av ail</w>
ast on
angol a</w>
7 ,
4 0,000</w>
zhon gn
war saw</w>
swif tly</w>
servic emen</w>
sca red</w>
s or</w>
resear chers</w>
ques tioning</w>
protec ts</w>
po table</w>
pes tici
mass ac
le aps</w>
l um
jo y</w>
he at</w>
h il
fung- ying</w>
experi ment</w>
exem pl
es cap
embo dies</w>
divi den
dividen ds</w>
diagno sis</w>
de c</w>
con no
comb ining</w>
azerbai jan</w>
attr activeness</w>
ar f</w>
al ger
advoc acy</w>
absor bed</w>
8 0s</w>
11 th</w>
10 000</w>
zhongn an
zhongnan hai</w>
yel low</w>
u gan
tr unk</w>
tourna ment</w>
to il
swe dish</w>
sub- degree</w>
stam ps</w>
read ers</w>
re signed</w>
pres ents</w>
pre fer
po lar</w>
non- local</w>
legis lations</w>
incorpor ating</w>
hun an</w>
gm f</w>
form alism</w>
egyp tian</w>
disc arded</w>
di version</w>
country side</w>
chi ps</w>
bl amed</w>
analo gy</w>
an a</w>
ad mire</w>
2. 7</w>
we t
tenn is</w>
ta e-chung</w>
sympath ize</w>
summ ons</w>
schol ar
reck on</w>
poore r</w>
pip eline</w>
n as
modern ized</w>
manife station</w>
ma gic</w>
m u</w>
loc ality</w>
lea vers</w>
k ie
is tical</w>
inci dentally</w>
ignor ance</w>
fin als</w>
fi x
elec tro
de em</w>
compe l</w>
celebr ation</w>
be aches</w>
ambulan ces</w>
ad mit
ad c</w>
win ner</w>
vari ation</w>
u able</w>
testi fy</w>
st aging</w>
reclaim ed</w>
qu asi
quasi -
porno graphy</w>
ox y
nu tri
no l</w>
new ly-
mu d</w>
misunder standings</w>
ma tions</w>
log istical</w>
loc ked</w>
le ap
is ons</w>
inspec ting</w>
inc lin
in ser
hk css</w>
gu ine
gra vely</w>
geri atric</w>
gall ery</w>
energe tically</w>
bu g</w>
bree ding</w>
blo o
ber lin</w>
atom ic</w>
al em</w>
2. 4</w>
z o
ye oh</w>
wa ited</w>
us- china</w>
us alem</w>
trou bled</w>
toil et</w>
thous es</w>
t asked</w>
spor ting</w>
so h
shu t</w>
se izing</w>
s ounded</w>
re vocation</w>
pion eering</w>
persu aded</w>
pe t</w>
p ic</w>
ong s</w>
mol do
manife sted</w>
m ide
mide ast</w>
law- abiding</w>
jer usalem</w>
inter vals</w>
ho t
form alities</w>
fa ults</w>
expedi ent</w>
exp ired</w>
deterior ated</w>
destro ying</w>
design ating</w>
del hi</w>
dead lock</w>
concentr ating</w>
book let</w>
barri ster</w>
6 0,000</w>
19 50s</w>
wal es</w>
wa sting</w>
w in-
underemplo yment</w>
trans national</w>
te e
tax -
ta m
sing let
remin ding</w>
p ar</w>
opportun e</w>
nor way</w>
mis erable</w>
here tical</w>
gues thouses</w>
for ging</w>
far ther</w>
fa x</w>
ex changing</w>
even tual</w>
distribu ting</w>
declar ing</w>
de en</w>
cultiv ated</w>
confron t</w>
cali bre</w>
bri bes</w>
bc chk</w>
b arely</w>
app ell
announ cing</w>
ann ex
accumul ate</w>
a x
a str
8 th</w>
13 th</w>
zhao xing</w>
y ance</w>
wil li
wan t
want only</w>
un favorable</w>
tr ick</w>
tan z
tail or-
swit ched</w>
st em</w>
singlet ons</w>
scre ened</w>
respir atory</w>
ration alize</w>
politici an</w>
po ol
notic eable</w>
mul ti</w>
moz ambi
mon ial</w>
mistak en</w>
mil li
me te
m o</w>
loy al</w>
lik el
licen se</w>
leban on</w>
j u</w>
grad uation</w>
divi ding</w>
cont est</w>
ca us
bow ls</w>
b ic
an ism</w>
aber deen</w>
ver sions</w>
ul ously</w>
t pb</w>
shoul ders</w>
self-immo lation</w>
rever sed</w>
re ap
po -
out lying</w>
no is
mozambi que</w>
mobil ized</w>
lun ar</w>
labor atories</w>
l end
kyrgy zstan</w>
inciner ators</w>
incap acity</w>
histor ically</w>
he fty</w>
g as
form erly</w>
facul ty</w>
fa re
environ ments</w>
engl ish-
en ters</w>
en comp
diver t</w>
dilig ence</w>
defec tive</w>
d end</w>
compen sations</w>
commer cially</w>
circu it</w>
chil ean</w>
ca res</w>
bro thers</w>
bre ath</w>
b our
b ap
b ad
attach ment</w>
at en</w>
197 1</w>
z im
tur bul
tri en
tigh tened</w>
suppli er</w>
stric ter</w>
si de
se g
s wa
right- wing</w>
rest oring</w>
re ar</w>
purcha ser</w>
proprie tary</w>
prefec ture</w>
politici zed</w>
pessimis tic</w>
par a</w>
north ward</w>
no es</w>
n d</w>
mirac le</w>
layo ffs</w>
k ang</w>
jeopardi zed</w>
ir relevant</w>
inval uable</w>
gu an
g ases</w>
divi dend</w>
dispat ch</w>
defin es</w>
decei ve</w>
da y
conf use</w>
compar isons</w>
champion ship</w>
bir d</w>
b other</w>
aud ited</w>
arre sts</w>
administr ator</w>
3 00,000</w>
wor n</w>
with drew</w>
uzbe kistan</w>
un wise</w>
scra pped</w>
rever t</w>
reloc ate</w>
reimbur sement</w>
re pri
re minds</w>
re formed</w>
public izing</w>
princip ally</w>
non- industrial</w>
nepal ese</w>
likel ihood</w>
less er</w>
im plements</w>
i re
h dad</w>
guarante eing</w>
g ical</w>
fi a</w>
extre mis
ener g
dissemin ate</w>
dis pel</w>
des cen
demo graphic</w>
conn ect</w>
commemor ative</w>
care ers</w>
ca a</w>
bot t
ber g</w>
be have</w>
bag hdad</w>
as sign</w>
any more</w>
8 .5</w>
un safe</w>
tro pic</w>
tr acking</w>
smugg led</w>
sil ver</w>
resum ing</w>
restra in</w>
reduc es</w>
reconna isance</w>
re ls</w>
qu it</w>
psycho tropic</w>
provi der</w>
proportion ate</w>
pl ates</w>
person ages</w>
men tation</w>
main stay</w>
loit ering</w>
la gs</w>
insist ing</w>
hua icheng</w>
fore seen</w>
f laws</w>
exped iting</w>
escal ators</w>
enti tlements</w>
devi ation</w>
depri ving</w>
cro ps</w>
contain ment</w>
cit es</w>
bon a</w>
be ach</w>
a venues</w>
ver ified</w>
th es
sup pressed</w>
stipul ating</w>
simpl er</w>
sensi tivity</w>
rit a</w>
rein forcing</w>
proprie tor</w>
pro min
pharmac ists</w>
ol d-
monopoli zation</w>
mar ia</w>
la o</w>
ic an</w>
hk caa</w>
head way</w>
fu tile</w>
foot bridges</w>
fle w</w>
fif thly</w>
e- to-
dis regarded</w>
dam pen</w>
ca str
by pass</w>
bott len
boo sted</w>
bench marks</w>
a y
14 th</w>
up holds</w>
trans lated</w>
system atically</w>
suppl ying</w>
su k-
stic ks</w>
single- vote</w>
shu ff
s ounding</w>
s mil
s and</w>
rum ours</w>
ric hard</w>
re voked</w>
polytechn ics</w>
po sable</w>
perf ecting</w>
pa ve</w>
over sight</w>
over crowded</w>
minist ries</w>
marke dly</w>
lo dging</w>
liter acy</w>
lan ka</w>
l acked</w>
ire land</w>
insul t</w>
incin eration</w>
incap able</w>
gra vity</w>
fo am</w>
eshi p</w>
conf er</w>
condem nation</w>
city bus</w>
ca iro</w>
al ong
ag ers</w>
a us
1 25</w>
wai ve</w>
vide o
unequivo cal</w>
un just</w>
u red</w>
tradi tionally</w>
subscri bers</w>
stic king</w>
soh men</w>
socio- economic</w>
s cribed</w>
ros s-
ri gi
rash ly</w>
q in
pur se</w>
pris ons</w>
prefe rences</w>
photo graph
pe i
pa ths</w>
oxy gen</w>
non- recurrent</w>
negoti ated</w>
ne ys</w>
mal practice</w>
m ping</w>
le ver
k h
is la
ide n</w>
hea ven</w>
gu ides</w>
gri m</w>
ex- officio</w>
enc lo
ec ho
dis advantage</w>
dec rimin
cum ber
commer ci
cinem as</w>
ch equ
broadca ster</w>
bro k
brea st-
bottlen ec
bos nian</w>
bo died</w>
am us
7 0s</w>
5 0000</w>
2 20</w>
0 0
tailor- made</w>
sub sist
some where</w>
si veness</w>
si ck
resum es</w>
re conc
quick en</w>
publish ers</w>
prostitu tion</w>
possess ed</w>
pic king</w>
par at
op ined</w>
ob s
mor s</w>
investi gative</w>
go v
ge ar</w>
el even</w>
dig it</w>
cumber some</w>
cri tically</w>
cool ing</w>
consum ed</w>
conserv ancy</w>
comp il
c ad</w>
bir ths</w>
appe aring</w>
al titude</w>
admit tedly</w>
ac ross-
1, 500</w>
1 15</w>
yard stick</w>
wa ste
victim ized</w>
ver se</w>
un completed</w>
t uni
symbo l</w>
syl la
stre ams</w>
slo ven
sl ump</w>
seiz ure</w>
s si
regist ering</w>
re- export</w>
r on</w>
pa ving</w>
p cc</w>
mer ge</w>
m ud
m ri
j ak
imag ination</w>
igno res</w>
hur ry</w>
four- year</w>
forfe iture</w>
fi de</w>
en ta
dy nasty</w>
dra gged</w>
do omed</w>
dis posable</w>
depar ting</w>
den sely</w>
d ney</w>
cp a</w>
coun sel
control ler</w>
contraven ed</w>
conce iv
complain ing</w>
cc tv</w>
cat ching</w>
bo y</w>
bar gain</w>
back -up</w>
at orium</w>
along side</w>
a z
y ao</w>
v ain</w>
un related</w>
tr ace</w>
sever ity</w>
ro wer</w>
ro me</w>
referr als</w>
princ ess</w>
po or
mid- stream</w>
lap se</w>
labour -intensive</w>
indic es</w>
hero in</w>
hero ic</w>
faith fully</w>
exten sions</w>
el der</w>
educ ators</w>
e dly</w>
dn a</w>
dis qualification</w>
dilig ently</w>
cur ricular</w>
ch en
bor is</w>
boo m</w>
bloc ked</w>
bil li
assum es</w>
amus ement</w>
am ing</w>
3 0000</w>
x in</w>
vola tile</w>
venezuel a</w>
un even</w>
the irs</w>
t fully</w>
share holder</w>
scienti fic
s i</w>
ro bert</w>
real m</w>
re ty</w>
quo ting</w>
pig s</w>
outsid ers</w>
neighbor liness</w>
massac re</w>
inter nally</w>
in discriminate</w>
ignor ant</w>
fare well</w>
elabor ated</w>
drin ks</w>
demer its</w>
decreas ing</w>
cryst al</w>
correc ted</w>
confron tational</w>
compl ies</w>
com promising</w>
champi on</w>
brok erage</w>
ap pal
alter ation</w>
addic tion</w>
2. 2</w>
v s</w>
un successful</w>
turk men
tem ple</w>
suk- ching</w>
sha ken</w>
sal v
ric h
qi u</w>
pra ises</w>
por k</w>
poc ket</w>
periodic ally</w>
nu is
nuis ances</w>
nee dless</w>
monopoli zed</w>
minim izing</w>
mat ri
ine e</w>
in ward</w>
impe de</w>
hol m</w>
gu izhou</w>
geor gi
foc us
fit ness</w>
fil ip
distur bing</w>
demonstr ators</w>
delinqu ency</w>
cro p</w>
cp i</w>
con strained</w>
complic ations</w>
clo thes</w>
b c</w>
ap parat
al fred</w>
a venue</w>
work shop</w>
w w
w ol
v lad
up wards</w>
uni fy</w>
treat ments</w>
tran qu
tra p</w>
survi ving</w>
stock holm</w>
ste p-
st em
sal t</w>
s ars</w>
road side</w>
retre at</w>
ren min</w>
refu te</w>
pa yee</w>
pa th
niger ia</w>
materi alize</w>
mat ricul
ma ker</w>
li p</w>
lec ture</w>
jour nal</w>
it a</w>
i bian</w>
hes itate</w>
harv ard</w>
flaw ed</w>
fa ke</w>
enc ro
em per
dre dging</w>
dimin ish</w>
de grad
compil ation</w>
ci a</w>
choo ses</w>
cau tiously</w>
categor ically</w>
castr o</w>
carri age</w>
cali for
bacter ia</w>
att le</w>
all- out</w>
ad mitting</w>
a tion
2. 6</w>
10 5</w>
un equal</w>
twen ty</w>
tou ches</w>
th as</w>
sp y</w>
semiconduc tor</w>
s ne
ro of</w>
ret ali
resist ing</w>
re sur
re jecting</w>
r ches</w>
omis sion</w>
nar rowing</w>
metro plan</w>
mete or
magaz ines</w>
kie v</w>
inter cept</w>
in sight</w>
in mates</w>
h l</w>
gest ure</w>
g ar</w>
explo iting</w>
em itted</w>
don or</w>
direc tional</w>
de void</w>
contin ent</w>
char les</w>
ch e</w>
break fast</w>
bd tc</w>
at taining</w>
ar ta</w>
angel es</w>
16 .
1 st</w>
yiel ded</w>
y 2
wu han</w>
uti l
tra m</w>
the- board</w>
ten de
si u</w>
sh im
scen ic</w>
ref re
re build</w>
p an</w>
organiz es</w>
o sity</w>
mone y-
kil o
inter vie
intellec tu
han s
gi fted</w>
gar dens</w>
fa st-
evalu ated</w>
di ment</w>
dam pen
comp elling</w>
co efficient</w>
cl ou
capit alists</w>
c ence</w>
batt les</w>
ar mored</w>
affili ated</w>
accompl ishing</w>
7 a</w>
u ities</w>
sy dney</w>
super inten
sum med</w>
soldi er</w>
sli p</w>
sen ator</w>
s f
ro a</w>
rela y</w>
plan ners</w>
nul lah</w>
non- official</w>
negli gible</w>
ma m
lo g</w>
j or
int act</w>
il -
high lights</w>
ham pered</w>
ge ological</w>
furn ish</w>
flour ish</w>
fa c</w>
drag ons</w>
down wards</w>
con stru
b ish</w>
as hamed</w>
arrog ance</w>
20 11</w>
20 000</w>
ul ate</w>
tel a</w>
staff ed</w>
ss ds</w>
south west</w>
ri pe</w>
regul ator</w>
rat ings</w>
r d</w>
prison er</w>
po ts</w>
p aging</w>
origin ated</w>
occup ying</w>
n ate</w>
mor atorium</w>
mem bered</w>
lever aged</w>
lec tures</w>
jak arta</w>
is hable</w>
in adver
id le</w>
green house</w>
gol f</w>
expatri ates</w>
ex- gratia</w>
er as</w>
dis appeared</w>
diplom ats</w>
dec oration</w>
de part</w>
daugh ters</w>
conten tious</w>
cher ished</w>
cap ac
b righ
advis or</w>
adoles cents</w>
accumul ation</w>
accommo dated</w>
ab normal</w>
19 0</w>
wo o
total ling</w>
tion able</w>
te ars</w>
sw iss</w>
stipu lation</w>
sti r
simultan eous</w>
short falls</w>
separ ating</w>
s word</w>
s oun
re shuff
re acted</w>
propor tions</w>
pl um
p c
over haul</w>
out door</w>
op h
non- chinese</w>
mass age</w>
man ning</w>
law suits</w>
judg ments</w>
is o
intercep ted</w>
in expensive</w>
honor ary</w>
hand les</w>
ham per</w>
flus hing</w>
f ric
enti rety</w>
dol drums</w>
dil ap
califor nia</w>
by law</w>
benef iting</w>
b ent</w>
accommo dating</w>
3. 2</w>
watch men</w>
vol umes</w>
tion aries</w>
tai wan
su scep
statu tes</w>
sexu als</w>
school bags</w>
sa m</w>
ri ots</w>
reg ain</w>
questionna ires</w>
produc er</w>
precau tionary</w>
m al</w>
lo ose</w>
leg ality</w>
illustr ated</w>
hom eland</w>
gn p</w>
fore see</w>
f oul</w>
f itted</w>
exca vation</w>
ev aded</w>
ec hel
e- commerce</w>
descri bing</w>
de v
cr acked</w>
comment ators</w>
car goes</w>
capac ities</w>
cal am
business man</w>
bir th
ban d
ap prehen
an- chinese</w>
am id
ali enable</w>
across- the-board</w>
9 .5</w>
2 30</w>
x u
underestim ated</w>
uc k</w>
te c</w>
stat es
sick ness</w>
prosecu ting</w>
plun ged</w>
perfec tion</w>
other ap
optim ize</w>
op ted</w>
o lic</w>
n el
mis match</w>
metic ulously</w>
mathema tics</w>
manipu lation</w>
man o
la d</w>
k ings</w>
jap an-
intellectu als</w>
inaug ural</w>
holi c</w>
hk ied</w>
ha c
frustr ated</w>
flow ing</w>
fac tions</w>
embo dy</w>
ec raft</w>
e ye
don ated</w>
dimin ished</w>
deter rence</w>
constru ed</w>
commun ism</w>
chang chun</w>
chair s</w>
categor ized</w>
bud apest</w>
broadca sts</w>
ba g</w>
b p</w>
angol an</w>
aff iliation</w>
8 0th</w>
zim bab
tag on</w>
t ters</w>
spec tac
spac ecraft</w>
resul tant</w>
relic s</w>
profession ally</w>
pon der</w>
pois oning</w>
person alities</w>
peri ph
pen tagon</w>
our se</w>
on- street</w>
manufactu rer</w>
man- made</w>
lot tery</w>
la id
journ alist</w>
j ilin</w>
intervie we
inter active</w>
infir mary</w>
in consistency</w>
hus bands</w>
hk u</w>
gl ass</w>
fol ded</w>
exc iting</w>
escal ator</w>
es cr</w>
dis bur
dal ian</w>
d ance</w>
cub ic</w>
correc tion</w>
con fu
ce o</w>
cap ture</w>
bu yer</w>
bo xes</w>
anti bio
alco holic</w>
ain ing</w>
administra tions</w>
ad mits</w>
abo ve
abl e-
ab ru
win- win</w>
vig our</w>
vice- chairman</w>
utili zing</w>
under takes</w>
top -
sw ing</w>
sur gery</w>
st ern</w>
specul ate</w>
slow ing</w>
singapo rean</w>
senten cing</w>
roy alty</w>
re membered</w>
queu ing</w>
pric ed</w>
pra gue</w>
pi g</w>
pa rental</w>
on us</w>
mad rid</w>
le xi
land owners</w>
inde b
ho ist
ft ns</w>
en ro
e ffic
distur ban
d led</w>
clim bing</w>
amid st</w>
al ma</w>
adap ted</w>
9 0s</w>
0. 3</w>
th c</w>
ta bling</w>
t es
spir its</w>
se em
s ors</w>
s ls</w>
rele asing</w>
rati fied</w>
pro- democracy</w>
poor ly</w>
pamph let</w>
op ium</w>
o sh
new s
monu ment</w>
k as
inde red</w>
in tr
ic ul
foreign -funded</w>
force fully</w>
fac tion</w>
evol ved</w>
emplo ys</w>
ele mentary</w>
doctr ine</w>
disturban ces</w>
diff ers</w>
democra tically</w>
ar gent
am i</w>
al isation</w>
aggrav ating</w>
2 40</w>
19 70</w>
15 9</w>
w ra
us d</w>
un common</w>
tro s</w>
thri ving</w>
ten ded</w>
subsist ence</w>
stri p</w>
stor ms</w>
sha king</w>
res cu
refu ge</w>
recommen ding</w>
recogn ise</w>
optimis m</w>
open ing-up</w>
matri monial</w>
mag ne
ko v</w>
influ en
in alienable</w>
home work</w>
expedi tious</w>
endeav or</w>
en large</w>
em in
dist ort</w>
disru pt</w>
deliber ating</w>
d wind
chair person</w>
can op
ca ke</w>
but tons</w>
bri um</w>
br o</w>
borrow ed</w>
bl un
be ar
bap tist</w>
arab ia</w>
analy zing</w>
alterna tively</w>
af d</w>
ab y
weak ening</w>
v bp</w>
us able</w>
un suitable</w>
ul tra</w>
trans forming</w>
tra ps</w>
thin ess</w>
th in</w>
ten able</w>
stif le</w>
spl en
s cor
reha bus</w>
rec y
re valuation</w>
r d
pow ering</w>
my ster
mac le
ling nan</w>
less en</w>
laid -off</w>
inf lexi
imag in
g ro
essi bility</w>
escal ating</w>
d t</w>
con sign
con firms</w>
colon i
chie fs</w>
cen tu
bot tles</w>
benef itted</w>
asia- europe</w>
as em</w>
acc essibility</w>
able- bodied</w>
y am</w>
w ounded</w>
v ans</w>
um a</w>
time- consuming</w>
th om
subven tions</w>
str at
step- by-
step-by- step</w>
small- scale</w>
shir o</w>
ser y</w>
se in</w>
ri al</w>
revit alize</w>
resist ant</w>
recla mations</w>
re- examine</w>
re structure</w>
prof essors</w>
nur sery</w>
no ble</w>
nine- year</w>
mo s</w>
min i-
meth ad
methad one</w>
l add
interviewe es</w>
interven ing</w>
interpre ting</w>
intelli gent</w>
in coming</w>
hel per</w>
hans ard</w>
h our
fu gi
foreign -
fin alize</w>
evalu ating</w>
ep p</w>
cru el</w>
croa tian</w>
cr ashed</w>
conven or</w>
compati bility</w>
co er
cli que</w>
claim ants</w>
cinem a</w>
ch or
cath olic</w>
ca o</w>
bulgar ian</w>
buff er</w>
bou tros</w>
be er</w>
ass em
all- china</w>
ab str
a sts</w>
3. 4</w>
2. 3</w>
yo shiro</w>
y2 k</w>
win ners</w>
war time</w>
turkmen istan</w>
stan ley</w>
sho res</w>
scho lar</w>
restrain ts</w>
po ison</w>
over coming</w>
nomin ations</w>
n i</w>
mo vers</w>
min eral</w>
med al</w>
mano eu
m chk</w>
lr c</w>
inflic ted</w>
indic tment</w>
i x</w>
homo sexuals</w>
h indered</w>
gra m
expl or
er n
enro l</w>
emphasi se</w>
elec ting</w>
dilap idated</w>
conver ting</w>
conven e</w>
co m</w>
bu o
atten ds</w>
al- level</w>
a bu
10 ,
wor thiness</w>
week end</w>
v ag
un ceas
unceas ingly</w>
ti e
therap y</w>
ther to</w>
t- to-
st ors</w>
shrin king</w>
shir king</w>
s ad
rub bish</w>
ros anna</w>
re settled</w>
qing lin</w>
pro ving</w>
prece dence</w>
per missible</w>
over ride</w>
movi es</w>
mode lled</w>
mal administration</w>
ma bly</w>
lo ses</w>
liquid ator</w>
jun k</w>
inten ding</w>
insp ired</w>
infring ed</w>
in k</w>
hi therto</w>
hard working</w>
gree ted</w>
est e
dru g-
dist ress</w>
de pl
d les</w>
custom ary</w>
contribu tes</w>
condi tionally</w>
buddh ist</w>
ban kers</w>
b aff
ap por
anti- ballistic</w>
affor ded</w>
a ye</w>
vis -
un warranted</w>
th ro
supplemen ted</w>
su mably</w>
stub bor
splen did</w>
so ber
self- reliance</w>
scri pt</w>
scar ce</w>
sam pling</w>
red und
psycholog ically</w>
pre sumably</w>
practic ed</w>
pr its</w>
possess ing</w>
ou k</w>
nano technology</w>
moz amb
miti gate</w>
mis h</w>
mini bus</w>
mig ration</w>
manif est</w>
legi tim
l ings</w>
in visible</w>
hospit alization</w>
han ding</w>
h pa</w>
gi ft</w>
end ure</w>
diver gence</w>
de vol
cul prits</w>
coura geous</w>
con cludes</w>
bloo dy</w>
bar rel</w>
b reaching</w>
an- israeli</w>
al ex
advis able</w>
ac custom
3 000</w>
18 .
vic tories</w>
ve t</w>
unci ation</w>
u e-
tou ching</w>
tor ial</w>
tol erated</w>
time frame</w>
terri ble</w>
street- sleepers</w>
speci fication</w>
sle y</w>
sh er</w>
secret ar
persu asion</w>
par aly
oppon ent</w>
non- domestic</w>
j ac
in herit
in accurate</w>
imperi al</w>
ili brium</w>
gradu ated</w>
gar ments</w>
gan g
form idable</w>
fla gs</w>
fast est</w>
equ ilibrium</w>
elec tion
di r
detach ment</w>
de pots</w>
de dness</w>
d s
cw tc</w>
corrobor ation</w>
conve yance</w>
capit als</w>
cam eras</w>
asp ire</w>
argent ine</w>
appal ling</w>
antiqu ities</w>
administr ators</w>
accustom ed</w>
accoun tancy</w>
acce de</w>
ab und
6 0
ye ar
xi e</w>
wor ded</w>
tur ally</w>
town ships</w>
tiz ing</w>
tee th</w>
suscep tible</w>
shoul dered</w>
r acks</w>
predec essors</w>
non- profit</w>
nigh t
multi polarization</w>
motor cycles</w>
mil ler</w>
law- enforcement</w>
jus tic
interru pt</w>
ine fficient</w>
inde m
in equality</w>
in bound</w>
ig n
hus sein</w>
heigh ten</w>
g ini</w>
for ci
en rich</w>
emancip ating</w>
distinc tive</w>
dis playing</w>
devi ated</w>
detri ment</w>
counter ing</w>
cont empt</w>
bra ins</w>
bid den</w>
belie vers</w>
ba yev</w>
ambig uity</w>
after -
zh eng
writ ers</w>
woo den</w>
wa ived</w>
vi br
ugan da</w>
trad ed</w>
teen agers</w>
t- day</w>
t ingly</w>
sty ro
shif ts</w>
secret ly</w>
se z
rus hing</w>
reason abl
pri t</w>
p se</w>
p ec
o ec
neighb or</w>
neglec ting</w>
n ing
n ice</w>
n ial</w>
moun ting</w>
mo f
mof tec</w>
manoeu v
lu n</w>
la is
king sley</w>
jum ped</w>
is m-
inherit ance</w>
influen za</w>
inc re
hi ding</w>
ha mish</w>
h itting</w>
for bidden</w>
first- time</w>
exagger ated</w>
enfor ce
distor tion</w>
dis solved</w>
direc ting</w>
con cu
china- us</w>
cap tured</w>
ca red</w>
ath ens</w>
accompl ishments</w>
acc using</w>
acc use</w>
12 th</w>
yo k-
y ing
xim ity</w>
underes timate</w>
tw el
ta iling</w>
t t</w>
spen ds</w>
sist er</w>
si han
ra m
pro ximity</w>
priva tized</w>
pre judic
peo ple-
oec d</w>
main s</w>
ly- elected</w>
k ad
institu tion
im practicable</w>
ic eland</w>
hu ts</w>
hu n</w>
hk adpl</w>
har med</w>
h ill
gr ac
g aps</w>
el ines</w>
dro me</w>
dis regarding</w>
dia o
derelic tion</w>
del a</w>
concu r</w>
con dol
commen dation</w>
blat ant</w>
b read
b es
ar men
ak a</w>
a e</w>
z i</w>
wan ting</w>
var ieties</w>
va ti
vati can</w>
v ing-
uni fying</w>
ti m</w>
ti li
than k
sun days</w>
sti r</w>
st ones</w>
so lar</w>
sihan ouk</w>
shan xi</w>
sabo tage</w>
pul se</w>
physi otherap
p ick
p han
on able</w>
non- civil</w>
mozamb ican</w>
metro politan</w>
mc s</w>
magne tic</w>
mac s</w>
ma i</w>
lun che
life time</w>
la ble</w>
j am
insol vent</w>
h ate</w>
fulfil lment</w>
feat uring</w>
express way</w>
ev ading</w>
deduc tions</w>
cyc ling</w>
contamin ation</w>
compen dium</w>
car t</w>
bos s</w>
better -off</w>
ast ro
asp ed</w>
ari anism</w>
alter ations</w>
6 50</w>
yok- sing</w>
vi vid</w>
vege table</w>
van guard</w>
v ou
tru st
styro foam</w>
simpl ifying</w>
segreg ation</w>
se p</w>
saf er</w>
s at</w>
ref ra
pro actively</w>
presen t-day</w>
pp ers</w>
non- public</w>
na ive</w>
moroc co</w>
moldo va</w>
me ted</w>
lec tu
ken ya</w>
ka u</w>
ju bil
interfe red</w>
industri alized</w>
in tolerable</w>
g ated</w>
flour ishing</w>
environmental ly-
en vy</w>
e- mail</w>
e aa</w>
du ma</w>
compl ac
cen t
asser tion</w>
ap pre
a es
9 ,000</w>
0. 1</w>
vi si
tw ists</w>
trien nium</w>
ti red</w>
ta r</w>
summar ize</w>
stri des</w>
sin- ling</w>
shrin k</w>
sh ine</w>
rul ings</w>
ris ky</w>
reasonabl eness</w>
re fined</w>
quie tly</w>
no ises</w>
multi pl
mu tu
mat h</w>
mar icul
ma bad</w>
len in
ko hl</w>
ka o
k ic
j ail</w>
isla mabad</w>
gi ous</w>
fa ire</w>
ex porters</w>
em powering</w>
el -
e gg
disclo sing</w>
dis cer
com part
caus eway</w>
cat astro
c is
c at</w>
c -
bot tle</w>
bol dly</w>
asi an-
3. 3</w>
10 3</w>
1 1.
work places</w>
wh arf</w>
w ound</w>
vest ing</w>
vac ated</w>
total ing</w>
ting- out</w>
telephon es</w>
t ough
state- to-
sla ughter</w>
sen ds</w>
sector al</w>
sc a</w>
sacrific ing</w>
ri o</w>
reti rees</w>
rele ases</w>
reit erates</w>
regist ers</w>
r he
pup il</w>
pregn ancy</w>
pe g</w>
pa k</w>
matricul ation</w>
mar ty
lu ded</w>
infiltr ation</w>
hol istic</w>
health ily</w>
finan ci
exer ting</w>
evol ve</w>
ed a</w>
ecr 5</w>
ec ho</w>
cust om</w>
claim ant</w>
c ds</w>
bur n</w>
be an</w>
apparat us</w>
amelior ate</w>
ai res</w>
after math</w>
advis es</w>
15 8</w>
y an-
won der
wind ing-up</w>
wal k
un aware</w>
trac ed</w>
ti l
subsidi zation</w>
stra y</w>
state-to- state</w>
self- contained</w>
sc as</w>
s omal
reserv ing</w>
re- exports</w>
pun ishing</w>
public ly-
prud ential</w>
pro le
per ing</w>
pack aged</w>
p ecu
pecu li
over lap</w>
outw ard</w>
organiz er</w>
no tably</w>
me ans
lin kage</w>
kao hsiung</w>
incess ant</w>
in quest</w>
g ate
g al
further ing</w>
f us
express ways</w>
exp ires</w>
ex posing</w>
du tch</w>
du b
diver ted</w>
desi ra
de lic
de ar</w>
d or
custo dial</w>
cul prit</w>
cor d</w>
commen cing</w>
c ran
atten tively</w>
argu es</w>
applau d</w>
alex an
above mentioned</w>
2, 500</w>
2 60</w>
vari ations</w>
un covered</w>
te i</w>
sur ge
she et</w>
self- defense</w>
sel lers</w>
scenari os</w>
s ag
rainstor m</w>
plain ly</w>
pl ex
pl bs</w>
pen alized</w>
pen al</w>
particip ant</w>
nor m</w>
no by
no bel</w>
monopoli es</w>
means -
loc als</w>
li ed</w>
kazak h</w>
incur ring</w>
in t</w>
il logical</w>
hon- kwan</w>
her bal</w>
gr asped</w>
frequ encies</w>
doub tless</w>
direc tor
de tain</w>
d ha
cy lin
colom bia</w>
cher noby
b reast</w>
anticip ation</w>
ad versity</w>
8 50</w>
6 th</w>
5. 6</w>
5 0
4 000</w>
3. 8</w>
2 70</w>
13 a</w>
y ong</w>
worsen ed</w>
vis- a-
two- day</w>
tu be</w>
tigh tly</w>
tes y</w>
spons ors</w>
sp ur
sk i</w>
signat ories</w>
shoul dering</w>
ser ge
quick er</w>
publ ishes</w>
post- war</w>
po sting</w>
pharmac ies</w>
pe d
par cel</w>
pan cies</w>
n ut
minim ized</w>
man dela</w>
low- skilled</w>
lor ds</w>
ke y
k ni
k ably</w>
it arianism</w>
inclin ation</w>
in- patient</w>
in ate</w>
impro ves</w>
i ons</w>
hour ly</w>
high- speed</w>
head ache</w>
fundamen tals</w>
feng chao</w>
ex tor
establish es</w>
environmentally- friendly</w>
emper or</w>
effic acy</w>
effec ting</w>
e ac</w>
distr ust</w>
deduc ted</w>
cour tesy</w>
chernoby l</w>
cent red</w>
cam era</w>
cal m
c i</w>
bot tom
bi as</w>
b ing
autom ated</w>
at ting</w>
ap i</w>
accru ed</w>
aby ss</w>
19 49</w>
10 6</w>
won dering</w>
willi am</w>
vlad im
sul tan</w>
sub paragraph</w>
so e</w>
righ teous</w>
ric her</w>
rever sible</w>
repa iring</w>
redund ancy</w>
re join</w>
r ash</w>
pri ori
por ted</w>
person ality</w>
per u</w>
per plex
occupi ers</w>
nut shell</w>
non sense</w>
measu rement</w>
malaysi an</w>
ma pping</w>
m ess</w>
lunche on</w>
li ked</w>
leg alization</w>
la x</w>
incess antly</w>
ific ations</w>
hon ours</w>
ho sts</w>
ge ments</w>
frag mented</w>
fe ared</w>
famili ar
f ans</w>
entran ts</w>
emo tions</w>
ed itor</w>
e igh</w>
don ors</w>
domin ance</w>
den ounced</w>
d sd</w>
conceiv able</w>
ca bles</w>
bu ried</w>
bra tions</w>
bl essing</w>
bel it
bar red</w>
attr acts</w>
an no
allevi ated</w>
acqu ain
16 .5</w>
0. 2</w>
x -
w aged</w>
vis-a- vis</w>
therap ists</w>
th ick</w>
ten sions</w>
ta ste</w>
syn drome</w>
sion ed</w>
si ties</w>
scientific ally</w>
satis fying</w>
responsi bly</w>
repeti tion</w>
remo ves</w>
re develop</w>
re building</w>
qi ang</w>
prosecu tor</w>
portfoli os</w>
on au
objec tionable</w>
narrow ed</w>
mu m</w>
manipul ated</w>
m acy</w>
loy alty</w>
les sees</w>
kno tes</w>
junc tions</w>
institu ting</w>
hygi en
horiz on</w>
hor ri
hes itation</w>
g il
fe t
expec tedly</w>
egg s</w>
discre pancies</w>
dign ified</w>
d hs</w>
cle ar
chen ey</w>
char geable</w>
ch lor
cas e
car -
busi est</w>
ban knotes</w>
atlan tic</w>
arch y</w>
appell ant</w>
aff ec
adhe res</w>
ad or</w>
3. 6</w>
-- --
yan- lung</w>
y ard</w>
weak er</w>
w o</w>
val ore
valore m</w>
two- tier</w>
ti p</w>
supervis or</w>
sup pressing</w>
si e
sho es</w>
se di
s ons</w>
retren chment</w>
resi dual</w>
remar kably</w>
photograph s</w>
pha sing</w>
peac e-
pa a</w>
outsour ced</w>
oper an
operan di</w>
of i</w>
musli m</w>
mon ies</w>
mexic an</w>
me -
li ver</w>
k ofi</w>
jap an
iron ically</w>
io c</w>
inval id</w>
in sur
ima ges</w>
id al</w>
he pati
guine a</w>
g raph</w>
franchis ee</w>
frag ile</w>
fe ar
facilit ated</w>
ero sion</w>
enorm ously</w>
en tren
emb racing</w>
east ward</w>
dis sid
dial ec
develop mental</w>
da red</w>
consul ates</w>
co hen</w>
clean liness</w>
cc p</w>
brus h</w>
bo t</w>
appropri ated</w>
anomal y</w>
an ship</w>
abstr act</w>
6. 7</w>
- and-
y m
veter inary</w>
un ve
un expectedly</w>
un ch</w>
tra -
th -
sustain ability</w>
str ing</w>
st f</w>
slaugh tering</w>
shor test</w>
run -up</w>
retra ined</w>
regres sive</w>
rebel s</w>
re- employment</w>
pun ishments</w>
plur alistic</w>
pan ac
ordin ation</w>
nur series</w>
neg ate</w>
multi- seat</w>
liqu id</w>
life- long</w>
k on
jud gements</w>
job- seekers</w>
ir reversible</w>
inqu ire</w>
imag ined</w>
ia ea</w>
hospit ality</w>
gu am</w>
for warded</w>
fire works</w>
fem ales</w>
exempl ary</w>
er b
deline ation</w>
de regulation</w>
ct l</w>
concer ts</w>
cm i</w>
cit a</w>
cath ay</w>
bo oming</w>
bic yc
b are</w>
ar cad
ap points</w>
adap tability</w>
1 b</w>
un registered</w>
transpor ted</w>
total ed</w>
thor ough
ten den
tenden cies</w>
tan tly</w>
sud an</w>
substanti ate</w>
spr ing
sp ate</w>
sor ting</w>
sign ifies</w>
sigh t
sha me
sf c
sfc .</w>
seem ingly</w>
retro spec
reservo irs</w>
pun ishable</w>
prosecu tors</w>
pe ers</w>
panac ea</w>
p ap
out patient</w>
op ine</w>
one- sided</w>
offen ding</w>
obser ver</w>
nois y</w>
nation alism</w>
modu s</w>
mo d
min ors</w>
mer gers</w>
medium -term</w>
le y
justic es</w>
inflexi ble</w>
indul gence</w>
inci dental</w>
imp as
illu sion</w>
il o</w>
i .
hk tb</w>
har ms</w>
gan su</w>
fee der</w>
fan ling</w>
ev ils</w>
escor t</w>
enclo sed</w>
duplic ate</w>
dre ams</w>
deter ring</w>
demonstr ating</w>
condem ns</w>
clo se
centr ally</w>
bro ther</w>
bro ker</w>
bos ses</w>
alloc ations</w>
addi tions</w>
ac ious</w>
abandon ing</w>
19 th</w>
win ds</w>
wee ken
weeken ds</w>
vladim ir</w>
ve to
under privileged</w>
te e</w>
strat um</w>
slov ak</w>
si lic
shor tening</w>
sel fish</w>
q at
pul led</w>
palestini an-israeli</w>
outw eigh</w>
north western</w>
naz ar
mort ality</w>
lit tering</w>
lia ising</w>
landsli p</w>
kid n
hepati tis</w>
ha ctl</w>
h its</w>
g han</w>
fluctu ation</w>
filip ino</w>
exce ed
erec tion</w>
enligh tened</w>
enlar ged</w>
du p</w>
desira bility</w>
complac ency</w>
col lateral</w>
col lar</w>
clar ifying</w>
christ op
char t</w>
c ate
bo arding</w>
block ade</w>
authen tic
appoin tees</w>
ail ed</w>
af ghan</w>
accred ited</w>
absor bing</w>
a erial</w>
whit e
vir tual</w>
tra ils</w>
tax ed</w>
swi ft</w>
surve ying</w>
sur gical</w>
super market</w>
stubbor nly</w>
sew ers</w>
refu ted</w>
que ues</w>
qual itative</w>
q a
pro pon
prin ts</w>
prec inc
pre tend</w>
pre ro
pi vo
ong jiang</w>
mil es</w>
mi k
mat su</w>
marg in
li thu
lend ers</w>
kun ming</w>
kilo grams</w>
jum ping</w>
interpre ters</w>
insist ence</w>
in stantly</w>
i. e
i.e .</w>
extra vag
explor ations</w>
exped ited</w>
energ ies</w>
eloqu ently</w>
dwel ling</w>
disgu ised</w>
de tain
cu t
critici zes</w>
consul tan
co in</w>
co .</w>
clim b</w>
centu ries</w>
c tu</w>
benefic iary</w>
belgi an</w>
bal lo
at eness</w>
are st</w>
am ne
academ ic
2 4
yi u</w>
wonder ful</w>
weigh ing</w>
wash ing</w>
us a</w>
twel ve</w>
tra il</w>
toler ant</w>
tie ying</w>
t cs</w>
struc tured</w>
stri de</w>
standardi zing</w>
st up
specu lations</w>
sloven ia</w>
sign board</w>
se aled</w>
s ongs</w>
s k</w>
readju sting</w>
prescri bing</w>
predic tion</w>
pre sume</w>
ple ad</w>
ow ning</w>
note worthy</w>
non governmental</w>
new- type</w>
me tric</w>
man- yin</w>
ma tism</w>
j acqu
instal ments</w>
ing- off</w>
hydro carbon</w>
he il
har a</w>
ghu i</w>
fall acies</w>
enforce able</w>
el ap
dimen sional</w>
devi ate</w>
der ive</w>
depend ency</w>
demo bil
cri p
conten tment</w>
con sume</w>
commun ity-
collu sion</w>
christop her</w>
at i</w>
antibio tics</w>
activ ated</w>
1 20,000</w>
won ders</w>
va j
ug ly</w>
trans late</w>
tra uma</w>
thes is</w>
tex tual</w>
super sti
stag n
sk in</w>
s ar
ri val</w>
revit alizing</w>
re side</w>
ran a</w>
pu mping</w>
pre am
plic ity</w>
pec uni
pa vements</w>
out flow</w>
open- minded</w>
ob s</w>
no vel</w>
negli gent</w>
mer it
mater nal</w>
mam mo
la ugh
ji ec
jiec hi</w>
japan ese-
j ack
induc tion</w>
in e-
imperi alist</w>
i o</w>
ho p</w>
heil ongjiang</w>
hast en</w>
forci bly</w>
force ful</w>
fa thers</w>
expec tancy</w>
exemp ting</w>
exac erb
en tal</w>
emig rate</w>
election eering</w>
deser t</w>
de voting</w>
d mc</w>
d ling</w>
cu t-
correspon dence</w>
con serve</w>
comp iling</w>
cap tain</w>
c as</w>
bloc king</w>
birth day</w>
be aten</w>
b ach
at able</w>
ach ed</w>
ab u</w>
1 17</w>
w ron
vibr ant</w>
tremen d
tremend ously</w>
ten tly</w>
supre macy</w>
superinten dent</w>
sub sector</w>
sub group</w>
standardi zation</w>
stabil ization</w>
san itation</w>
reluc tantly</w>
re paid</w>
re fine</w>
pension able</w>
pen alize</w>
pecuni ary</w>
of- the-
obe y</w>
n y
middle- income</w>
maneu ver</w>
lor ries</w>
ligh ter</w>
hsi eh</w>
hi er
gra m</w>
g ating</w>
furn iture</w>
ful lest</w>
fran cis
extra ordinarily</w>
embar go</w>
duc k</w>
discoura ged</w>
dis solve</w>
dimin ishing</w>
di ous</w>
deriv atives</w>
dec ree</w>
counter measures</w>
contraven ing</w>
conf ess</w>
breast- feeding</w>
bas ket</w>
bach el
at ers</w>
appre n
ans on</w>
ain s</w>
7. 8</w>
4. 3</w>
3. 1</w>
1 22</w>
1 1,
yo vers</w>
wai ving</w>
vers a</w>
under graduate</w>
un easy</w>
tu ous</w>
tra ms</w>
the ast
testi mony</w>
technology- based</w>
tax able</w>
subsidi aries</w>
sli m</w>
slee ping</w>
si ze
set back</w>
selec tively</w>
second- hand</w>
s now
s nat
restric ts</w>
restra ining</w>
res ale</w>
rec ess</w>
pro voke</w>
pl c</w>
pe tty</w>
pan ama</w>
own s</w>
opti mum</w>
ol ds</w>
nur tured</w>
non- refugees</w>
non- executive</w>
negati ve-
manag es</w>
mal ic
lux u
lit ter</w>
lib ya</w>
lia o</w>
lea f</w>
la den</w>
ker ry</w>
ich iro</w>
hk sa</w>
fore stry</w>
fl yovers</w>
first- degree</w>
far ce</w>
f led</w>
ex positions</w>
end ang
docu mentary</w>
dis integration</w>
contempl ated</w>
col in</w>
card inal</w>
business -
bo o</w>
be rea
asser t</w>
acknowle dges</w>
7 000</w>
7 0,000</w>
5 50</w>
3 60</w>
3 20</w>
2 nd</w>
2 5,000</w>
10 0000</w>
work -related</w>
wi reless</w>
wal ked</w>
vaj payee</w>
vac ation</w>
un ita</w>
ti rana</w>
techn ique</w>
targe tted</w>
t sai</w>
se a-
school -
sa iling</w>
s adly</w>
repa ired</w>
re mit
re lin
re deployment</w>
privately- run</w>
pris ed</w>
pre- empt</w>
pre pa
pre clude</w>
ple a</w>
ph no
phno m</w>
per me
people- oriented</w>
ou fla
mer cy</w>
jo ke</w>
ir a</w>
in vigor
in vention</w>
imagin ative</w>
he ating</w>
hat red</w>
har dest</w>
ha ir</w>
georgi a</w>
fric tion</w>
fr t</w>
fore going</w>
first- class</w>
fer tili
fa vo
evol ving</w>
este em</w>
entrepre neu
e b
dri ving-
direc t
d us
contin ental</w>
commis sar</w>
cl ash</w>
chap ters</w>
cele brations</w>
canop ies</w>
cam oufla
budge ted</w>
bid ders</w>
bel t</w>
be ating</w>
bal tic</w>
b -
audi o-
arrog ant</w>
ambig uities</w>
ali en
7. 6</w>
2 80</w>
2 10</w>
18 th</w>
z u</w>
y ant</w>
wholes al
w ary</w>
ver tical</w>
ve sts</w>
understand ings</w>
un pleasant</w>
travel led</w>
ter ie</w>
temp tation</w>
t v
swe pt</w>
surve yed</w>
subsid ised</w>
sub- contractors</w>
ster nly</w>
sight seeing</w>
ri gation</w>
ri des</w>
priva tize</w>
per severance</w>
per secution</w>
per -
pen h</w>
out going</w>
optim al</w>
multi- service</w>
multi- disciplinary</w>
med als</w>
mammo th</w>
lou dly</w>
knowledge able</w>
jing sheng</w>
ir rigation</w>
investig ators</w>
interru pted</w>
insp iring</w>
in timate</w>
impe ded</w>
guardi anship</w>
gri ef</w>
fin e-
exceed ingly</w>
ev ac
emig rants</w>
embarr assing</w>
distribu tors</w>
dissemin ating</w>
disru pted</w>
cot tage</w>
cop ying</w>
constitu ting</w>
bat tal
back up</w>
back log</w>
bachel or</w>
b age</w>
arous ing</w>
appropri ateness</w>
am bition</w>
alter nate</w>
20 .
yiel ds</w>
y ards</w>
wo o</w>
wil son</w>
u pro
tw il
twil ight</w>
theast ern</w>
tende rers</w>
tanz ania</w>
stren uous</w>
ste am</w>
so fia</w>
simpl est</w>
sca ff
rigi dly</w>
resi li
rein state</w>
re distribution</w>
re bound</w>
r wan
procrast ination</w>
pr us</w>
pl ate</w>
periph eral</w>
ou tri
net working</w>
nazar bayev</w>
n ine
mri r</w>
mo on</w>
mo ments</w>
meteor ological</w>
mem ories</w>
means- tested</w>
leg acy</w>
ladd er</w>
kno c
ke ys</w>
jacqu es</w>
j et</w>
ir ony</w>
ic able</w>
i is</w>
g lar
fugi tive</w>
fin ger</w>
extra- curricular</w>
execu te</w>
ever- increasing</w>
evac uation</w>
en t-
draw backs</w>
dis respect</w>
dilig ent</w>
di an</w>
cra fts</w>
coo ked</w>
consultan cies</w>
condol ences</w>
condi tioning</w>
commun it
collec ts</w>
co terie</w>
co c
chun yun</w>
budd ha</w>
bu ck</w>
brun t</w>
appro vals</w>
alleg iance</w>
air-condi tioners</w>
adap ting</w>
8 0,000</w>
3 80</w>
us er-
uni qu
un qualified</w>
ul ation</w>
ta pping</w>
substitu ted</w>
su ng</w>
size able</w>
sist ers</w>
resid ed</w>
resi sti
rec ourse</w>
re phrase</w>
pul ling</w>
prob able</w>
pla y
pivo tal</w>
pin ned</w>
pestici des</w>
peculi ar</w>
over throw</w>
outri ght</w>
north- west</w>
nomin ate</w>
lap sed</w>
la zy</w>
ka if
it ement</w>
inten tioned</w>
inher it</w>
in k
in competent</w>
il i</w>
he e
hand some</w>
h ran</w>
exp ound</w>
er it
envo ys</w>
e a
dispen sing</w>
direc tive</w>
differenti ate</w>
defaul ting</w>
de pressed</w>
d ying</w>
confron tations</w>
comm ons</w>
clar ifications</w>
c aged</w>
c af
ban ners</w>
artific ially</w>
ain e</w>
adap tations</w>
accel eration</w>
abst aining</w>
27 a</w>
19 .
10 9</w>
z ou</w>
yong tu</w>
x x
vit ally</w>
unequivo cally</w>
undermin es</w>
un conditionally</w>
u pri
tigh ter</w>
through -
te hran</w>
t- out</w>
symbo li
sub clauses</w>
stret ch</w>
ste er</w>
st uck</w>
speci alty</w>
shame ful</w>
scholar ships</w>
s ara
ros cop
rhe tor
ren ting</w>
real ise</w>
profit ability</w>
pro- china</w>
patrio t</w>
pac ked</w>
our al</w>
om itted</w>
observ atory</w>
obe di
modern ize</w>
log istic</w>
iv ory</w>
intim id
indem nity</w>
illustr ation</w>
hk ab</w>
fu n</w>
f y
exc ited</w>
evid enced</w>
ep iso
emin ent</w>
eas on</w>
dra ma</w>
disru p
dis plays</w>
direc tives</w>
cy prus</w>
cor relation</w>
coordin ating</w>
control lers</w>
conten ted</w>
condem ning</w>
comprehen sible</w>
communit y-wide</w>
clou ds</w>
circul ars</w>
circu its</w>
cas elo
budge ting</w>
broad band</w>
bon us</w>
behavi oural</w>
be ver
bal lots</w>
ba o
b ones</w>
auth or</w>
asian- pacific</w>
alleg edly</w>
ai he</w>
13 5</w>
zhong yu</w>
writ er</w>
vir uses</w>
vi ii</w>
val ence</w>
und is
un fit</w>
trou bl
threat ens</w>
tain able</w>
t all</w>
sun set</w>
subordin ates</w>
spring board</w>
solic iting</w>
s ang</w>
roy alties</w>
res em
ration alization</w>
quanti tative</w>
public -
por table</w>
poore st</w>
plac eable</w>
or bit</w>
non- statutory</w>
mis ery</w>
marty rs</w>
la ke</w>
l is
l as</w>
jor c</w>
inter departmental</w>
inform ing</w>
impar tially</w>
i van
hegemon ic</w>
geograph ically</w>
gener als</w>
fol k</w>
flo ors</w>
embarr assment</w>
embar king</w>
da res</w>
cou p
commun al</w>
colom bian</w>
col or
cen sure</w>
brigh ter</w>
break downs</w>
blan k</w>
auto cratic</w>
assign ments</w>
asser ted</w>
any how</w>
anti- drug</w>
alger ia</w>
admir al</w>
accoun tant</w>
a ils</w>
6. 8</w>
3 40</w>
z oned</w>
x ue
vari ables</w>
vari able</w>
un justified</w>
than king</w>
super power</w>
su spending</w>
strateg ically</w>
sm ith</w>
sm ell</w>
six- month</w>
shu ibian</w>
self- help</w>
sacrific es</w>
ru mors</w>
rev amp</w>
repl ying</w>
prote sters</w>
pro claimed</w>
pei yan</w>
out cry</w>
mu barak</w>
motiv ate</w>
milli on-
me tals</w>
me ga
lin er</w>
kee pers</w>
ke l</w>
k io
k ash
jeop ar
ir resisti
ir ish</w>
inqu ired</w>
ic e
hygien ic</w>
hon ored</w>
harv est</w>
gu an</w>
gl ory</w>
foot bridge</w>
exhaus tive</w>
er ships</w>
dur able</w>
du c</w>
driving- offence</w>
dra gging</w>
dong shan</w>
daw n</w>
cross- straits</w>
cor on
con ni
competi tor</w>
co incidence</w>
clu ster</w>
carri ag
bo w</w>
bo d
be ef</w>
awa ited</w>
are rs</w>
4. 8</w>
with holding</w>
wan ton</w>
w ash</w>
ver sed</w>
un ic
stup id</w>
ste ep</w>
sho ok</w>
servic ing</w>
sec t</w>
sa mar
ri vals</w>
revi ving</w>
reli ant</w>
re mit</w>
re d-
qing dao</w>
publicly- funded</w>
pu dong</w>
osh c</w>
oper atives</w>
objec ting</w>
ne es</w>
muse ums</w>
mir ror</w>
min us</w>
mil i
marx ism-
marxism- lenin
mal ta</w>
liter ally</w>
jun ichiro</w>
irresisti ble</w>
instruc t</w>
inf low</w>
inclu sive</w>
immen sely</w>
il ling</w>
hy d</w>
hum ble</w>
hk ia</w>
hel sin
haw king</w>
gh ali</w>
gar bage</w>
g u</w>
g a</w>
francis co</w>
forwar ding</w>
fi re-
ffici ency</w>
f dhs</w>
f ang
ev acu
ero de</w>
enta ils</w>
draf ters</w>
direct ly-elected</w>
depl orable</w>
dec or
dec k</w>
congratul atory</w>
conclu sive</w>
collap sed</w>
cle ver</w>
chang qing</w>
celebr ating</w>
c eme
bo y
bo ilers</w>
am at</w>
2, 300</w>
z ambi
zambi a</w>
xiang long</w>
ver ge</w>
v m</w>
un solved</w>
u te</w>
tribun als</w>
tram way</w>
three- day</w>
ten ement</w>
sylla bus</w>
suic idal</w>
stimul ated</w>
single- seat</w>
sen i
roscop ic</w>
requis ites</w>
repl en
readjust ments</w>
rate payers</w>
qing hai</w>
prog resses</w>
pneumoconio tics</w>
pion age</w>
pho to</w>
out lines</w>
o au</w>
non- interven
non- emergency</w>
mor als</w>
macro -
lux emb
lun ches</w>
lifel ine</w>
li an</w>
legitim acy</w>
know ingly</w>
insul ting</w>
instruc tors</w>
inher ited</w>
indefin ite</w>
in jecting</w>
il ity</w>
helsin ki</w>
h ree</w>
g ab
ful ler</w>
focus sed</w>
even ly</w>
ethiop ia</w>
es pionage</w>
elap sed</w>
dom ain</w>
dis pers
conveni ently</w>
conce al</w>
comman ds</w>
col or</w>
ca reless</w>
c ers</w>
by laws</w>
buo yant</w>
acci dental</w>
4. 7</w>
- minded</w>
wholesal ers</w>
voic ing</w>
vacc ination</w>
turn -out</w>
traffic kers</w>
three- month</w>
thom as</w>
ter med</w>
tar ian</w>
sur passed</w>
stat eless</w>
spee ded</w>
sing er</w>
simul ated</w>
si zing</w>
shel ve</w>
sh in
sel ls</w>
sear ches</w>
seaf ood</w>
rol led</w>
ri ot</w>
republic ans</w>
recy cla
reac tionary</w>
r sp</w>
qat ar</w>
po tent</w>
pass ages</w>
p tly</w>
num bered</w>
mar ies</w>
manife sts</w>
lu kas
lukas hen
lo an-
inf ant</w>
indic ative</w>
inadver tently</w>
ig n</w>
hke x</w>
high- risk</w>
furn ished</w>
fla mes</w>
escal ation</w>
du g</w>
discrimin ating</w>
des mond</w>
decei ving</w>
compu tation</w>
complic ate</w>
calm ly</w>
bureaucr ats</w>
bour geo
au to</w>
ar cha
al e
acc ess
ac s</w>
8 000</w>
5, 0
4. 4</w>
10 7</w>
0 6</w>
yuan hua</w>
un true</w>
un foreseen</w>
tru sts</w>
stub born</w>
squee ze</w>
shut tle</w>
shi jia
sh run
sh eng
ru in</w>
righ tw
remit tance</w>
re ag
quar ry</w>
qin ghua</w>
pul sion</w>
presid e</w>
prero gative</w>
prejudic ed</w>
pover ty-
po p</w>
plain ti
per sists</w>
per func
particul ate</w>
olog ists</w>
off s</w>
no tor
na than</w>
me tres</w>
ma c</w>
lic al</w>
leaf let</w>
kit chen</w>
k ingly</w>
jur ing</w>
it dc</w>
imprison ed</w>
im pending</w>
hot lines</w>
hk t</w>
gi fts</w>
fore stall</w>
explo sions</w>
energe tic</w>
en during</w>
ec o</w>
e ter
disc ard</w>
di am
den ial</w>
dem ise</w>
decrimin alization</w>
dec entr
de vo
cyc lical</w>
cus hion</w>
corrid ors</w>
conven er</w>
consu l</w>
clo s
check points</w>
cha rest</w>
care rs</w>
bu charest</w>
br ic
bow l</w>
bo c</w>
ben z
ben ch</w>
bar rels</w>
appren tic
ance stors</w>
an c</w>
agre eable</w>
ab ject</w>
9 000</w>
6. 3</w>
2. 1</w>
17 th</w>
1 27</w>
west ern
w rec
tro pical</w>
sur ging</w>
shijia zhuang</w>
sez -
sedi tious</w>
sal ar
s now</w>
ru ined</w>
roc kets</w>
relin qu
rein for
regul ates</w>
re- enter</w>
re jects</w>
rati fication</w>
qa eda</w>
pron ounced</w>
pream ble</w>
pow der</w>
pois on
pl as
pil es</w>
par don</w>
pain ting</w>
over seeing</w>
over head</w>
over charging</w>
od ds</w>
obstruc ting</w>
o se
mor ally</w>
mechan ized</w>
mechan ics</w>
mar ching</w>
maced onian</w>
ma h
m ir</w>
lob bi
lobbi ed</w>
lais sez-
lab ou
l ur
l op
ket ball</w>
join t-
j a</w>
ir regular</w>
impl ore</w>
im moral</w>
id aihe</w>
hop eful</w>
hegemon ist</w>
head -
h it
gun a</w>
grou ped</w>
formul ates</w>
fl y
fac to</w>
fa me</w>
end owed</w>
echo ed</w>
domin ate</w>
dissemin ated</w>
desp erate</w>
deduc ting</w>
de sal
cub ic
conten d</w>
conno tation</w>
confu ci
con cen
bu l</w>
broad ened</w>
bi ao</w>
bever ages</w>
benz ene</w>
b or</w>
archit ect</w>
anti- dumping</w>
an tic
a ths</w>
6. 6</w>
4 00,000</w>
0. 4</w>
wide st</w>
war ship</w>
un loading</w>
tu torial</w>
tri um
thro at</w>
te -
syndic ate</w>
sur rendered</w>
summon ses</w>
summ on</w>
st air
so ber</w>
sh un</w>
self- confidence</w>
scand al</w>
s n
s care</w>
reloc ating</w>
ra f</w>
q iz
promin ence</w>
poison ous</w>
pla yer</w>
parti tioned</w>
o sa
nigh ts</w>
ner v
mis fortune</w>
m s
m igh
licen ses</w>
liber alized</w>
lay man</w>
lad ies</w>
la me</w>
la guna</w>
la gos</w>
j ung</w>
initi ating</w>
indign ant</w>
hol e</w>
hkce c</w>
hk fe</w>
hai kou</w>
guang en</w>
forma tions</w>
fool ish</w>
festi vals</w>
f p</w>
ex port
ep -
el i
depos ited</w>
demobil ized</w>
dec lines</w>
de priv
cosme tic</w>
contribu tors</w>
consequ ent</w>
concen tra
comfor tably</w>
co- operating</w>
co ok</w>
chan n
cataly tic</w>
cas e-
bur dened</w>
blan ket</w>
ber ths</w>
be idaihe</w>
bas ketball</w>
b ind</w>
b iden</w>
arre stable</w>
aqu atic</w>
applau ded</w>
ap t</w>
answ erable</w>
ab outs</w>
ab du
0. 8</w>
you de</w>
ya um
with hold</w>
whe el</w>
we igh</w>
water front</w>
ve tted</w>
t ops</w>
syn chron
super structure</w>
summon ed</w>
st on</w>
smugg lers</w>
sli pp
sino- indian</w>
sh od
sensi bly</w>
sch ro
ri ger
respec table</w>
remun erated</w>
ref riger
pursu es</w>
pu r</w>
promulg ate</w>
pre vocational</w>
pre si
pip elines</w>
physiotherap ists</w>
peace time</w>
pe gging</w>
pa ir</w>
p ile</w>
or ious</w>
on erous</w>
occup ies</w>
negative- equity</w>
mus har
misconcep tions</w>
mig rant</w>
mid -term</w>
merit orious</w>
men ting</w>
me ta
market- oriented</w>
liber alize</w>
laissez- faire</w>
ku ang
journ alistic</w>
jeopardi zing</w>
j ie
ivan ov</w>
irre placeable</w>
intere st-
intercep ting</w>
ing en
in juring</w>
in junction</w>
human itarianism</w>
ho ods</w>
hear say</w>
gu i
gaz a</w>
for bid</w>
fa stly</w>
extr act</w>
explo sive</w>
exist ent</w>
emig rated</w>
e ably</w>
doub ted</w>
d- up</w>
concentra tions</w>
computer ization</w>
collec tors</w>
chu k</w>
che ating</w>
che ated</w>
ch ol
cate red</w>
blun tly</w>
belong ed</w>
behavi ors</w>
bas eline</w>
anti- terrorism</w>
announ ces</w>
air plane</w>
7 th</w>
6 000</w>
3. 7</w>
2 25</w>
10 8</w>
0. 6</w>
y l</w>
whe at</w>
vola tility</w>
up -
un balanced</w>
tuni sia</w>
tr act</w>
total led</w>
stead fastly</w>
st oring</w>
some time</w>
sion ing</w>
sing ing</w>
sing h</w>
simpl istic</w>
shel ving</w>
s worn</w>
s ke
ric s</w>
re provi
re consideration</w>
prob ation</w>
post ure</w>
port ra
pool ing</w>
po ols</w>
photo s</w>
perce ive</w>
origin s</w>
ord ering</w>
one- person</w>
om ni
of ang</w>
o li
non- smokers</w>
nan sha</w>
mu t</w>
mean ings</w>
ma ps</w>
m and</w>
ligh ten</w>
li eu
ku o</w>
ku ch
k un</w>
je wish</w>
inv aded</w>
inter val</w>
influ encing</w>
home page</w>
helpl essness</w>
fif a</w>
escap ed</w>
entre pot</w>
elec tor</w>
el essly</w>
dum p</w>
dissid ents</w>
discoura ging</w>
dis proportionate</w>
dir ty</w>
diff ering</w>
dev ast
desi res</w>
descri bes</w>
com prised</w>
co gn
close d-
ce ly</w>
cal end
bes et</w>
bd tcs</w>
analy sing</w>
adv ent</w>
abs con
a yan</w>
6 0s</w>
visu ally</w>
u min
tough er</w>
ther mal</w>
tar n
t seng</w>
surge ons</w>
sud anese</w>
sta ys</w>
st ems</w>
sober ly</w>
sla bs</w>
sc o</w>
sa v
sa il</w>
resid ency</w>
repri mand</w>
repatri ate</w>
reinst ated</w>
reag an</w>
ran ged</w>
pro be</w>
power less</w>
plac ements</w>
person -
p it</w>
ol ine</w>
occupi er</w>
obstruc tions</w>
num ber
non- indigenous</w>
no t-
macle od</w>
ma ble</w>
m istr
lum pur</w>
lukashen ko</w>
long- distance</w>
liti gan
litigan ts</w>
le ment</w>
kuch ma</w>
ku ala</w>
k n
k ick</w>
j ong</w>
in equitable</w>
ig u
hospit alized</w>
hes it
hero es</w>
hel mut</w>
health ier</w>
guardi an</w>
grad ing</w>
gentl emen</w>
gen es</w>
ffe e</w>
fall acy</w>
ext ingu
ef s</w>
e voked</w>
e t
dou bling</w>
discus ses</w>
dimen sion</w>
detain ees</w>
def ra
da o
comp ound</w>
coinci de</w>
co ffee</w>
chil led</w>
casu ally</w>
caselo ad</w>
bread th</w>
bran ds</w>
benevol ent</w>
ascertain ed</w>
an on
administra tively</w>
9 99</w>
5. 3</w>
4. 9</w>
3. 9</w>
2 5th</w>
yiel ding</w>
y in
x on</w>
x ing
wet land</w>
war ming</w>
wa vering</w>
vi vi
vend ors</w>
upri ght</w>
uni formity</w>
under line</w>
un ting</w>
un skilled</w>
un predictable</w>
un paid</w>
turbul ence</w>
to po
take over</w>
super flu
stal em
spir al</w>
sign ify</w>
shod dy</w>
sh ots</w>
s ks</w>
regist rable</w>
recycla ble</w>
re organized</w>
re organize</w>
r ous</w>
q u</w>
prog ressed</w>
polic eman</w>
pl ate
ph ant</w>
pati ently</w>
our g</w>
o ve
o ils</w>
o aths</w>
na tive-
mat u
mar sh
m our
luxemb ourg</w>
lt d</w>
leg co</w>
lectu rers</w>
la und
kio sks</w>
k is
inten tional</w>
insp ire</w>
indul ge</w>
indeb tedness</w>
in fin
ic escr</w>
hur dles</w>
hkce e</w>
high- handed</w>
hier archy</w>
h at</w>
gu ise</w>
gu ang</w>
gre et</w>
grat uity</w>
gil bert</w>
f its</w>
es tive</w>
em ing</w>
dro ps</w>
domin ating</w>
do g
den ies</w>
delic ate</w>
deep est</w>
dec on
d af
crow ds</w>
cre w
concep tion</w>
con go</w>
con fin
clos est</w>
chequ e</w>
cen sor</w>
casu alty</w>
bul lying</w>
brac kets</w>
bom bers</w>
bio technology</w>
bid der</w>
bi -
associ ates</w>
ar son</w>
antagon istic</w>
activi sts</w>
ab ate</w>
9 50</w>
8. 1</w>
5. 2</w>
4. 2</w>
3 rd</w>
13 .5</w>
12 a</w>
1 23</w>
zimbab we</w>
wid th</w>
vo y
umb rel
u ously</w>
trans fusion</w>
trans -
tram pled</w>
to u</w>
ti stic</w>
ten dered</w>
t ome
squ an
sigh ts</w>
shou ting</w>
shi pped</w>
share holding</w>
se aw
respec tfully</w>
res our
renew ing</w>
ren dition</w>
reconc ile</w>
recipro city</w>
rec ol
rec eptive</w>
re payments</w>
r ons</w>
popular ize</w>
popul ace</w>
pay er</w>
pa edi
ox in</w>
out- and-
out-and- out</w>
om y</w>
obstruc ted</w>
notic eably</w>
no taries</w>
mo i</w>
manoeuv re</w>
log ically</w>
kni fe</w>
in convenient</w>
id i</w>
hol low</w>
ho stages</w>
h end</w>
gree ting</w>
g ist</w>
fo ren
fo od
fly over</w>
floo ded</w>
faith ful</w>
exagger ation</w>
enric hed</w>
embo diment</w>
em it</w>
earthqua kes</w>
dialo g</w>
deriv ative</w>
def erring</w>
deal er</w>
critic ised</w>
cred itor</w>
cosme tics</w>
cool ing-off</w>
congres sional</w>
co-ordin ator</w>
classi fy</w>
cla m
chol era</w>
camoufla ge</w>
bod ily</w>
bis hop</w>
aus p
assa ults</w>
anon ym
al gam
affec tion</w>
accompl ishment</w>
ab a</w>
7. 3</w>
18 0,000</w>
10 2</w>
- general</w>
x un</w>
tis ation</w>
ten tative</w>
t ated</w>
surroun ded</w>
superflu ous</w>
success ors</w>
su ing</w>
stradd le</w>
stalem ate</w>
spon tan
sino- hong</w>
si z
shar on</w>
san itary</w>
s on
revit alization</w>
resist ed</w>
ren unciation</w>
refurb ishment</w>
preven ts</w>
prefer able</w>
pre- employment</w>
pon ds</w>
peace- loving</w>
party- building</w>
op tome
on ization</w>
ol u
mushar raf</w>
mon ast
mind set</w>
medi ate</w>
marri ages</w>
m m</w>
low- interest</w>
lor ry</w>
lo ads</w>
lieu tenant</w>
lef tist</w>
lam ma</w>
la gged</w>
kee per</w>
ke enly</w>
k l
inno cence</w>
inf lam
induc ing</w>
impas se</w>
il ings</w>
hi ke</w>
hard- earned</w>
harb or</w>
fu elled</w>
fran k
fo reg
fo ol</w>
first- year</w>
fin ishing</w>
fac e-to-
f lower</w>
f ces</w>
extremis m</w>
explan atory</w>
enjo yment</w>
emancip ate</w>
e der</w>
du mped</w>
dispen sed</w>
dis grace</w>
diam ond</w>
deter red</w>
depriv ation</w>
depar ted</w>
defini tive</w>
dec eptive</w>
cur tain</w>
co st
bur o</w>
bur ned</w>
block age</w>
b ator</w>
at ures</w>
at ro
aston ishing</w>
as signing</w>
ama zing</w>
am algam
al as</w>
affir ms</w>
20 16</w>
2. 9</w>
2 50,000</w>
young ster</w>
wor ship</w>
wol f</w>
wheel chair</w>
vol ley
vend or</w>
un tenable</w>
trade link</w>
to y</w>
tim ber</w>
t as
survey or</w>
stret ched</w>
stream ing</w>
spir alling</w>
speci alties</w>
south- north</w>
so ar</w>
sl ashed</w>
sl ash</w>
sil k</w>
servic e-
seri a
seria tim</w>
ser bs</w>
scen ery</w>
salar ied</w>
rightw ing</w>
reg ener
re- entry</w>
re dem
r ung</w>
proc ure</w>
priv ate-
preci pit
practic ability</w>
petro chemical</w>
pe er</w>
pay roll</w>
note -
my th</w>
metr e</w>
marke t
los ers</w>
lithu ania</w>
le an</w>
it i</w>
intr in
in- charge</w>
in son</w>
in jections</w>
in conceivable</w>
impor ter</w>
immun ities</w>
hear tened</w>
groun d-
go d
g op
forth with</w>
for give</w>
famil y-
exca v
en vel
em be
embe zz
duc ks</w>
dol ph
diver ting</w>
dispu ted</w>
disadvanta geous</w>
dis honest</w>
depend ant</w>
cr ying</w>
cor di
contraven tions</w>
concep tual</w>
compas sion</w>
coer ci
co w</w>
cat alo
ca is
brea thing</w>
black mail</w>
bl ur
battal ion</w>
bar bar
b ron
ar i</w>
ac complic
7. 7</w>
5. 8</w>
4. 6</w>
14 1</w>
10 4</w>
1 2,000</w>
0. 0
w ounds</w>
volley ball</w>
vivi dly</w>
util isation</w>
us- led</w>
uni on
ul an</w>
treat s</w>
tow ers</w>
tor ture</w>
tis an</w>
thre w</w>
termin ology</w>
teach er-
t sa
symbo lic</w>
sur charges</w>
split tism</w>
slipp age</w>
sk y
simil ar
satur ation</w>
reve aling</w>
repe als</w>
redem ption</w>
re tailing</w>
protec tionist</w>
pro x
pre ten
phr ases</w>
penetr ation</w>
p act</w>
op ines</w>
on- site</w>
obs essed</w>
oblig ated</w>
moun table</w>
mix ture</w>
medi ator</w>
me tal
market place</w>
ma pu
m ate</w>
lu ence</w>
lu anda</w>
loc ate</w>
labou rers</w>
justi fi
j r</w>
inter course</w>
inter changes</w>
inc ul
immun e</w>
her o</w>
ha d
groun d
ge ously</w>
fri vol
facul ties</w>
ever- changing</w>
endor ses</w>
el ing</w>
e po
dom ic
deple ted</w>
depend ents</w>
day time</w>
d- the-
d read
comb atting</w>
colli ded</w>
[...]
