#version: 0.2
政 府</w>
我 们</w>
议 员</w>
主 席</w>
问 题</w>
香 港</w>
有 关</w>
条 例</w>
一 个</w>
发 展</w>
方 面</w>
他 们</w>
中 国</w>
工 作</w>
提 出</w>
委 员
可 以</w>
委员 会</w>
计 划</w>
这 些</w>
先 生</w>
经 济</w>
草 案</w>
进 行</w>
没 有</w>
建 议</w>
认 为</w>
社 会</w>
服 务</w>
情 况</w>
提 供</w>
人 士</w>
修 订</w>
希 望</w>
是 否</w>
市 民</w>
这 个</w>
如 果</w>
公 司</w>
政 策</w>
作 出</w>
教 育</w>
支 持</w>
当 局</w>
其 他</w>
0 0
本 港</w>
因 此</w>
必 须</w>
需 要</w>
意 见</w>
可 能</w>
一 些</w>
因 为</w>
考 虑</w>
国 家</w>
一 九
研 究</w>
动 议</w>
重 要</w>
1 9
关 系</w>
要 求</w>
现 在</w>
现 时</w>
美 国</w>
规 定</w>
影 响</w>
局 长</w>
表 示</w>
措 施</w>
以 及</w>
根 据</w>
包 括</w>
机 构</w>
增 加</w>
今 天</w>
相 信</w>
立 法</w>
通 过</w>
报 告</w>
会 议</w>
行 政</w>
处 理</w>
不 过</w>
这 样</w>
任 何</w>
环 境</w>
制 度</w>
国 际</w>
部 分</w>
时 间</w>
改 善</w>
19 9
继 续</w>
决 定</w>
主 要</w>
法 律</w>
目 前</w>
很 多</w>
合 作</w>
译 文</w>
由 于</w>
应 该</w>
所 以</w>
议 案</w>
解 决</w>
法 例</w>
市 场</w>
检 讨</w>
工 程</w>
保 障</w>
特 别</w>
事 务</w>
此 外</w>
人 员</w>
修 正
修正 案</w>
已 经</w>
资 料</w>
刚 才</w>
如 何</w>
加 强</w>
其 实</w>
管 理</w>
代 表</w>
采 取</w>
地 区</w>
所 有</w>
安 全</w>
获 得</w>
一九 九
作 为</w>
甚 么</w>
同 时</w>
反 对</w>
组 织</w>
能 够</w>
活 动</w>
知 道</w>
讨 论</w>
不 同</w>
发 言</w>
部 门</w>
利 益</w>
各 位</w>
原 则</w>
指 出</w>
出 现</w>
小 组</w>
责 任</w>
这 种</w>
台 湾</w>
接 受</w>
世 界</w>
第 一</w>
当 然</w>
福 利</w>
提 高</w>
政 治</w>
财 政</w>
对 于</w>
房 屋</w>
资 源</w>
人 民</w>
大 家</w>
其 中</w>
过 去</w>
政 司</w>
虽 然</w>
答 复</w>
机 会</w>
非 常</w>
进 一
进一 步</w>
2 00
觉 得</w>
方 法</w>
安 排</w>
本 人</w>
调 查</w>
辩 论</w>
第 二</w>
条 文</w>
来 说</w>
成 立</w>
同 意</w>
申 请</w>
为 何</w>
确 保</w>
目 标</w>
新 华
新华 社</w>
致 辞</w>
英 国</w>
实 施</w>
使 用</w>
至 于</w>
这 项</w>
上 述</w>
交 通</w>
自 己</w>
开 支</w>
建 设</w>
公 众</w>
科 技</w>
工 业</w>
改 革</w>
完 全</w>
地 方</w>
投 资</w>
例 如</w>
劳 工</w>
委 会</w>
企 业</w>
关 注</w>
可 否</w>
中 心</w>
一 定</w>
十 分</w>
程 序</w>
务 员</w>
公 务员</w>
全 面</w>
成 为</w>
今 年</w>
家 庭</w>
基 本
公 共</w>
积 极</w>
受 到</w>
行 动</w>
收 费</w>
推 行</w>
数 字</w>
记 者</w>
严 重</w>
技 术</w>
开 始</w>
最 后</w>
立 法
清 楚</w>
取 得</w>
学 生</w>
未 来</w>
发 生</w>
立法 会</w>
土 地</w>
学 校</w>
关 于</w>
得 到</w>
女 士</w>
居 民</w>
水 平</w>
结 果</w>
有 效</w>
原 因</w>
收 入</w>
负 责</w>
成 员</w>
一 直</w>
举 行</w>
基 本</w>
能 力</w>
1 0
协 助</w>
主 义</w>
生 活</w>
质 询</w>
实 上</w>
事 实上</w>
专 业</w>
一九 八
范 围</w>
制 订</w>
增 长</w>
目 的</w>
发 表</w>
年 度</w>
基本 法</w>
合 理</w>
双 方</w>
不 断</w>
事 件</w>
而 且</w>
选 举</w>
银 行</w>
透 过</w>
议 会</w>
系 统</w>
雇 员</w>
参 与</w>
符 合</w>
去 年</w>
方 式</w>
基 金</w>
完 成</w>
健 康</w>
设 立</w>
努 力</w>
显 示</w>
提 交</w>
做 法</w>
审 议</w>
机 场</w>
实 际</w>
北 京</w>
为 了</w>
文 件</w>
基 础</w>
以 来</w>
内 容</w>
长 官</w>
但 是</w>
执 行</w>
理 由</w>
条 件</w>
单 位</w>
并 非</w>
适 当</w>
规 划</w>
访 问</w>
保 安</w>
一 点</w>
人 权</w>
设 施</w>
标 准</w>
成 本</w>
造 成</w>
医 院</w>
那 些</w>
个 案</w>
运 输</w>
公 平</w>
阶 段</w>
运 作</w>
稳 定</w>
权 力</w>
解 释</w>
医 疗</w>
行 业</w>
涉 及</w>
财 政司</w>
本 地</w>
强 调</w>
加 入</w>
课 程</w>
足 够</w>
总 督</w>
费 用</w>
自 由</w>
雇 主</w>
竞 争</w>
之 间</w>
感 到</w>
困 难</w>
管 制</w>
有 些</w>
仍 然</w>
委 员</w>
告 知</w>
资 助</w>
最 近</w>
面 对</w>
一 般</w>
整 体</w>
首 先</w>
铁 路</w>
00 0</w>
贸 易</w>
民 主</w>
官 员</w>
减 少</w>
精 神</w>
工 人</w>
中 央</w>
时 候</w>
权 利</w>
团 体</w>
促 进</w>
同 事</w>
实 在</w>
培 训</w>
投 诉</w>
各 项</w>
老 人</w>
总 统</w>
维 持</w>
施 政</w>
直 接</w>
因 素</w>
了 解</w>
需 求</w>
选 择</w>
保 护</w>
历 史</w>
作 用</w>
监 察</w>
甚 至</w>
每 年</w>
就 业</w>
一 年</w>
限 制</w>
期 间</w>
超 过</w>
0 0</w>
私 人</w>
金 融</w>
数 目</w>
中 国
日 本</w>
改 变</w>
楼 宇</w>
商 业</w>
文 化</w>
鼓 励</w>
采 用</w>
警 方</w>
内 地</w>
共 同</w>
根 本</w>
建 立</w>
就 是</w>
项 目</w>
机 制</w>
人 口</w>
不 少</w>
给 予</w>
达 到</w>
即 使</w>
兴 建</w>
第 三</w>
程 度</w>
协 议</w>
统 筹</w>
我 谨</w>
当 时</w>
特 区</w>
经 营</w>
七 年</w>
预 算
年 来</w>
正 如</w>
带 来</w>
产 生</w>
成 功</w>
现 行</w>
1 0</w>
预算 案</w>
多 少</w>
请 问</w>
然 而</w>
行 为</w>
人 数</w>
会 见</w>
过 程</w>
保 持</w>
监 管</w>
除 了</w>
本 身</w>
分 别</w>
和 平</w>
援 助</w>
而 言</w>
质 素</w>
代 理</w>
同 样</w>
开 放</w>
充 分</w>
之 前</w>
予 以</w>
公 开</w>
调 整</w>
经 验</w>
训 练</w>
民 主
个 人</w>
提 及</w>
泽 民</w>
江 泽民</w>
法 院</w>
存 在</w>
以 上</w>
方 案</w>
明 白</w>
以 便</w>
独 立</w>
态 度</w>
发 出</w>
如 此</w>
办 法</w>
补 充</w>
详 细</w>
长 远</w>
批 准</w>
宣 布</w>
帮 助</w>
联 合
之 后</w>
评 估</w>
真 正</w>
重 大</w>
表 决</w>
保 证</w>
修 改</w>
事 实</w>
比 较</w>
五 年</w>
推 动</w>
1 2
联 合</w>
拨 款</w>
规 例</w>
修 正</w>
亦 会</w>
巴 士</w>
那 么</w>
儿 童</w>
参 加</w>
注 册</w>
欢 迎</w>
罪 行</w>
有 所</w>
经 常</w>
管 理
大 学</w>
加 以</w>
利 用</w>
承 担</w>
承 诺</w>
反 映</w>
友 好</w>
整 个</w>
立 场</w>
领 导</w>
必 要</w>
总 理</w>
策 略</w>
按 照</w>
经 过</w>
究 竟</w>
说 明</w>
实 行</w>
教 师</w>
某 些</w>
资 格</w>
赞 成</w>
顾 问</w>
一 样</w>
车 辆</w>
不 足</w>
律 师</w>
一 方面</w>
回 答</w>
提 到</w>
尽 快</w>
许 多</w>
相 当</w>
具 体</w>
实 现</w>
1 1
入 境</w>
议 题</w>
拥 有</w>
机 关</w>
世 纪</w>
正 式</w>
广 泛</w>
长 期</w>
负 担</w>
基 于</w>
看 到</w>
百 分
落 实</w>
良 好</w>
怎 样</w>
坚 持</w>
信 心</w>
道 路</w>
部 长</w>
两 岸</w>
计 算</w>
非 法</w>
二 十
现 有</w>
明 显</w>
地 位</w>
产 品</w>
回 应</w>
民主 党</w>
司 长</w>
具 有</w>
将 来</w>
0 年</w>
肯 定</w>
全 部</w>
法 案</w>
持 续</w>
才 能</w>
5 %</w>
声 明</w>
公 布</w>
形 式</w>
我 国</w>
制 定</w>
委 任</w>
配 合</w>
宣 传</w>
思 想</w>
以 下</w>
个 别</w>
照 顾</w>
值 得</w>
污 染</w>
海 外</w>
人 民
绝 对</w>
明 确</w>
重 视</w>
扩 大</w>
失 业</w>
正 确</w>
导 致</w>
所 谓</w>
联合 国</w>
业 主</w>
似 乎</w>
退 休</w>
应 付</w>
之 一</w>
私 营</w>
平 均</w>
合 约</w>
资 讯</w>
事 宜</w>
证 明</w>
统 一</w>
管理 局</w>
引 起</w>
各 种</w>
准 备</w>
发 挥</w>
愿 意</w>
规 则</w>
无 法</w>
打 击</w>
事 情</w>
三 年</w>
并 且</w>
少 年</w>
临 时</w>
第 1
职 位</w>
只 是</w>
而 是</w>
7 年</w>
重 建</w>
代 表
0 %</w>
军 事</w>
9 年</w>
简 单</w>
司 法</w>
员 工</w>
现 正</w>
维 护</w>
病 人</w>
令 人</w>
医 生</w>
谈 判</w>
重 新</w>
8 年</w>
效 率</w>
城 市</w>
中国 政府</w>
学 习</w>
如 下</w>
避 免</w>
社 会
估 计</w>
表 现</w>
功 能</w>
消 费
大 部分</w>
美 元</w>
投 票</w>
青 少年</w>
缺 乏</w>
人 才</w>
适 用</w>
压 力</w>
领 导
事 业</w>
进 入</w>
外 国</w>
中 方</w>
歧 视</w>
批 评</w>
控 制</w>
法 定</w>
最 高</w>
租 金</w>
这 里</w>
设 计</w>
意 外</w>
预 算</w>
生 产
结 构</w>
事 项</w>
政 局</w>
环 保</w>
纪 录</w>
新 界</w>
国 务
只 有</w>
架 构</w>
自 由
案 件</w>
支 援</w>
尤 其</w>
0 万</w>
再 次</w>
出 席</w>
恢 复</w>
战 略</w>
统 计</w>
角 色</w>
价 格</w>
争 取</w>
法 庭</w>
全 国</w>
保 留</w>
消费 者</w>
发 现</w>
准 则</w>
容 许</w>
民 族</w>
积 金</w>
亦 有</w>
越 南</w>
津 贴</w>
大 量</w>
尽 量</w>
然 后</w>
结 束</w>
1 日</w>
一 致</w>
看 法</w>
领 域</w>
物 业</w>
一 切</w>
六 年</w>
上 升</w>
防 止</w>
曾 经</w>
建 筑</w>
正 在</w>
房 委会</w>
上 诉</w>
学 院</w>
供 应</w>
旅 游</w>
认 识</w>
最 终</w>
出 口</w>
例 子</w>
假 如</w>
另 一方面</w>
达 成</w>
保 险</w>
补 偿</w>
违 反</w>
领导 人</w>
意 义</w>
地 政</w>
隧 道</w>
指 引</w>
担 心</w>
卫 生</w>
来 自</w>
亚 洲</w>
1 年</w>
理 解</w>
承 认</w>
资 产</w>
多 数</w>
2 0</w>
不 要</w>
工 资</w>
有 人</w>
输 入</w>
贷 款</w>
期 望</w>
方 向</w>
平 衡</w>
知 识</w>
打 算</w>
高 度</w>
信 息</w>
今 日</w>
出 来</w>
四 年</w>
取 消</w>
公 屋</w>
生 产</w>
1 5
无 须</w>
罗 斯</w>
它 们</w>
赔 偿</w>
俄 罗斯</w>
下 午</w>
职 业</w>
广 播</w>
支 付</w>
一 日</w>
无 论</w>
新 闻</w>
公 民</w>
加 快</w>
否 则</w>
公 约</w>
危 险</w>
公 营</w>
大 陆</w>
若 干</w>
妇 女</w>
干 部</w>
任 务</w>
战 争</w>
社会 主义</w>
还 有</w>
规 模</w>
社 区</w>
专 家</w>
共 识</w>
通 知</w>
接 纳</w>
豁 免</w>
属 于</w>
理 想</w>
另 外</w>
澄 清</w>
资 金</w>
不 单</w>
针 对</w>
199 9年</w>
下 降</w>
监 督</w>
刑 事</w>
什 么</w>
署 长</w>
贡 献</w>
自由 党</w>
容 易</w>
推 广</w>
200 0年</w>
牌 照</w>
尊 重</w>
建 筑
交 流</w>
可 行</w>
因 而</w>
额 外</w>
港 人</w>
通 胀</w>
平 等</w>
年 代</w>
进 展</w>
重 点</w>
稍 后</w>
业 务</w>
用 途</w>
可 是</w>
阶 层</w>
促 请</w>
实 际
注 意</w>
享 有</w>
电 视</w>
交 易</w>
传 统</w>
律 政司</w>
开 发</w>
中 英</w>
实际 上</w>
未 能</w>
会 谈</w>
行 政
繁 荣</w>
罚 款</w>
集 中</w>
既 然</w>
展 开</w>
科 学</w>
复 杂</w>
发 展
登 记</w>
长 者</w>
部 队</w>
确 实</w>
犯 罪</w>
一九九 七年</w>
国 内</w>
表 达</w>
百分 之</w>
民 意</w>
国务 院</w>
预 测</w>
运 用</w>
权 益</w>
空 气</w>
深 入</w>
高 兴</w>
199 7年</w>
居 住</w>
性 质</w>
专 员</w>
状 况</w>
主 权</w>
比 例</w>
只 要</w>
武 器</w>
电 脑</w>
能 否</w>
类 似</w>
李 鹏</w>
报 道</w>
角 度</w>
子 女</w>
小 型</w>
认 真</w>
关 心</w>
从 而</w>
当 前</w>
分 析</w>
全 国
自 然</w>
效 益</w>
完 善</w>
力 量</w>
为 止</w>
这 么</w>
商 界</w>
检 查</w>
废 物</w>
趋 势</w>
附 表</w>
199 8年</w>
短 期</w>
3 0</w>
形 势</w>
更 加</w>
农 业</w>
减 低</w>
定 义</w>
强 烈</w>
禁 止</w>
告 诉</w>
在 于</w>
呼 吁</w>
星 期</w>
不 能</w>
大 会</w>
证 券</w>
旨 在</w>
分 钟</w>
本 会</w>
实 质</w>
订 立</w>
综 合</w>
难 以</w>
选 民</w>
7 月</w>
款 项</w>
现 象</w>
最 低</w>
导 弹</w>
全 委会</w>
定 期</w>
1 6
可 惜</w>
邀 请</w>
普 遍</w>
条 款</w>
1 4
内 部</w>
群 众</w>
价 值</w>
感 谢</w>
签 署</w>
各 国</w>
成 果</w>
协 会</w>
法 官</w>
行政 区</w>
干 预</w>
密 切</w>
外 交
当 中</w>
民 建</w>
人 力</w>
1 3
致 力</w>
外 交</w>
以 往</w>
院 校</w>
西 部</w>
一 九</w>
有 权</w>
欧 洲</w>
模 式</w>
网 络</w>
书 面</w>
的 士</w>
错 误</w>
执 法</w>
优 先</w>
1 8
转 变</w>
创 造</w>
体 系</w>
乘 客</w>
布 什</w>
审 慎</w>
适 应</w>
举 办</w>
挑 战</w>
起 来</w>
预 计</w>
确 定</w>
投 资
公 积金</w>
便 是</w>
介 绍</w>
联 系</w>
购 买</w>
大 多数</w>
小 学</w>
第 四</w>
途 径</w>
3 月</w>
遵 守</w>
互 相</w>
区 域</w>
足 以</w>
学 位</w>
4 月</w>
营 运</w>
淑 怡</w>
担 任</w>
组 别</w>
梁 淑怡</w>
年 龄</w>
九 五年</w>
周 梁淑怡</w>
相 同</w>
上 海</w>
全 球</w>
一 月</w>
船 民</w>
一 下</w>
开 展</w>
表 明</w>
主 任</w>
1 5</w>
小 时</w>
协 调</w>
设 备</w>
香 港
日 后</w>
创 新</w>
从 事</w>
代表 团</w>
吸 引</w>
务 司</w>
风 险</w>
建筑 物</w>
维 修</w>
第 2</w>
组 成</w>
体 制</w>
污 水</w>
第 2
拒 绝</w>
2 年</w>
财 务</w>
迅 速</w>
怀 疑</w>
旅 客</w>
护 理</w>
基 层</w>
教 学</w>
出 售</w>
建 造</w>
越 来
越来 越</w>
理 论</w>
分 配</w>
明 年</w>
庞 大</w>
电 话</w>
显 然</w>
二 年</w>
市 区</w>
祖 国</w>
利 润</w>
申 请
1 2</w>
经 贸</w>
损 失</w>
制 造</w>
地 铁</w>
产 业</w>
联 络</w>
金 额</w>
身 份</w>
青 年</w>
10 月</w>
职 员</w>
大 众</w>
投资 者</w>
旅 游
相 关</w>
收 回</w>
军 队</w>
储 备</w>
满 意</w>
各 个</w>
制 造
政 党</w>
往 往</w>
寻 求</w>
警 务</w>
自 行</w>
较 为</w>
汽 车</w>
跟 进</w>
尽 管</w>
履 行</w>
不 但</w>
6 月</w>
构 成</w>
逐 步</w>
200 1年</w>
不 仅</w>
5 月</w>
通 常</w>
成 效</w>
重 申</w>
竞 争
00 万</w>
政 府
广 大</w>
无 论
加 上</w>
中 文</w>
严 格</w>
1 7
纳 入</w>
加 价</w>
住 户</w>
全 体</w>
斯 坦</w>
政 务司</w>
主 体</w>
八 年</w>
人 们</w>
航 空</w>
先 进</w>
多 次</w>
得 以</w>
食 物</w>
这 次</w>
变 化</w>
接 触</w>
损 害</w>
19 8
正 常</w>
工 具</w>
预 期</w>
政府 部门</w>
时 期</w>
工 作
之 外</w>
过 往</w>
正 是</w>
柱 铭</w>
九 年</w>
李 柱铭</w>
相 互</w>
家 长</w>
削 减</w>
2 0
概 念</w>
每 个</w>
忧 虑</w>
授 权</w>
生 效</w>
诉 讼</w>
看 看</w>
方 便</w>
药 物</w>
七 月</w>
高 级</w>
还 是</w>
立 即</w>
成 就</w>
6 年</w>
人 大</w>
证 据</w>
大 幅</w>
运 动</w>
治 疗</w>
决 策</w>
提 醒</w>
9 月</w>
5 0</w>
不 可</w>
皮 书</w>
共 和
日 期</w>
关 键</w>
旅游 业</w>
议 事</w>
参 考</w>
成 绩</w>
原 来</w>
1 月</w>
危 机</w>
移 民</w>
二 月</w>
反 应</w>
飞 机</w>
以 外</w>
威 胁</w>
电 子</w>
11 月</w>
进 步</w>
政 治
指 定</w>
拉 克</w>
5 年</w>
说 法</w>
持 有</w>
一 旦</w>
顺 利</w>
英 语</w>
优 惠</w>
未 必</w>
至 今</w>
矛 盾</w>
专 责</w>
现 代
废 除</w>
唯 一</w>
直 至</w>
以 后</w>
大 约</w>
种 种</w>
德 国</w>
现代 化</w>
现 实</w>
领 取</w>
始 终</w>
认 可</w>
税 务</w>
朝 鲜</w>
吸 烟</w>
三 十
共 产
试 验</w>
竞争 力</w>
地 点</w>
中 央
收 到</w>
以 前</w>
消 息</w>
噪 音</w>
聘 用</w>
警 察</w>
集 团</w>
普 通</w>
结 论</w>
电 讯</w>
破 坏</w>
征 询</w>
召 开</w>
辅 导</w>
讲 话</w>
消 费</w>
二 十</w>
效 果</w>
电 力</w>
预 防</w>
留 意</w>
来 港</w>
发 言
优 势</w>
大 型</w>
一 向</w>
附 件</w>
难 民</w>
中 学</w>
下 去</w>
言 论</w>
中 华
特 殊</w>
地 产</w>
或 者</w>
本 年</w>
支 出</w>
两 者</w>
体 育</w>
耀 忠</w>
投 入</w>
基 建</w>
有 助</w>
你 们</w>
经 费</w>
实 践</w>
守 则</w>
3 0
提 升</w>
住 宅</w>
服 务
冲 突</w>
观 点</w>
消 除</w>
草 拟</w>
商 讨</w>
外 地</w>
司 机</w>
赋 予</w>
议 席</w>
前 往</w>
今 后</w>
面 临</w>
变 成</w>
空 间</w>
驾 驶</w>
利 于</w>
货 柜</w>
香港 特
征 收</w>
以 致</w>
收 取</w>
提 议</w>
范 畴</w>
六 月</w>
满 足</w>
法 国</w>
数 据</w>
更 为</w>
申请 人</w>
届 时</w>
听 取</w>
不 再</w>
合 法</w>
四 月</w>
人 手</w>
有 利</w>
系 列</w>
推 出</w>
安 置</w>
职 责</w>
限 公司</w>
有 限公司</w>
何 时</w>
必 然</w>
12 月</w>
同 志</w>
紧 急</w>
所 得</w>
办 事
办事 处</w>
常 规</w>
星 期
做 到</w>
失 望</w>
重 复</w>
码 头</w>
设 有</w>
之 下</w>
刘 慧
答 案</w>
刘慧 卿</w>
妥 善</w>
减 轻</w>
联 盟</w>
专 案</w>
1 8</w>
各 界</w>
双 边</w>
回 归</w>
发言 人</w>
外交 部</w>
相 应</w>
经 济
方 针</w>
共 有</w>
集 体</w>
钱 其
推 进</w>
世 界
扩 展</w>
3 年</w>
加 坡</w>
台 独</w>
别 行政区</w>
近 年来</w>
认 同</w>
可 见</w>
应 用</w>
遇 到</w>
聘 请</w>
总 值</w>
广 告</w>
节 目</w>
新 加坡</w>
形 成</w>
降 低</w>
西 藏</w>
年 底</w>
承 建</w>
在 内</w>
金 钱</w>
即 时</w>
及 其</w>
顾 及</w>
适 合</w>
罪 案</w>
时 代</w>
一 起</w>
前 景</w>
2 5
交 换</w>
放 弃</w>
好 处</w>
一九九 一年</w>
赞 同</w>
有 限</w>
处 于</w>
初 步</w>
增 幅</w>
能 源</w>
磋 商</w>
除 非</w>
要 性</w>
欧 盟</w>
意 思</w>
共和 国</w>
说 话</w>
财 经</w>
行 使</w>
界 别</w>
大 力</w>
主 张</w>
第 3</w>
尚 未</w>
税 收</w>
谨 申</w>
言 之</w>
涂 谨申</w>
质 疑</w>
核 心</w>
暂 时</w>
大 厦</w>
增 强</w>
付 出</w>
倘 若</w>
8 月</w>
生产 力</w>
柴 油</w>
切 实</w>
制造 业</w>
决 心</w>
每 月</w>
护 照</w>
手 段</w>
所 提</w>
在 新</w>
农 民</w>
工 会</w>
外 长</w>
巨 大</w>
税 率</w>
父 母</w>
法 治</w>
第 3
比 率</w>
最 佳</w>
事 故</w>
朋 友</w>
具 备</w>
6 0</w>
客 观</w>
伊 拉克</w>
传 媒</w>
之 中</w>
失 业
秩 序</w>
0 亿</w>
香港特 别行政区</w>
故 此</w>
检 基</w>
冯 检基</w>
日 益</w>
少 数</w>
印 度</w>
势 力</w>
官 方</w>
工 务</w>
三 月</w>
评 论</w>
对 话</w>
掌 握</w>
而 非</w>
4 年</w>
大 部</w>
一 贯</w>
年 人</w>
幅 度</w>
来 看</w>
沟 通</w>
停 止</w>
斗 争</w>
主 动</w>
制 性</w>
决 议</w>
否 决</w>
附 属</w>
民 生</w>
职 能</w>
会 晤</w>
人 类</w>
重 要性</w>
用 于</w>
幼 稚
坚 决</w>
进 程</w>
编 制</w>
幼稚 园</w>
后 果</w>
反 而</w>
梁 智
艺 术</w>
梁智 鸿</w>
分 子</w>
离 开</w>
2 3
审 查</w>
各 地</w>
详 情</w>
证 实</w>
接 近</w>
测 试</w>
看 来</w>
常 委会</w>
十 月</w>
上 午</w>
清 晰</w>
布 政司</w>
贯 彻</w>
英 文</w>
等 于</w>
伙 伴</w>
2 4
2 月</w>
i i</w>
199 6年</w>
选 人</w>
钱其 琛</w>
分 裂</w>
共产 党</w>
昨 天</w>
引 入</w>
工 厂</w>
记 得</w>
水 准</w>
数 量</w>
拟 议</w>
装 备</w>
路 线</w>
视 为</w>
有 利于</w>
过 渡</w>
终 审</w>
公 园</w>
意 识</w>
多 谢</w>
兴 趣</w>
彻 底</w>
取 代</w>
强 制性</w>
2 7
退 休
退休 金</w>
澳 门</w>
宪 制</w>
候 选人</w>
也 许</w>
利 亚</w>
界 定</w>
听 到</w>
纪 律</w>
书 记</w>
6 日</w>
各 级</w>
合 并</w>
大 大</w>
西 方</w>
违 例</w>
指 导</w>
雇 佣</w>
不 论</w>
观 念</w>
为 期</w>
李 永
最 新</w>
中 小型</w>
的 确</w>
指 标</w>
必 定</w>
探 讨</w>
秘 书
外 汇</w>
疑 问</w>
其 次</w>
信 任</w>
近 期</w>
下 列</w>
李永 达</w>
遗 憾</w>
议 程</w>
类 别</w>
使 用
排 放</w>
失 去</w>
8 日</w>
死 亡</w>
于 是</w>
一 行</w>
撤 销</w>
赤 字</w>
农 村</w>
协 定</w>
地 盘</w>
速 度</w>
此 举</w>
无 疑</w>
9 日</w>
2 1</w>
港 口</w>
每 天</w>
来 源</w>
交 易
增 至</w>
左 右</w>
生产 总值</w>
培 养</w>
极 为</w>
市 场
动 力</w>
公 正</w>
当 地</w>
别 人</w>
九 七年</w>
深 信</w>
好 像</w>
演 辞</w>
国 会</w>
或 许</w>
发展 商</w>
田 北
利 率</w>
谢 谢</w>
刘 健
刘健 仪</w>
的 话</w>
田北 俊</w>
一九九 四年</w>
渠 道</w>
十 五</w>
亦 应</w>
失业 率</w>
免 税</w>
更 改</w>
股 票</w>
紧 密</w>
收 集</w>
总 署</w>
一九九 二年</w>
而 已</w>
资 本</w>
劳 动</w>
总 额</w>
国 防
短 缺</w>
警 告</w>
第 1</w>
高 等
团 结</w>
公 路</w>
延 长</w>
一九九 三年</w>
出 任</w>
开 办</w>
恐 怕</w>
应 当</w>
发 放</w>
指 示</w>
依 法</w>
步 伐</w>
市 政</w>
全 港</w>
1 1</w>
近 年</w>
应 有</w>
李 卓
李卓 人</w>
以 至</w>
秘 书</w>
2 2
公 署</w>
违 法</w>
即 将</w>
冻 结</w>
裁 决</w>
. 5%</w>
此 事</w>
不 得</w>
透 明
前 提</w>
税 制</w>
邪 教</w>
劳 资</w>
五 月</w>
一九八 六年</w>
透明 度</w>
破 产</w>
体 现</w>
生 命</w>
各 类</w>
4 0</w>
联 网</w>
相 对</w>
不 多</w>
缴 付</w>
命 令</w>
宗 教</w>
国 有</w>
哪 些</w>
为 此</w>
国 两
国两 制</w>
一 国两制</w>
法 团</w>
依 照</w>
之 内</w>
背 景</w>
进 口</w>
国 民</w>
引 进</w>
上 市</w>
交 代</w>
职 务</w>
林 顿</w>
假 设</w>
提 问</w>
第 二十
只 能</w>
黄 宏
黄宏 发</w>
对 外</w>
相 反</w>
海 关</w>
条 约</w>
刑 罚</w>
谈 谈</w>
放 宽</w>
面 积</w>
巩 固</w>
暴 力</w>
尝 试</w>
九 龙</w>
婉 娴</w>
陈 婉娴</w>
地 下</w>
前 途</w>
队 伍</w>
办 公
上 限</w>
语 文</w>
待 遇</w>
公 安</w>
自 动</w>
对 付</w>
公 会</w>
不 可
民 政</w>
工 商界</w>
国 防</w>
白 皮书</w>
忘 记</w>
克 林顿</w>
纳 税
纳税 人</w>
论 点</w>
申 诉</w>
差 不多</w>
首 长</w>
华 明</w>
发 觉</w>
原 有</w>
此 次</w>
李 华明</w>
时 间
下 来</w>
指 数</w>
合 适</w>
199 5年</w>
10 0</w>
不 知</w>
安 老</w>
国 民
动 用</w>
以 为</w>
签 证</w>
杨 孝
附 近</w>
杨孝 华</w>
第 4</w>
梁 耀忠</w>
专 利</w>
大 使</w>
医 护</w>
完 整</w>
俊 仁</w>
委员 长</w>
处 处</w>
删 除</w>
高等 教育</w>
道 德</w>
耀 宗</w>
浪 费</w>
恰 当</w>
证 监
证监 会</w>
决 议案</w>
作 战</w>
该 项</w>
对 象</w>
结 合</w>
大 致</w>
物 品</w>
情 形</w>
先 后</w>
何 俊仁</w>
楼 价</w>
审 批</w>
千 石</w>
刘 千石</w>
改 进</w>
存 款</w>
谭 耀宗</w>
不 满</w>
真 的</w>
防 御</w>
层 面</w>
夏 佳
夏佳 理</w>
助 于</w>
1 .
此 间</w>
买 卖</w>
有 意</w>
200 0</w>
报 章</w>
时间 表</w>
高 层</w>
说 是</w>
第 五</w>
3 %</w>
人 大
透 露</w>
主 导</w>
第 4
明 书</w>
找 到</w>
访 华</w>
直 选</w>
分 歧</w>
逐 渐</w>
名 单</w>
小 心</w>
特 色</w>
周 年</w>
手 法</w>
假 期</w>
发展 中
发展中 国家</w>
董 事
残 疾</w>
医 药</w>
部 署</w>
廉 政</w>
局 面</w>
名 义</w>
电 影</w>
节 省</w>
一九八 八年</w>
镕 基</w>
朱 镕基</w>
还 要</w>
务 局</w>
私 家</w>
期 货</w>
职 工</w>
策 划</w>
服务 业</w>
何 人</w>
文 明</w>
意 愿</w>
争 议</w>
贸 易
早 日</w>
遣 返</w>
关 乎</w>
货 物</w>
联 会</w>
施 行</w>
工 商
审 核</w>
只 不过</w>
理 会</w>
中 共</w>
斜 坡</w>
8 %</w>
非 洲</w>
义 务</w>
一九九 六年</w>
领 土</w>
执 业</w>
宝 贵</w>
截 至</w>
全 力</w>
船 只</w>
总 数</w>
依 据</w>
工 程
人 家</w>
生 态</w>
自 杀</w>
恶 化</w>
管 治</w>
财 产</w>
市场 经济</w>
抑 或</w>
判 断</w>
抵 达</w>
票 价</w>
不 良</w>
殖 民
200 2年</w>
课 题</w>
解 放
女 性</w>
工作 者</w>
九 月</w>
时 限</w>
尼 亚</w>
1 4</w>
裁 处</w>
过 于</w>
须 要</w>
免 费</w>
披 露</w>
发 行</w>
全 民</w>
中 期</w>
招 聘</w>
无论 是</w>
护 士</w>
按 揭</w>
货 币</w>
现 阶段</w>
深 圳</w>
行 性</w>
同 盟</w>
现 代</w>
6 %</w>
登 辉</w>
设 法</w>
差 距</w>
张 文
装 置</w>
经 营
2 %</w>
该 署</w>
治 安</w>
办公 室</w>
友 谊</w>
李 登辉</w>
争 论</w>
石 油</w>
任 何人</w>
灵 活</w>
2 4</w>
永 远</w>
侵 犯</w>
增 值</w>
列 入</w>
全 球
亦 可</w>
收 益</w>
自 愿</w>
换 言之</w>
一 般
1 6</w>
陈 水
九 七</w>
辅 助</w>
健 全</w>
张文 光</w>
学 术</w>
限 额</w>
负 责
申 报</w>
专 门</w>
韩 国</w>
陈水 扁</w>
可 行性</w>
十 一月</w>
受 惠</w>
交易 所</w>
论 据</w>
绝 不</w>
有 助于</w>
质 量</w>
行 人</w>
雇 用</w>
身 上</w>
对 待</w>
疾 病</w>
主 题</w>
殖民 地</w>
令 人
语 言</w>
九 五</w>
弹 性</w>
进 度</w>
杨 森</w>
增 长
一 半</w>
1 %</w>
会 员</w>
贫 穷</w>
引 用</w>
基本 上</w>
款 额</w>
转 型</w>
纽 约</w>
商 会</w>
知 悉</w>
加 费</w>
学 童</w>
以 免</w>
经 历</w>
忽 视</w>
赞 赏</w>
数 额</w>
场 所</w>
零 年</w>
答 辩</w>
一九八 九年</w>
电 台</w>
期 限</w>
签 发</w>
十 二月</w>
不 幸</w>
美 方</w>
贪 污</w>
屋 宇</w>
对 抗</w>
落 成</w>
证 明书</w>
总 结</w>
检 验</w>
近 日</w>
受 害
贸 组织</w>
世 贸组织</w>
医 务</w>
极 大</w>
安 定</w>
发 给</w>
加 拿
内 务</w>
随 着</w>
尽 早</w>
加拿 大</w>
准 确</w>
低 于</w>
突 出</w>
客 户</w>
想 法</w>
休 会</w>
忽 略</w>
例 来说</w>
举 例来说</w>
细 节</w>
素 质</w>
本 来</w>
热 烈</w>
再 者</w>
讨 会</w>
自 从</w>
声 音</w>
准 许</w>
游 客</w>
生 意</w>
冲 击</w>
仔 细</w>
基 地</w>
专 营</w>
4 %</w>
革 命</w>
障 碍</w>
扮 演</w>
代 价</w>
安 装</w>
媒 体</w>
增长 率</w>
设 置</w>
港 元</w>
5 00</w>
确 认</w>
不 利</w>
中国 共产党</w>
1 3</w>
演 习</w>
毫 无</w>
北 约</w>
依 然</w>
宪 法</w>
无论 如何</w>
担 当</w>
单 仲
老 人家</w>
患 者</w>
单仲 偕</w>
199 4年</w>
否 认</w>
指 明</w>
危 害</w>
位 置</w>
第 5</w>
考 试</w>
层 次</w>
法 轮</w>
道 理</w>
日 子</w>
陆 恭
阁 下</w>
联 邦</w>
复 苏</w>
陆恭 蕙</w>
开 设</w>
麦 理
江 华</w>
促 使</w>
负责 人</w>
助 理</w>
马 克
学 者</w>
亦 曾</w>
永 久</w>
机 遇</w>
人民 共和国</w>
乐 意</w>
政 务</w>
依 赖</w>
分 类</w>
中华 人民共和国</w>
融 资</w>
游 行</w>
弃 权</w>
不 久</w>
7 %</w>
年 初</w>
2 5</w>
评 价</w>
在 职</w>
建 设
国 籍</w>
原 本</w>
华 盛
增 设</w>
10 %</w>
激 烈</w>
各 自</w>
转 移</w>
腐 败</w>
论 坛</w>
字 眼</w>
外 资</w>
限 度</w>
康 复</w>
一九 七
研 讨会</w>
李 家
喜 欢</w>
华盛 顿</w>
伟 大</w>
评 审</w>
有 力</w>
0 .
紧 张</w>
该 局</w>
能 性</w>
诚 意</w>
补 救</w>
充 满</w>
暂 停</w>
经营 者</w>
日 常</w>
客 人</w>
早 已</w>
物 质</w>
正 视</w>
可 能性</w>
东 西</w>
采 纳</w>
心 理</w>
以 色
必 需</w>
以色 列</w>
美 军</w>
人大 常委会</w>
监 禁</w>
从 来</w>
麦理 觉</w>
深 刻</w>
一九八 七年</w>
构 思</w>
全国 人大常委会</w>
位 于</w>
操 作</w>
工 业
衡 量</w>
拖 延</w>
各 方</w>
食 品</w>
毕 业
受 伤</w>
毕业 生</w>
商 品</w>
入 境
入境 者</w>
首 脑</w>
启 用</w>
利 息</w>
快 速</w>
难 道</w>
泰 国</w>
晚 上</w>
步 骤</w>
九 铁</w>
互 联网</w>
阶 级</w>
局 势</w>
叶 锡
轻 微</w>
许 可
许可 证</w>
日 前</w>
全球 化</w>
签 订</w>
一 百
据 悉</w>
教 授</w>
手 续</w>
非 政府</w>
海 军</w>
或 是</w>
文 章</w>
一 代</w>
技 能</w>
她 们</w>
遭 受</w>
加 大</w>
首 要</w>
证 人</w>
标 志</w>
规 范</w>
用 作</w>
选 区</w>
政 协</w>
尽 力</w>
民 间</w>
攻 击</w>
建 华</w>
代 理
性 别</w>
交 往</w>
主 持</w>
此 同时</w>
李家 祥</w>
与 此同时</w>
相 比</w>
办 理</w>
课 税</w>
见 到</w>
供 应
伤 残</w>
高 达</w>
技 术
列 出</w>
薪 金</w>
形 象</w>
合 乎</w>
同 胞</w>
丰 富</w>
谈 论</w>
所 在</w>
建设 性</w>
无 意</w>
同 期</w>
中 东</w>
牵 涉</w>
切 合</w>
及 时</w>
董 建华</w>
协 商</w>
间 接</w>
至 少</w>
全国 人大</w>
成 长</w>
预 料</w>
谈 及</w>
详 尽</w>
租 户</w>
分 开</w>
酒 店</w>
得 益</w>
解放 军</w>
终 止</w>
环 节</w>
移 交</w>
烟 草</w>
集 会</w>
膨 胀</w>
当 天</w>
失 败</w>
民 协</w>
消 防</w>
声 称</w>
名 称</w>
阿 拉
电 厂</w>
国 际
全 世界</w>
倾 向</w>
- 0
纯 粹</w>
身 体</w>
居 留
困 境</w>
几 乎</w>
企 图</w>
刺 激</w>
众 多</w>
此 机会</w>
借 此机会</w>
举 报</w>
马克 思
回 复</w>
邻 近</w>
居留 权</w>
谴 责</w>
工 商业</w>
职 权</w>
月 份</w>
卫 星</w>
中 医药</w>
过 境</w>
报 导</w>
叶 国
199 3年</w>
确 立</w>
流 动</w>
汇 报</w>
加 速</w>
行 事</w>
为 主</w>
误 解</w>
m d</w>
1 7</w>
繁 忙</w>
公 用
任 命</w>
致 光</w>
罗 致光</w>
标 签</w>
削 弱</w>
公用 事业</w>
二 零
保 密</w>
强 积金</w>
在 座</w>
司 徒
当 选</w>
司徒 华</w>
连 续</w>
边 境</w>
油 气</w>
丧 失</w>
软 件</w>
记 录</w>
舆 论</w>
惩 罚</w>
效 力</w>
锦 涛</w>
胡 锦涛</w>
叶国 谦</w>
2 .
粮 食</w>
时 刻</w>
承 办</w>
199 2年</w>
水 质</w>
研 究
财 富</w>
志 愿</w>
力 度</w>
马克思 主义</w>
风 暴</w>
刘 江华</w>
东 省</w>
郑 家
过 渡
看 见</w>
郑家 富</w>
自 我</w>
第 8</w>
走 私</w>
纠 纷</w>
深 化</w>
次 序</w>
用 户</w>
落 后</w>
由 此
当 年</w>
强 大</w>
一九八 五年</w>
9 %</w>
八 十</w>
配 额</w>
通 道</w>
广 东</w>
依 靠</w>
被 迫</w>
第 十
i n
8 0</w>
缩 短</w>
循 环</w>
刊 登</w>
制 裁</w>
简 化</w>
00 0万</w>
比 赛</w>
来 访</w>
列 为</w>
昂 贵</w>
保 险
老 年</w>
回 收</w>
科 学
登 记
电 视
赌 博</w>
货 车</w>
涵 盖</w>
正 面</w>
首 席</w>
利 得</w>
初 期</w>
列 明</w>
若 然</w>
有 着</w>
星期 三</w>
印 象</w>
澳 洲</w>
敏 感</w>
彭 定
康 乐</w>
分 区</w>
询 问</w>
终 于</w>
毒 品</w>
等 候</w>
石 油气</w>
汇 率</w>
强 制</w>
两 地</w>
适 宜</w>
彭定 康</w>
名 额</w>
低 收入</w>
过 分</w>
15 日</w>
10 日</w>
版 权</w>
代表 性</w>
下 跌</w>
随 时</w>
空 缺</w>
教 训</w>
奉 行</w>
入 口</w>
愿 望</w>
选 出</w>
竟 然</w>
宿 舍</w>
走 向</w>
自 治</w>
会 堂</w>
产 权</w>
伦 敦</w>
胀 率</w>
固 定</w>
2 00</w>
参 观</w>
不 时</w>
观 察</w>
董 事</w>
招 待
返 回</w>
身 份
身份 证</w>
优 秀</w>
第 6</w>
公 里</w>
秘书 长</w>
燃 料</w>
出 版</w>
通 讯</w>
他 人</w>
30 日</w>
漏 洞</w>
况 且</w>
投 标</w>
首 相</w>
薪 俸</w>
划 分</w>
罪 犯</w>
汽 油</w>
民 选</w>
常 务</w>
停 车
借 口</w>
伟 业</w>
货 运</w>
感 受</w>
急 症</w>
小 巴</w>
定 罪</w>
例 外</w>
二零 零
社 工</w>
定 额</w>
裁 判</w>
潜 力</w>
行 车</w>
成 熟</w>
感 觉</w>
情 绪</w>
市 镇</w>
招待 会</w>
延 续</w>
广 东省</w>
议 院</w>
八 日</w>
解 雇</w>
有 时</w>
14 日</w>
高 于</w>
距 离</w>
第 5
工 商</w>
中 医</w>
身 分</w>
总 书记</w>
大 规模</w>
多 种</w>
承 受</w>
学 会</w>
做 好</w>
恐 怖</w>
通 货
国防 部长</w>
后 来</w>
6 5</w>
5 亿</w>
最 初</w>
信 贷</w>
超 越</w>
触 犯</w>
学 员</w>
回 报</w>
推 荐</w>
技术 性</w>
背 后</w>
等 待</w>
同 一</w>
三 分</w>
锺 泰</w>
游 说</w>
气 体</w>
民 众</w>
半 岛</w>
何 锺泰</w>
人 选</w>
措 辞</w>
公 告</w>
燃 油</w>
幼 儿</w>
业 权</w>
沉 重</w>
增 进</w>
中央 政府</w>
仪 式</w>
连 接</w>
由此 可见</w>
用 地</w>
外 籍</w>
何 种</w>
成 议</w>
- 9
收 支</w>
亲 切</w>
法 制</w>
三 合
视 察</w>
蔡 素
蔡素 玉</w>
特 定</w>
改 造</w>
既 定</w>
彼 此</w>
半 年</w>
坚 定</w>
不 得
邓 小
海 峡</w>
唐 家
18 日</w>
金 融
售 卖</w>
唐家 璇</w>
处 长</w>
党 员</w>
发 送</w>
享 受</w>
特 点</w>
普 通
一 方</w>
进 修</w>
累 积</w>
允 许</w>
敏 嘉</w>
印 花
何 敏嘉</w>
竞 选</w>
未 经</w>
17 日</w>
施 加</w>
出 租</w>
保 养</w>
乡 村</w>
2 6日</w>
199 1年</w>
阐 述</w>
税 款</w>
建 成</w>
少 于</w>
印花 税</w>
恶 劣</w>
前 进</w>
16 日</w>
欠 缺</w>
20 日</w>
邓 兆
家 人</w>
病 床</w>
新 闻
否 定</w>
不 到</w>
科 研</w>
那 样</w>
邓兆 棠</w>
负 面</w>
补 助</w>
致 谢</w>
第 7</w>
滋 病</w>
引 述</w>
经 理</w>
器 官</w>
赚 取</w>
裁 定</w>
突 然</w>
大 国</w>
高 龄</w>
承 天</w>
何 承天</w>
自 治
绿 皮书</w>
治 理</w>
实 力</w>
诊 所</w>
13 日</w>
大 概</w>
南 非</w>
e n
民 事</w>
严 厉</w>
通 知
提 名</w>
工 夫</w>
n md</w>
指 挥</w>
属 下</w>
剥 夺</w>
专 科</w>
1 9</w>
五 日</w>
转 达</w>
海 底</w>
李 岚
李岚 清</w>
六 日</w>
出 入境</w>
o n
自 主</w>
五 十</w>
学 士</w>
标 题</w>
入 住</w>
通知 书</w>
建 交</w>
八 月</w>
会 同</w>
企 业
以 期</w>
法 规</w>
多 年</w>
七 日</w>
23 日</w>
限 于</w>
筹 备</w>
菲 律
医 学</w>
九 日</w>
2 0%</w>
社 团</w>
困 扰</w>
明 天</w>
教 育
学 费</w>
2 1日</w>
纠 正</w>
菲律 宾</w>
动 员</w>
国 家
e r
垃 圾</w>
元 化</w>
使用 者</w>
借 以</w>
使 馆</w>
总 体</w>
政 制
政制 事
政制事 务局</w>
优 良</w>
获 准</w>
延 误</w>
培 忠</w>
传 播</w>
三合 会</w>
詹 培忠</w>
24 日</w>
会 计</w>
任 期</w>
中 共
离 境</w>
呈 交</w>
3 日</w>
误 导</w>
第二十 三</w>
物 料</w>
成 分</w>
双 重</w>
百分 比</w>
查 询</w>
其 后</w>
12 日</w>
九 十</w>
反 对
伟 贤</w>
3 1日</w>
有 待</w>
判 决</w>
警 监</w>
普 京</w>
董事 局</w>
收 容</w>
中华 民族</w>
7 日</w>
鼓 舞</w>
深 远</w>
死 刑</w>
多 元化</w>
引 发</w>
乐 观</w>
2 8日</w>
货 品</w>
突 破</w>
普通 话</w>
对 外
公 职</w>
t o</w>
11 日</w>
生 存</w>
尊 严</w>
自 身</w>
制 作</w>
做 出</w>
撤 回</w>
办 事</w>
开 拓</w>
出 发</w>
海 港</w>
政 权</w>
广 阔</w>
抗 议</w>
寻 找</w>
商 人</w>
向 前</w>
议 长</w>
计 师</w>
中 小</w>
应 变</w>
参 阅</w>
5 日</w>
逻 辑</w>
疑 虑</w>
展 览</w>
2 9日</w>
熟 悉</w>
叶锡 恩</w>
判 处</w>
随 后</w>
销 售</w>
追 求</w>
校 长</w>
士 气</w>
w to</w>
通 胀率</w>
衷 心</w>
算 是</w>
胜 利</w>
美 好</w>
抵 触</w>
宣 言</w>
22 日</w>
圆 满</w>
五 十
一 宗</w>
奋 斗</w>
1 000</w>
迫 切</w>
称 为</w>
流 失</w>
可 靠</w>
及 早</w>
数 码</w>
捐 赠</w>
很 快</w>
公 顷</w>
信 托</w>
类 型</w>
刚 刚</w>
将 军</w>
作 风</w>
阻 止</w>
银 行业</w>
筹 委会</w>
场 合</w>
3 00</w>
黄 震
黄震 遐</w>
过渡 期</w>
00 亿</w>
谈 话</w>
财 团</w>
训 练
征 税</w>
工程 师</w>
t i
内 外</w>
代 替</w>
海 洋</w>
杜 叶锡恩</w>
文 本</w>
搜 集</w>
委 托</w>
中 华</w>
不 安</w>
重 组</w>
情 报</w>
尽 可能</w>
互 利</w>
许 可</w>
务 求</w>
预 留</w>
奇 怪</w>
四 日</w>
到 底</w>
采 访</w>
把 握</w>
工 联会</w>
保 存</w>
5 万</w>
迟 浩
迟浩 田</w>
警 员</w>
理 事
信 念</w>
伤 害</w>
1 5%</w>
物 流</w>
宗 旨</w>
作 业</w>
谨 慎</w>
远 远</w>
话 说</w>
表 面</w>
爱 滋病</w>
零 售
酌 情</w>
进 出口</w>
期 待</w>
销 售
巴 勒
于 本年</w>
贸易 组织</w>
特 权</w>
海 上</w>
带 动</w>
大 会堂</w>
公 报</w>
克 服</w>
元 朗</w>
主 办</w>
世界 贸易组织</w>
与 否</w>
19 日</w>
补 贴</w>
清 洁</w>
数 十</w>
场 地</w>
不 起</w>
领 袖</w>
试 图</w>
考 察</w>
夫 人</w>
备 受</w>
我 军</w>
黄 伟贤</w>
鉴 于</w>
通货 膨胀</w>
首 都</w>
执 政</w>
往 来</w>
妨 碍</w>
党 派</w>
一 再</w>
招 标</w>
限 期</w>
门 诊</w>
伤 亡</w>
旅 行</w>
南 亚</w>
25 日</w>
日 趋</w>
巴勒 斯坦</w>
保 护
佣 工</w>
三 十</w>
10 万</w>
贫 困</w>
外 来</w>
优 质</w>
代理 商</w>
百 万</w>
气 氛</w>
母 语</w>
定 居</w>
学 历</w>
娱 乐</w>
西 北</w>
经济 效益</w>
精 简</w>
第 9</w>
当 作</w>
务 实</w>
鹏 飞</w>
超 出</w>
公 立</w>
27 日</w>
波 兰</w>
总 部</w>
文 康</w>
人 次</w>
违 背</w>
考 验</w>
理 性</w>
本 月</w>
停车 场</w>
主 管</w>
莫 斯
空 置</w>
处 分</w>
3 .
拓 展</w>
大 法官</w>
预 先</w>
病 毒</w>
北 部</w>
7 0</w>
空 军</w>
习 惯</w>
材 料</w>
换 句
换句 话说</w>
某 种</w>
本 席</w>
19 7
股 市</w>
等 等</w>
飞 行</w>
运 会</w>
辞 职</w>
电视 台</w>
牺 牲</w>
固 然</w>
仲 裁</w>
强 化</w>
华 人</w>
郊 野</w>
精 神
巴 基
人 事</w>
4 日</w>
颇 为</w>
周 知</w>
青 年人</w>
人 人</w>
谈 会</w>
本 质</w>
莫斯 科</w>
潜 在</w>
探 索</w>
所 周知</w>
巴基 斯坦</w>
党 委</w>
众 所周知</w>
接 税</w>
担 忧</w>
2 日</w>
状 态</w>
比 亚</w>
迹 象</w>
秘书 处</w>
不 宜</w>
种 族</w>
必 将</w>
煤 气</w>
安 理会</w>
夹 心</w>
发 布</w>
配 套</w>
名 下</w>
债 务</w>
会 计师</w>
资 本
虐 待</w>
七 十</w>
核 电厂</w>
干 涉</w>
大 利</w>
培 育</w>
加 重</w>
释 义</w>
蓬 勃</w>
供 求</w>
正 好</w>
招 牌</w>
所 属</w>
我 会</w>
加 深</w>
消 防
审 理</w>
单 身</w>
人民 大会堂</w>
股 东</w>
获 取</w>
次 数</w>
引 力</w>
国民 经济</w>
人民 币</w>
无 关</w>
三 日</w>
4 00</w>
林 钜</w>
李 鹏飞</w>
展 示</w>
不 容
有 的</w>
二 日</w>
一般 来说</w>
车 主</w>
吸 引力</w>
杨 耀忠</w>
总 括</w>
供应 商</w>
爆 炸</w>
弱 智</w>
员 国</w>
传 阅</w>
意 大利</w>
巡 查</w>
遭 到</w>
民 航</w>
对 手</w>
大 多</w>
发 射</w>
代表 大会</w>
严 峻</w>
屿 山</w>
大 楼</w>
大 屿山</w>
原 意</w>
介 入</w>
西 亚</w>
结 算</w>
第 六</w>
受害 人</w>
南 海</w>
开 幕</w>
单 亲</w>
意 味</w>
年 报</w>
独 特</w>
港 岛</w>
国 主义</w>
养 费</w>
三十 日</w>
一九九 零年</w>
废 气</w>
5 0%</w>
报 率</w>
回 报率</w>
试 问</w>
审 讯</w>
来 愈</w>
愈 来愈</w>
a n
基 金
现 场</w>
先 行</w>
从 未</w>
200 3年</w>
黑 社会</w>
延 迟</w>
内 政</w>
借 贷</w>
心 态</w>
颁 布</w>
游 戏</w>
意 图</w>
原 先</w>
毫 无
明 智</w>
婚 姻</w>
国民 党</w>
示 威</w>
平 稳</w>
安 全
分 享</w>
4 .
思 考</w>
当 事
题 目</w>
问 候</w>
车 站</w>
祝 贺</w>
理 应</w>
日 制</w>
全 日制</w>
调 节</w>
李 洪
军 委</w>
储 蓄</w>
零 售</w>
赡 养费</w>
侵 略</w>
不 用</w>
a r
起 诉</w>
不 致</w>
方 米</w>
后 者</w>
公 道</w>
亚 太
组 合</w>
第 10</w>
基 因</w>
阻 碍</w>
中 港</w>
2 6
家 属</w>
训练 局</w>
普 及</w>
宏 观</w>
强 迫</w>
保险 业</w>
会 上</w>
再 度</w>
克 斯坦</w>
一九 九</w>
199 0年</w>
盈 利</w>
朱 幼
地 价</w>
9 0</w>
1 亿</w>
调 配</w>
李洪 志</w>
克 兰</w>
秀 兰</w>
渔 业</w>
水 域</w>
当事 人</w>
富 裕</w>
被 告</w>
朱幼 麟</w>
何 秀兰</w>
陈 荣
李 国
分 为</w>
会 期</w>
陈荣 灿</w>
统 治</w>
现 金</w>
年 轻</w>
债 券</w>
成 利</w>
廖 成利</w>
不 必要</w>
充 足</w>
黄 匡
黄匡 源</w>
香 烟</w>
大 选</w>
i ii</w>
脱 离</w>
东 盟</w>
上 星期</w>
疏 忽</w>
消防 处</w>
本 土</w>
战 斗
巴 西</w>
制 衡</w>
稳 健</w>
每 日</w>
日 渐</w>
干 扰</w>
半 数</w>
纷 纷</w>
渐 进</w>
清 盘</w>
排 除</w>
立 案</w>
渔 民</w>
极 端</w>
局 内</w>
o r
打 工
届 满</w>
聆 听</w>
生 物</w>
渡 轮</w>
动 物</w>
2 2</w>
难 免</w>
理 念</w>
打工 仔</w>
3 0%</w>
达 国家</w>
留 下</w>
发 达国家</w>
付 款</w>
中国 人民
西 兰</w>
求 是</w>
普 选</w>
孩 子</w>
回 顾</w>
倒 退</w>
旅 行
对 不起</w>
拟 订</w>
开 会</w>
四 十
吴 亮</w>
千 万</w>
会 议
一九八 四年</w>
明 朗</w>
定 性</w>
第 三
毕 竟</w>
讯 息</w>
汲 取</w>
巡 逻</w>
不 便</w>
活 性</w>
慎 重</w>
夫 妇</w>
5 000</w>
斯 拉
忘 录</w>
备 忘录</w>
之 际</w>
民 进</w>
工业 界</w>
大 纲</w>
法 援</w>
化 学</w>
内 人士</w>
业 内人士</w>
那 里</w>
见 解</w>
欣 赏</w>
有 所
人民 政府</w>
老 化</w>
灵 活性</w>
政 工</w>
长 期
说 服</w>
排 污</w>
商 议</w>
路 向</w>
参 选</w>
排 污
座 谈会</w>
遏 止</w>
排污 费</w>
工商 局</w>
三 通</w>
2 6</w>
衰 退</w>
关 怀</w>
为 什么</w>
种 类</w>
局 限</w>
谋 求</w>
毫无 疑问</w>
此 类</w>
可 谓</w>
葡 萄
简 短</w>
分 布</w>
贤 发</w>
许 贤发</w>
普 罗</w>
回 避</w>
自治 区</w>
武 力</w>
市 长</w>
党 中央</w>
亚太 地区</w>
抓 好</w>
印 尼</w>
约 束</w>
样 本</w>
官 兵</w>
分 组</w>
选 票</w>
缴 纳</w>
青 人</w>
科 目</w>
焦 点</w>
年 青人</w>
除 此
引 导</w>
深 切</w>
广 州</w>
口 头</w>
变 动</w>
高 昂</w>
新 增</w>
性 恋</w>
同 性恋</w>
连 串</w>
罗 湖</w>
一 连串</w>
活 力</w>
工商 司</w>
保 守</w>
付 诸</w>
销售 税</w>
施 工</w>
迎 接</w>
花 费</w>
害 怕</w>
时 机</w>
形 容</w>
衔 接</w>
总 裁</w>
刘 汉
毒 药</w>
惠 国</w>
刘汉 铨</w>
2 7</w>
现 今</w>
势 头</w>
面 前</w>
纲 领</w>
外 商</w>
乌 克兰</w>
更 换</w>
5 0万</w>
顾 客</w>
离 婚</w>
技 巧</w>
悬 殊</w>
珠 江</w>
支 柱</w>
成 员国</w>
今 晚</w>
之 上</w>
中 小
一 时</w>
责 任
教 科
指 控</w>
得 知</w>
5 .
高 等</w>
记 名</w>
置 业</w>
南 斯拉
驻 华</w>
览 会</w>
急 剧</w>
床 位</w>
同 情</w>
古 巴</w>
入 世</w>
表 格</w>
纪 念</w>
见 书</w>
意 见书</w>
实 事
实事 求是</w>
规 程</w>
最 惠国</w>
转 为</w>
西 班
绝 大部分</w>
4 亿</w>
1 万</w>
老 年人</w>
包 含</w>
出 生</w>
高 官</w>
管 辖
极 其</w>
a l
资本 主义</w>
同 类</w>
减 税</w>
富 有</w>
启 德</w>
发 达</w>
路 面</w>
网 站</w>
流 量</w>
会 面</w>
思 维</w>
东 南亚</w>
不 错</w>
冷 战</w>
肩 负</w>
提 案</w>
保 育</w>
谅 解</w>
药 剂</w>
事 先</w>
西班 牙</w>
投 票
得 出</w>
关 闭</w>
该 会</w>
论 是</w>
网 上</w>
分 割</w>
中 药</w>
不 论是</w>
须 向</w>
迈 向</w>
差 异</w>
境 内</w>
蒙 受</w>
毕 业</w>
商 务</w>
再 造</w>
上 台</w>
理 财</w>
清 理</w>
三 角
裁 员</w>
职 级</w>
庆 祝</w>
媒 介</w>
受 损</w>
3 亿</w>
载 有</w>
老 师</w>
拘 捕</w>
工作 量</w>
优 点</w>
高 企</w>
阐 释</w>
配 偶</w>
政治 权利</w>
处 所</w>
伊 朗</w>
机 密</w>
该 区</w>
诊 疗
诊疗 所</w>
规 律</w>
虚 假</w>
痛 苦</w>
中央 军委</w>
一 一</w>
香港 特区</w>
陈 述</w>
议 政</w>
租 约</w>
六 十</w>
潮 流</w>
反对 票</w>
会议 厅</w>
转 让</w>
解 放</w>
永 久
永久 性</w>
接 收</w>
房 协</w>
干 线</w>
三角 洲</w>
1 00万</w>
边 界</w>
朱 基</w>
新 西兰</w>
多 久</w>
不 管</w>
2 8
每 次</w>
可 取</w>
讲 述</w>
股 份</w>
懂 得</w>
外交 部长</w>
感 染</w>
字 句</w>
国 外</w>
和 谐</w>
七 成</w>
6 亿</w>
程 介
2 亿</w>
邮 政</w>
研 制</w>
绝 大多数</w>
程介 南</w>
智 慧</w>
地 化</w>
哪 里</w>
企业 家</w>
理事 会</w>
独 立
爵 士</w>
常 委</w>
就 此</w>
均 衡</w>
一 分</w>
通 告</w>
火 警</w>
消 委会</w>
如 今</w>
交 给</w>
青 衣</w>
率 领</w>
带 领</w>
奥 运会</w>
证 书</w>
相 若</w>
用 以</w>
漠 视</w>
沙 田</w>
提 倡</w>
岗 位</w>
契 约</w>
切 实际</w>
不 切实际</w>
巴 黎</w>
倒 闭</w>
世 贸</w>
7 .
经 贸
答 应</w>
察 觉</w>
学 科</w>
缩 减</w>
注 重</w>
操 守</w>
学 年</w>
劳 动力</w>
陷 入</w>
邓小 平</w>
车 费</w>
惯 例</w>
住 院</w>
搞 好</w>
学 界</w>
附 加费</w>
移 居</w>
查 阅</w>
有 用</w>
存 户</w>
发 动</w>
迫 使</w>
综 合
立 会</w>
男 性</w>
杂 项</w>
手 术</w>
刊 物</w>
先 前</w>
临 立会</w>
深 表</w>
尘 埃</w>
历 史
执 照</w>
开 征</w>
临 床</w>
经 纪</w>
到 达</w>
全 年</w>
李国 宝</w>
循 序
循序 渐进</w>
容 忍</w>
取 决
取决 于</w>
乐 于</w>
东 亚</w>
2 8</w>
要 点</w>
测 量</w>
吸 纳</w>
会 长</w>
某 个</w>
北 京
缓 和</w>
教科 书</w>
国 强</w>
产 阶级</w>
采 购</w>
有 效
上 半年</w>
英 年</w>
失 误</w>
填 补</w>
唐 英年</w>
高 峰</w>
校 舍</w>
李 瑞
亲 自</w>
机 电</w>
无 可
不 好</w>
3 5</w>
长期 以来</w>
跨 越</w>
色 情</w>
流 感</w>
母 亲</w>
李瑞 环</w>
放 在</w>
2 3</w>
贫 富
贫富 悬殊</w>
效 用</w>
投 机</w>
单 一</w>
请 求</w>
递 交</w>
本 地化</w>
图 书
参 谋
动 机</w>
使 命</w>
五 国</w>
互 助</w>
打 破</w>
家 中</w>
198 9年</w>
自 然
推 卸</w>
合 格</w>
划 一</w>
不得 不</w>
8 00</w>
面 向</w>
迈 进</w>
立 刻</w>
恳 请</w>
基金 会</w>
中 小学</w>
三十 一日</w>
陆 续</w>
送 交</w>
武 装</w>
推 翻</w>
何 在</w>
加 剧</w>
百分 率</w>
曾 钰</w>
如 有</w>
之 所以</w>
正 当</w>
概 括</w>
报 刊</w>
境 外</w>
单 车</w>
农 产品</w>
1 00
早 上</w>
大 幅度</w>
处 境</w>
国防 部</w>
下 一代</w>
一九九 四</w>
获 悉</w>
图书 馆</w>
减 免</w>
盗 版</w>
官 僚</w>
陪 同</w>
表 演</w>
十 二</w>
九 四</w>
九 二</w>
那 个</w>
真 实</w>
本 国</w>
接 到</w>
弥 补</w>
家 务</w>
外 界</w>
囚 犯</w>
取 向</w>
倡 议</w>
九 一年</w>
中 南海</w>
出 于</w>
2 万</w>
督 导</w>
申 领</w>
专 利
追 溯</w>
弱 势</w>
同 等</w>
制 品</w>
阿拉 伯</w>
段 中</w>
得 悉</w>
剥 削</w>
进 取</w>
多 方面</w>
8 亿</w>
经 常
含 量</w>
3 2</w>
非 正式</w>
露 宿</w>
足 球</w>
街 市</w>
注 册
新闻 界</w>
放 缓</w>
指 责</w>
抓 住</w>
受害 者</w>
预 告</w>
瑞 典</w>
4 5</w>
赢 得</w>
秘 密</w>
提 早</w>
制造 商</w>
军 方</w>
2 5%</w>
当 今</w>
康 体</w>
十 四</w>
释 放</w>
解 答</w>
组 成
组成 部分</w>
有 时候</w>
危 险
贩 毒</w>
经 合</w>
活 跃</w>
封 闭</w>
元 首</w>
主 流</w>
阿 尔
索 取</w>
多 边</w>
勇 气</w>
前 来</w>
仪 器</w>
邦 造</w>
缓 慢</w>
税 务局</w>
朱 邦造</w>
转 交</w>
当 日</w>
兑 换</w>
从 速</w>
东 区</w>
登记 册</w>
6 0%</w>
2 9
成 因</w>
围 绕</w>
不 懈</w>
一 百</w>
袭 击</w>
布 希</w>
均 会</w>
全国 政协</w>
偿 还</w>
6 00</w>
政治 局</w>
墨 西
问 及</w>
聿 嘉</w>
林 贝</w>
不 够</w>
第1 4</w>
第1 1</w>
更 新</w>
电 费</w>
球 场</w>
展 望</w>
6 .
演 变</w>
小 贩</w>
内 阁</w>
全 军</w>
下 令</w>
督 察</w>
比 重</w>
收 容
慈 善</w>
对 策</w>
威 尔</w>
大 臣</w>
亦 正</w>
营 业</w>
注册 处</w>
欠 佳</w>
柬 埔
切 实
产 量</w>
一 同</w>
9 7年</w>
赞 助</w>
柬埔 寨</w>
新 疆</w>
排 水</w>
四 十</w>
车 位</w>
调 解</w>
罪 名</w>
第 九</w>
故 事</w>
司 法
4 0%</w>
198 8年</w>
起 码</w>
自 主权</w>
向 本会</w>
可 望</w>
变 为</w>
参 照</w>
中小 企业</w>
上 月</w>
通 则</w>
上 次</w>
最 为</w>
影 响
影响 力</w>
基 准</w>
哪 个</w>
价 钱</w>
人 物</w>
管 如此</w>
带 头</w>
尽 管如此</w>
妥 协</w>
大 亚
大亚 湾</w>
南 联盟</w>
六 四</w>
缺 点</w>
经常 性</w>
禁 毒</w>
在 案</w>
这 笔</w>
搁 置</w>
对 方</w>
南斯拉 夫</w>
消 失</w>
显 得</w>
居 留</w>
举 例</w>
饮 食
达 赖</w>
知 情</w>
大 埔</w>
外 贸</w>
售 价</w>
创 意</w>
偏 离</w>
供 养</w>
论 述</w>
热 情</w>
新 型</w>
居 者</w>
土 耳
先 例</w>
侦 察</w>
饮食 业</w>
街 道</w>
收 购</w>
2 0万</w>
节 约</w>
索 沃</w>
科 索沃</w>
海 事</w>
审 判</w>
土耳 其</w>
倚 赖</w>
遏 制</w>
证 件</w>
来 华</w>
国务 卿</w>
感 情</w>
对外 开放</w>
大 局</w>
事 物</w>
鼓 吹</w>
羁 留</w>
命 运</w>
劳 动
也 好</w>
议 性</w>
涉 嫌</w>
时 宜</w>
定 下</w>
争 议性</w>
7 亿</w>
防 范</w>
航 天</w>
湾 仔</w>
极 度</w>
携 手</w>
创 业</w>
交 通
交 谈</w>
退 出</w>
牟 利</w>
机 器</w>
医 学界</w>
驻 军</w>
附 带</w>
逐 一</w>
过 来</w>
解 散</w>
融 入</w>
权 威</w>
连 同</w>
行 之
行之 有效</w>
结 构
拟 定</w>
声 誉</w>
驾 车</w>
蒙 古</w>
苏 联</w>
授 予</w>
表 态</w>
灾 难</w>
振 兴</w>
逃 避</w>
百分 点</w>
提 前</w>
历史 性</w>
15 0</w>
遣 散
遣散 费</w>
正 义</w>
就 读</w>
地 利</w>
吴 仪</w>
入 学</w>
信 息
2 9</w>
鲍 威尔</w>
联 系
现 任</w>
扩 阔</w>
处 置</w>
其 它</w>
鲍 磊</w>
间 接税</w>
逗 留</w>
运 动员</w>
第1 3</w>
列 车</w>
分 担</w>
体 化</w>
有所 不同</w>
复 核</w>
— —</w>
3 万</w>
误 会</w>
增 补</w>
计 划
罗 祥
罗祥 国</w>
沿 用</w>
南 北</w>
r e
结构 性</w>
租 用</w>
树 立</w>
师 资</w>
好 事</w>
反 复</w>
价 值
讲 座</w>
爆 发</w>
检 察
救 护
军 人</w>
运 行</w>
工程 署</w>
亏 损</w>
视 作</w>
波 黑</w>
30 分</w>
3 1</w>
第 七</w>
王 伟</w>
参谋 长</w>
人 均</w>
c o
终 身</w>
流 通</w>
暴 露</w>
日 内
日内 瓦</w>
册 子</w>
温 和</w>
核 准</w>
专利 权</w>
长 久</w>
评 定</w>
毫 不</w>
运 输
被 捕</w>
欺 骗</w>
收容 港</w>
单 单</w>
加 紧</w>
赞 扬</w>
规 格</w>
规 划
方 可</w>
充 裕</w>
不 足
辐 射</w>
构 想</w>
两 会</w>
敦 促</w>
息 息
定 于</w>
关 税</w>
专 用</w>
3 3</w>
除此 之外</w>
通 信</w>
联系 汇率</w>
短 暂</w>
使用 率</w>
价值 观</w>
上 文</w>
深 感</w>
核 武器</w>
妥 当</w>
地 步</w>
吸 收</w>
升 降
马 来
澳 大
污 染
有 点</w>
息息 相关</w>
岛 内</w>
含 有</w>
化 验</w>
中共 中央</w>
马来 西亚</w>
现 状</w>
教 导</w>
完 结</w>
珍 惜</w>
楼 市</w>
扑 灭</w>
异 议</w>
市 值</w>
密 集</w>
兼 顾</w>
迄 今</w>
炒 卖</w>
框 架</w>
处 事</w>
切实 可行</w>
落 马</w>
海 湾</w>
恐 怖
恐怖 主义</w>
常 常</w>
坦 白</w>
财 政
澳大 利亚</w>
太 平
高 质</w>
转 化</w>
蓝 图</w>
注 资</w>
少 许</w>
定 位</w>
南 部</w>
单 独</w>
分 化</w>
停 泊</w>
侦 察
3 000</w>
辩 护</w>
自 律</w>
正 正</w>
最 高
可 观</w>
协 作</w>
前 后</w>
高 新
稍 为</w>
没 收</w>
扩 充</w>
并 非
人 道</w>
牙 科</w>
数 以
搬 迁</w>
地 球</w>
一 经</w>
i c
播 放</w>
扣 除</w>
侦察 机</w>
工 序</w>
寓 所</w>
客 运</w>
后 勤</w>
动 摇</w>
军 售</w>
东 部</w>
扶 贫</w>
怎 么</w>
大 使馆</w>
制 止</w>
严 谨</w>
业 员</w>
阅 读</w>
遵 从</w>
第1 6</w>
监 狱</w>
树 木</w>
机 械</w>
体 会</w>
陈 国强</w>
宽 松</w>
发 电</w>
严 肃</w>
大 为</w>
地 理</w>
升降 机</w>
频 道</w>
经 由</w>
法 令</w>
村 民</w>
救护 车</w>
批 发</w>
想 像</w>
天 桥</w>
公 务</w>
中 环</w>
飞 行
购 置</w>
融 合</w>
相 似</w>
特 惠</w>
1 a</w>
问 卷</w>
管 道</w>
留 待</w>
总 共</w>
劳 顾
不 当</w>
大 事</w>
加 工</w>
公 认</w>
保 健</w>
厂 商</w>
十 年</w>
储 存</w>
清 辉</w>
暗 示</w>
文 字</w>
八 八</w>
银 行
跨 境</w>
荒 谬</w>
芬 兰</w>
细 心</w>
物 价</w>
好 转</w>
好 好</w>
太平 洋</w>
t e
禽 流感</w>
牙 利</w>
点 名</w>
有效 期</w>
扩 散</w>
愉 快</w>
吴 清辉</w>
匈 牙利</w>
不 必</w>
宣 誓</w>
天 然
中 止</w>
解 除</w>
极 力</w>
意 志</w>
意 向</w>
容 量</w>
奥 地利</w>
大 专
典 型</w>
瑞 士</w>
爱 国</w>
污染 物</w>
埃 及</w>
商 标</w>
人 心</w>
那 时</w>
过 度</w>
物 价
小 册子</w>
学 家</w>
团 长</w>
北京 市</w>
3 6</w>
昨 日</w>
政治 化</w>
成 年人</w>
强 硬</w>
广 场</w>
取 缔</w>
资 料
货 柜
货柜 车</w>
行 走</w>
物价 指数</w>
毛 泽
改 动</w>
军 备</w>
便 宜</w>
侦 查</w>
从 业员</w>
风 气</w>
计 算
约 束
约束 力</w>
求 助</w>
档 案</w>
柔 芬</w>
文 物</w>
回 来</w>
刘 柔芬</w>
修 葺</w>
以 此</w>
班 子</w>
各 业</w>
与 会</w>
上 任</w>
西 铁</w>
自 豪</w>
演 讲</w>
年 青</w>
军 用</w>
资料 库</w>
潜 艇</w>
枪 械</w>
审 计</w>
名 字</w>
劳顾 会</w>
一 点
观 众</w>
摆 脱</w>
工 友</w>
和 解</w>
吁 请</w>
5 0年</w>
轻 便</w>
理 工
派 出</w>
承 保</w>
席 位</w>
制 约</w>
亚 欧</w>
上 涨</w>
第 6
由 此</w>
梁 刘柔芬</w>
动 工</w>
军 区</w>
真 相</w>
文 凭</w>
教育 界</w>
抓 紧</w>
下 调</w>
t h
遭 遇</w>
计算 机</w>
绿 化</w>
来 临</w>
四 分</w>
千 年</w>
九 六</w>
通 车</w>
艰 巨</w>
罢 工</w>
移 植</w>
理工 学院</w>
实 用</w>
出 色</w>
任 职</w>
艺 术
竭 尽</w>
现 存</w>
沿 海</w>
形 态</w>
墨西 哥</w>
东 京</w>
频 繁</w>
第1 2</w>
7 00</w>
长 青</w>
转 口</w>
贫 富</w>
第三 者</w>
民主 派</w>
希 腊</w>
宾 馆</w>
冷 静</w>
九 二年</w>
不 禁</w>
边 缘</w>
直 升
今 午</w>
有 益</w>
参 议院</w>
卓 越</w>
共和 党</w>
作 品</w>
不 如</w>
一 部分</w>
难 题</w>
死 者</w>
当 初</w>
宣 称</w>
回 国</w>
告 人</w>
何 世
令人 满意</w>
随 即</w>
遗 产</w>
调 动</w>
狭 窄</w>
公 安
一 体化</w>
一 两</w>
震 惊</w>
附 加</w>
道 歉</w>
纵 使</w>
申 办</w>
机 动</w>
无 辜</w>
弃 置</w>
妻 子</w>
启 动</w>
分 期</w>
高 速</w>
追 究</w>
班 次</w>
日 报</w>
收 紧</w>
抗 拒</w>
年 老</w>
大 专</w>
8 .
维 多
繁 复</w>
福 祉</w>
祝 愿</w>
看 待</w>
甚 或</w>
捐 款</w>
列 举</w>
198 7年</w>
跟 随</w>
话 题</w>
气 候</w>
搜 查</w>
如 期</w>
天然 气</w>
各 行
历 来</w>
刻 意</w>
删 去</w>
出 路</w>
载 客</w>
起 草</w>
甄 别</w>
哲 学</w>
单 方面</w>
3 6
飞行 员</w>
防 火</w>
纲 要</w>
稳 步</w>
无 权</w>
密 度</w>
容 纳</w>
大专 院校</w>
陈 智
每 当</w>
手 边</w>
业 绩</w>
i s
3 8</w>
预 委会</w>
申 索</w>
恐 吓</w>
口 岸</w>
包 装</w>
公 义</w>
何世 柱</w>
4 000</w>
10 亿</w>
轻 易</w>
精神 病</w>
相 继</w>
演 练</w>
整 套</w>
并非 如此</w>
国务 委员</w>
陈智 思</w>
街 头</w>
波 动</w>
来 到</w>
回 升</w>
8 0%</w>
绿 色</w>
练 兵</w>
第1 9</w>
核 电</w>
或 缺</w>
必 会</w>
体 育
不可 或缺</w>
资 深</w>
竞 赛</w>
印 制</w>
休 息</w>
4 8</w>
3 9
转 业</w>
走 廊</w>
空 运</w>
直升 机</w>
差 别</w>
卡 拉</w>
公 信
公信 力</w>
斯 洛
所 未
急 切</w>
心 情</w>
十 三</w>
饮 食</w>
老 板</w>
煽 动</w>
消 极</w>
放 心</w>
改 良</w>
成 人</w>
口 号</w>
力 求</w>
冷 气</w>
一九九 八年</w>
要 素</w>
继 承</w>
城 镇</w>
各行 各业</w>
某 人</w>
抑 制</w>
太 空</w>
国 情</w>
占 用</w>
事 前</w>
无 力</w>
探 访</w>
恐 惧</w>
局 部</w>
逮 捕</w>
耶 夫</w>
愤 怒</w>
家 宝</w>
中国人民 解放军</w>
200 万</w>
马 逢</w>
紧 迫</w>
精 英</w>
直 通</w>
旅行 社</w>
前 所未
管 辖</w>
生 计</w>
温 家宝</w>
奠 定</w>
商 谈</w>
再 三</w>
7 0%</w>
高新 技术</w>
自 觉</w>
绝 非</w>
替 代</w>
投 放</w>
平 方米</w>
学 前
学前 教育</w>
伊 斯
九 三</w>
象 征</w>
诚 然</w>
空 中</w>
室 内</w>
单 程</w>
分 散</w>
信 仰</w>
预 见</w>
酒 楼</w>
道 而
警 惕</w>
航 线</w>
第1 7</w>
权 主义</w>
支 线</w>
多 于</w>
呈 现</w>
厦 门</w>
供 水</w>
轨 道</w>
行 列</w>
船 舶</w>
真 诚</w>
率 先</w>
挑 选</w>
指 挥
地 面</w>
为 首</w>
简 直</w>
整 顿</w>
婴 儿</w>
升 级</w>
假 若</w>
何 谓</w>
附 录</w>
纪 念
理 所
手 上</w>
官 守</w>
反 之</w>
一九九 二</w>
霸 权主义</w>
研究 所</w>
带 有</w>
合 同</w>
博 士</w>
共 同
麻 烦</w>
航 运</w>
用 意</w>
理所 当然</w>
拆 卸</w>
外 经贸
受 益</w>
前 者</w>
中央 政治局</w>
中共 中央政治局</w>
是 非</w>
效 应</w>
战 斗</w>
业 已</w>
不 对</w>
设 定</w>
置 疑</w>
推 选</w>
对 立</w>
外经贸 部</w>
周 详</w>
6 00万</w>
阐 明</w>
遵 循</w>
购 物</w>
行 径</w>
缺 少</w>
科学 技术</w>
禁 区</w>
注 视</w>
植 物</w>
斯 特
同 僚</w>
判 刑</w>
信 用
不 等</w>
负 债</w>
管辖 权</w>
拖 欠</w>
季 度</w>
乔 石</w>
举 手</w>
过 时</w>
观 察
荷 兰</w>
无 数</w>
接 待</w>
战斗 力</w>
何 况</w>
3 5
道而 驰</w>
运 送</w>
西 区</w>
背 道而驰</w>
智 利</w>
时 常</w>
一九九 三</w>
定 书</w>
天 水</w>
哈 萨
信息 化</w>
一九八 三年</w>
非 官方</w>
随 意</w>
议 定书</w>
衍 生</w>
曾 向</w>
实 地</w>
刘 华
出 去</w>
人 为</w>
享 用</w>
重 重</w>
部 长
让 步</w>
玉 玺</w>
复 康</w>
互 访</w>
金融 业</w>
胡 红
缅 甸</w>
白 纸</w>
有 化</w>
数 百</w>
增 订</w>
台 北</w>
低 迷</w>
事 务
9 0%</w>
防 空</w>
牙 医</w>
注 入</w>
曾 有</w>
奖 券</w>
地 震</w>
受 训</w>
人 体</w>
若 薇</w>
胡红 玉</w>
理 学</w>
教 职员</w>
扩 建</w>
战 场</w>
大 战</w>
增 多</w>
回 到</w>
出 发
资 历</w>
第 八</w>
第 一百
禽 畜</w>
每 间</w>
扶 助</w>
总 是</w>
常 任</w>
天 然</w>
赚 钱</w>
明 华</w>
开 辟</w>
国 人</w>
前 线</w>
出发 点</w>
一 番</w>
一 千
领 事</w>
运输 业</w>
根 源</w>
完 毕</w>
商 场</w>
十 五日</w>
人民 法院</w>
美 洲</w>
科学 家</w>
歪 曲</w>
本 次</w>
普 查</w>
故 意</w>
属 实</w>
处 在</w>
吕 明华</w>
十 一</w>
信 服</w>
都 市</w>
都 会</w>
转 换</w>
欧 元</w>
月 前</w>
九 四年</w>
a ti
重 性</w>
设 想</w>
营 造</w>
扣 押</w>
应 得</w>
陪 审
邦 国</w>
益 处</w>
渴 望</w>
成 年</w>
吴 邦国</w>
利 亚
兼 职</w>
元 素</w>
第 三十
淘 汰</w>
找 寻</w>
低 下</w>
二零零 一年</w>
一九九 一</w>
艰 难</w>
想 到</w>
心 目</w>
右 翼</w>
供应 量</w>
亲 属</w>
诺 夫</w>
良 心</w>
而 易
盲 目</w>
广 生</w>
天 气</w>
严 重性</w>
陈 财
陈财 喜</w>
讽 刺</w>
蔓 延</w>
缴 税</w>
细 则</w>
心 中</w>
专 题</w>
丁 午</w>
男 女</w>
有 线
整 理</w>
录 影</w>
巨 额</w>
商 贸</w>
周 边</w>
么 样</w>
陆 路</w>
门 外</w>
禁 烟</w>
白 宫</w>
智 能</w>
按 钮</w>
战 略
庇 护</w>
受 聘</w>
全 局</w>
九 三年</w>
之 急</w>
举 出</w>
业 化</w>
院 长</w>
稳 固</w>
私 有化</w>
民主 化</w>
殷 切</w>
杂 志</w>
堵 塞</w>
品 质</w>
佣 金</w>
t o
9 亿</w>
3 8
续 期</w>
欣 慰</w>
检 察</w>
报 纸</w>
库 务</w>
少 杰</w>
对 性</w>
合 法
十 万</w>
关 连</w>
倪 少杰</w>
低 估</w>
主 观</w>
下 半年</w>
黄 宜
黄宜 弘</w>
防 卫</w>
重 整</w>
若 果</w>
税 基</w>
捷 克</w>
地 带</w>
加 薪</w>
一 律</w>
选 拔</w>
贸易 额</w>
积 极
离 职</w>
知 识
电 车</w>
开 创</w>
崇 高</w>
增 添</w>
哈萨 克斯坦</w>
眼 光</w>
废 料</w>
国 王</w>
博 览会</w>
三 成</w>
银行 界</w>
被 告人</w>
渔 农
渔农 处</w>
受 害</w>
份 子</w>
4 0
3 a</w>
港 人
港人 治
港人治 港</w>
是 的</w>
抨 击</w>
手 中</w>
强 劲</w>
审 阅</w>
9 8年</w>
8 -9
议 决</w>
空 调</w>
监 理</w>
快 捷</w>
工 场</w>
巡 视</w>
全 都</w>
深 受</w>
新 建</w>
就 职</w>
全 党</w>
一 带</w>
3 7
预 备</w>
酒 精</w>
身 为</w>
花 园</w>
欺 诈</w>
叙 利亚</w>
协 力</w>
前所未 有</w>
中 间</w>
签 名</w>
等 同</w>
石 广生</w>
真 是</w>
灌 输</w>
教 材</w>
器 材</w>
初 级</w>
中 外</w>
不 顾</w>
一 流</w>
8-9 9</w>
转 嫁</w>
积极 性</w>
王 国</w>
极 化</w>
姓 名</w>
中 介</w>
i v</w>
贸 发
贸发 局</w>
炸 弹</w>
机 组</w>
无 限</w>
华 侨</w>
动 荡</w>
万 年</w>
o k</w>
遵 照</w>
近 来</w>
诚 实</w>
裨 益</w>
舞 台</w>
推 向</w>
大 前提</w>
合 共</w>
可 从</w>
剩 下</w>
几 十</w>
不 久
r o
神 圣</w>
指 令</w>
大 学生</w>
出 入</w>
人 身</w>
2 时</w>
邓小 平
邓小平 理论</w>
秀 莲</w>
理 工</w>
影 片</w>
不久 前</w>
不 移</w>
15 万</w>
顺 应</w>
针 对性</w>
趋 向</w>
葡萄 牙</w>
联合 会</w>
职 业
第1 8</w>
汇 集</w>
周 围</w>
刻 不容
刻不容 缓</w>
9 9</w>
练 习</w>
真 理</w>
直 到</w>
张 永
年 纪</w>
道 主义</w>
论 调</w>
自由 市场</w>
特 征</w>
水 管</w>
悲 剧</w>
减 价</w>
全 数</w>
人 道主义</w>
相 差</w>
惟 有</w>
库 房</w>
安 心</w>
华 裔</w>
预 定</w>
阻 挠</w>
金融 界</w>
赛 马</w>
改 组</w>
定 不移</w>
坚 定不移</w>
国际 法</w>
善 意</w>
商 机</w>
司 令</w>
阿 富
编 辑</w>
级 别</w>
有线 电视</w>
战略 性</w>
张 万年</w>
布 鲁
厂 家</w>
金 正
舞 弊</w>
筹 划</w>
抱 歉</w>
战 机</w>
思 路</w>
审 计
名 册</w>
司法 部</w>
叶 利
分 流</w>
不 惜</w>
一九八 七</w>
起 见</w>
而 不
硬 性</w>
石 棉</w>
港 商</w>
意 味
坚 信</w>
和 谈</w>
各 族</w>
受 托</w>
决 不</w>
便 利</w>
4 5
金正 日</w>
范 徐
电 信</w>
用 心</w>
本 报</w>
征 求</w>
大 业</w>
合 力</w>
叶利 钦</w>
儿 子</w>
阿富 汗</w>
贿 赂</w>
桥 梁</w>
国 事
国事 访问</w>
八 九</w>
中 产阶级</w>
3 4</w>
零售 业</w>
福 建</w>
异 常</w>
廉 洁</w>
升 幅</w>
八 一年</w>
一九九 九年</w>
一 道</w>
9 .
鲜 明</w>
药 品</w>
范徐 丽
男 子</w>
持 久</w>
吕 秀莲</w>
南 韩</w>
一九 六
7 5</w>
4 万</w>
3 7</w>
补 助
范徐丽 泰</w>
确 信</w>
港 币</w>
图 谋</w>
十 八</w>
一九九 六</w>
3 0万</w>
艰 苦</w>
审计 署</w>
远 见</w>
迎 合</w>
轰 炸</w>
美 丽</w>
精 力</w>
海 岸</w>
来 往</w>
拉 美</w>
家 居</w>
十 六</w>
乃 至</w>
量 度</w>
诸 多</w>
结 婚</w>
私 立</w>
参 与
令人 鼓舞</w>
仅 仅</w>
一般 而言</w>
200 0
陆 军</w>
试 点</w>
行 驶</w>
签 字</w>
第2 1</w>
第1 5</w>
病 房</w>
火 车</w>
民 营</w>
惊 人</w>
影 视</w>
家 禽</w>
存 放</w>
办 学</w>
别 的</w>
住 宿</w>
4 4</w>
200 1
199 9
街 上</w>
申请 者</w>
晚 年</w>
无 理</w>
意味 着</w>
塞 尔</w>
参与 者</w>
偷 渡</w>
假 日</w>
5 00万</w>
3 00万</w>
诸 如</w>
第 30</w>
清 除</w>
抉 择</w>
号 码</w>
勇 于</w>
动 性</w>
上 将</w>
100 %</w>
路 政</w>
无 奈</w>
摧 毁</w>
各 样</w>
军 国主义</w>
光 碟</w>
低 廉</w>
上 周</w>
p e
20 亿</w>
遗 留</w>
省 长</w>
法 理</w>
有 制</w>
政 客</w>
心 声</w>
宣 读</w>
商 榷</w>
同 学</w>
任 意</w>
中 等</w>
o n</w>
网 页</w>
纺 织
死 因</w>
接 管</w>
居 于</w>
安 哥
同 感</w>
军 官</w>
全 有</w>
轻 重</w>
超 级
见 面</w>
美 中</w>
海 域</w>
时 才</w>
接 见</w>
拥 护</w>
峰 会</w>
尉 健
尉健 行</w>
英 方</w>
第 十</w>
白 俄罗斯</w>
演 艺</w>
数 千</w>
强 行</w>
安哥 拉</w>
基 石</w>
出 境</w>
入 狱</w>
傅 全有</w>
不 符</w>
5 5</w>
裁 军</w>
男 女
失 当</w>
原 定</w>
危险 品</w>
克 罗
闭 幕</w>
责任 感</w>
真 确</w>
相 符</w>
慢 慢</w>
安 南</w>
另 行</w>
发 问</w>
出 访</w>
凌 驾</w>
估 价</w>
鞍 山</w>
翻 译</w>
续 性</w>
繁 重</w>
版 本</w>
演 说</w>
派 遣</w>
文 书</w>
实 验</w>
再 生</w>
信用 卡</w>
二 百</w>
一 并</w>
6 万</w>
- 2000</w>
酬 金</w>
致 电</w>
缴 费</w>
相 等</w>
信 用</w>
传 达</w>
中 非</w>
蓄 意</w>
组 建</w>
格 局</w>
授 课</w>
总 商会</w>
建筑 师</w>
丈 夫</w>
重 型</w>
通 讯
该 类</w>
西 北部</w>
甄 选</w>
投票 权</w>
总 的
十 七</w>
前 任</w>
代理 人</w>
郑 明
运 载</w>
起 步</w>
谢 意</w>
航 机</w>
种 植</w>
王 鸣</w>
心 理学</w>
幸 福</w>
同 业</w>
从 中</w>
随 便</w>
阿 根
节 流</w>
水 量</w>
拘 留</w>
多 极化</w>
变 相</w>
争 辩</w>
领 事
重 量</w>
诠 释</w>
称 赞</w>
海 报</w>
核 对</w>
杜 绝</w>
戈 尔</w>
工 地</w>
学 术
在 场</w>
十 日</w>
公 然</w>
任 由</w>
e s
骚 扰</w>
领事 馆</w>
阿根 廷</w>
章 程</w>
积 累</w>
楼 龄</w>
拍 卖</w>
急 需</w>
头 脑</w>
品 种</w>
停 留</w>
二 手</w>
一九九 七</w>
一 边</w>
1999 -2000</w>
黄 秉
董 会</w>
维多 利亚
注 射</w>
核 实</w>
描 述</w>
推 算</w>
拦 截</w>
执 政党</w>
地 段</w>
双 语</w>
体 恤</w>
九 一</w>
一 度</w>
4 8
该 国</w>
联合 公报</w>
而易 见</w>
目 共
目共 睹</w>
有 目共睹</w>
显 而易见</w>
化 学
冯 智</w>
顾 虑</w>
航 班</w>
眼 前</w>
清 醒</w>
查 处</w>
本 条</w>
忍 受</w>
处 罚</w>
十 九</w>
分 工</w>
内 幕</w>
全 会</w>
人 生</w>
马 鞍山</w>
精神 文明</w>
简 介</w>
竣 工</w>
小 泉</w>
光 荣</w>
黄秉 槐</w>
识 形态</w>
简 易</w>
知 会</w>
有 害</w>
敌 对</w>
意 识形态</w>
惠 及</w>
市 面</w>
冠 军</w>
农 场</w>
2001 -0
过 早</w>
苟 同</w>
耗 资</w>
细 小</w>
硬 件</w>
睦 邻</w>
波 恩</w>
晋 升</w>
不 准</w>
200 4年</w>
调 派</w>
省 委</w>
染 病</w>
无 从</w>
拉 圭</w>
张永 森</w>
参 拜</w>
西 九龙</w>
支 配</w>
打 开</w>
小 业主</w>
停 车</w>
199 8-99</w>
18 %</w>
调 控</w>
维多利亚 港</w>
熟 虑</w>
深 思
深思 熟虑</w>
数 位</w>
开 明</w>
尊 敬</w>
实 属</w>
发 扬</w>
作 证</w>
介 乎</w>
防 护</w>
通 行
通行 证</w>
辉 煌</w>
稳 定性</w>
男女 平等</w>
球 赛</w>
总 监</w>
失 踪</w>
华 南</w>
别 国</w>
乐 业</w>
通 报</w>
第 七
立 方米</w>
热 线</w>
概 述</w>
势 必</w>
先 进
借 鉴</w>
一 面</w>
4 2</w>
2001-0 2</w>
迟 迟</w>
请 愿</w>
简 报</w>
症 结</w>
水 费</w>
校 内</w>
战 线</w>
南 省</w>
12 %</w>
颁 发</w>
郑明 训</w>
评 级</w>
董事 会</w>
航 空
维 和</w>
流 入</w>
氧 化
殖 民</w>
有 效率</w>
敌 人</w>
挽 救</w>
当 务
当务 之急</w>
外 围</w>
复 兴</w>
保护 主义</w>
买 家</w>
不 通</w>
补助 金</w>
物 色</w>
李 启
未 免</w>
岁 月</w>
就 要</w>
委 派</w>
地 址</w>
叶锡 安</w>
区 政府</w>
a c
6 000</w>
缔 造</w>
神 社</w>
日 间</w>
年 资</w>
五 分</w>
曾 健
政 纲</w>
扩 张</w>
布 会</w>
多 样
国 内外</w>
刚 好</w>
先进 性</w>
假 定</w>
二十 日</w>
二 百
诱 因</w>
管 制
第 7
空 袭</w>
监 测</w>
水 资源</w>
性 能</w>
大 胆</w>
反 省</w>
十 六日</w>
其 一</w>
信 赖</w>
九 成</w>
过 剩</w>
过 关</w>
识 别</w>
维 也
维也 纳</w>
疑 犯</w>
生 育</w>
清 洗</w>
深 深</w>
李启 明</w>
效 能</w>
操 纵</w>
定 为</w>
台 商</w>
信 件</w>
例 行</w>
二十 六日</w>
i t
4 a</w>
4 3</w>
观 看</w>
自 焚</w>
自 动
沦 为</w>
宴 会</w>
太 平</w>
增 值
助 长</w>
到 来</w>
优 化</w>
音 乐</w>
负 荷</w>
诚 信</w>
被 动</w>
潘 国
潘国 濂</w>
景 气</w>
数 民族</w>
常 识</w>
尼 泊
少 数民族</w>
坐 下</w>
出 口
5 0亿</w>
认 定</w>
譬 如</w>
父 亲</w>
此 后</w>
曾健 成</w>
扶 持</w>
意 念</w>
总 参谋长</w>
十 足</w>
创 作</w>
严 密</w>
7 万</w>
老 挝</w>
心 协力</w>
只 好</w>
变 革</w>
分 发</w>
众 议院</w>
一九八 二年</w>
饭 碗</w>
渔 船</w>
张 有
建筑 业</w>
各 区</w>
发 布会</w>
严 正</w>
一九八 八</w>
重 叠</w>
自动 化</w>
果 断</w>
新 社</w>
投 保</w>
廉 价</w>
增值 税</w>
划 定</w>
一九八 六</w>
通 往</w>
胡 经
胡经 昌</w>
缩 小</w>
激 励</w>
此 时</w>
本 届</w>
房 地产</w>
崭 新</w>
守 法</w>
举 措</w>
超 速</w>
贝 尔
确 切</w>
目 睹</w>
时 曾</w>
指 南</w>
境 况</w>
发 售</w>
去 世</w>
加 利亚</w>
不 易</w>
一 至</w>
7 -9
4 1</w>
遗 嘱</w>
警 觉</w>
罗 马
第 8
章 启
章启 月</w>
然 如此</w>
既 然如此</w>
安 门</w>
和 平
凌 晨</w>
2000 -0
长 达</w>
趋 于</w>
纺 织</w>
第2 7</w>
瞩 目</w>
狄 志
狄志 远</w>
曼 谷</w>
救 护</w>
尼泊 尔</w>
容 根</w>
天 安门</w>
十 一日</w>
八 七</w>
免 除</w>
保 加利亚</w>
亟 需</w>
靖 国</w>
第 20</w>
理 智</w>
毛泽 东</w>
救 援</w>
总 目</w>
大 小</w>
国 债</w>
同 仁</w>
公 斤</w>
东 方</w>
上 年</w>
马 上</w>
超 级</w>
贬 值</w>
萎 缩</w>
新 兴</w>
改 建</w>
应 急</w>
奖 励</w>
善 用</w>
十 八日</w>
功 夫</w>
全 盘</w>
仓 卒</w>
4 7</w>
盗 窃</w>
监 控</w>
玩 具</w>
未 曾</w>
市 委</w>
全 新</w>
7-9 8</w>
2000-0 1</w>
黄 维
黄维 则
黄维则 堂</w>
蔡 根
蔡根 培</w>
经济 学家</w>
程 式</w>
盼 望</w>
百 姓</w>
炳 章</w>
正 常
无 效</w>
悠 久</w>
开 发
出 示</w>
公 用</w>
八 八年</w>
转 向</w>
贮 存</w>
罗马 尼亚</w>
数 点</w>
度 过</w>
完 工</w>
大 桥</w>
大 中</w>
外 国人</w>
原 油</w>
十 九日</w>
创 造
人大 代表</w>
篇 幅</w>
盟 国</w>
月 台</w>
天 津</w>
塑 胶</w>
基 督
刘 炳章</w>
中 立</w>
集 团
锦 标
锦标 赛</w>
蔬 菜</w>
第2 5</w>
故 障</w>
政治 家</w>
担 保</w>
成 份</w>
总 之</w>
圈 子</w>
保 费</w>
作 答</w>
乌 拉圭</w>
黄 容根</w>
领 先</w>
零售 商</w>
金 大中</w>
输 出</w>
联合 国
联合国 安理会</w>
焚 化
焚化 炉</w>
新 任</w>
扭 转</w>
战斗 机</w>
延 期</w>
吸 毒</w>
合 资</w>
出 外</w>
财政 部</w>
税 额</w>
直 接税</w>
是 说</w>
拨 给</w>
折 扣</w>
户 口</w>
呈 报</w>
中 英文</w>
中 断</w>
竭 力</w>
战 术</w>
意 欲</w>
呼 声</w>
倾 泻</w>
使 得</w>
主 教</w>
雷 达</w>
说 服
说服 力</w>
葵 涌</w>
火 箭</w>
欧 美</w>
检 查
校 方</w>
来 年</w>
急 速</w>
家 园</w>
二十 八日</w>
二十 七日</w>
三 点
7 5%</w>
违 规</w>
西 贡</w>
良 性</w>
纯 属</w>
渗 透</w>
恶 性</w>
宣 扬</w>
安 居
地 租</w>
单 纯</w>
不 及</w>
饲 养</w>
难 怪</w>
道 义</w>
追 加</w>
诊 断</w>
葡萄 酒</w>
筹 集</w>
科 学院</w>
电 量</w>
消费 品</w>
比 利
果 金</w>
新 年</w>
推 销</w>
女 子</w>
分 界</w>
入 院</w>
九 六年</w>
万 元</w>
还 款</w>
读 出</w>
美 化</w>
第4 1</w>
票 据</w>
特 大</w>
法 新社</w>
月 薪</w>
戒 毒</w>
大 都会</w>
名 为</w>
十 四日</w>
何 以</w>
不足 道</w>
领 空</w>
苏 丹</w>
战 区</w>
布鲁 塞尔</w>
已 婚</w>
多 么</w>
加 倍</w>
凝 聚</w>
互 信</w>
二十 九日</w>
一九八 九</w>
12 0</w>
看 齐</w>
治 国</w>
抵 京</w>
年 间</w>
学 业</w>
司 令
其 间</w>
事 态</w>
中 型</w>
东 南</w>
一 刀
2 a</w>
阿尔 巴
钓 鱼
记 忆</w>
粒 子</w>
短 短</w>
水 污染</w>
检察 院</w>
无 所
携 带</w>
惊 讶</w>
总的 来说</w>
引 擎</w>
富 华</w>
失 聪</w>
占 有</w>
勤 奋</w>
保 卫</w>
之 举</w>
香港特 区政府</w>
谢 永
警 报</w>
规划 署</w>
疾 人</w>
比 克</w>
残 疾人</w>
文 娱</w>
揭 露</w>
投 身</w>
房 间</w>
德 里</w>
微 不足道</w>
平 壤</w>
布 拉
定 论</w>
团 聚</w>
党 组织</w>
传 染病</w>
三 峡</w>
一刀 切</w>
c h
黄 金</w>
食 用</w>
辛 苦</w>
资 方</w>
视 同仁</w>
舒 适</w>
筹 办</w>
界 线</w>
抽 取</w>
战 后</w>
归 咎</w>
座 位</w>
安居 乐业</w>
多 达</w>
力 争</w>
传 递</w>
一 视同仁</w>
3 9</w>
面 貌</w>
跨 国
跨国 公司</w>
谢永 龄</w>
舰 队</w>
突 击</w>
看 不到</w>
班 级</w>
时 报</w>
文 庆</w>
摘 要</w>
学术 界</w>
区 分</w>
三 百</w>
d e
200 8年</w>
200 7年</w>
集 人</w>
证 券
苛 刻</w>
继 而</w>
浮 动</w>
案 例</w>
推 迟</w>
捕 鱼</w>
寿 命</w>
坚 守</w>
四 成</w>
同 步</w>
召 集人</w>
关 切</w>
共 处</w>
作 好</w>
不 大</w>
阴 谋</w>
部长 级</w>
道 导弹</w>
装 修</w>
管制 区</w>
皇 发</w>
犯 案</w>
森 林</w>
战 胜</w>
弹 道导弹</w>
姿 态</w>
国 力</w>
商 铺</w>
叶 文庆</w>
刘 皇发</w>
倾 销</w>
何 处</w>
以 为
二十 一日</w>
- -</w>
问 团</w>
表 述</w>
董事 长</w>
灾 害</w>
油 价</w>
控 告</w>
展 览会</w>
城 市
促 成</w>
东 欧</w>
9 时</w>
00 0亿</w>
运 动
转 用</w>
翻 新</w>
第4 6</w>
环 线</w>
物 资</w>
无 私</w>
扼 杀</w>
忠 告</w>
店 铺</w>
年 轻
就 是说</w>
夜 间</w>
印 刷</w>
博 物
十 七日</w>
出 台</w>
东 涌</w>
退 税</w>
跨 国</w>
脱 困</w>
得 不到</w>
幕 式</w>
尼 斯</w>
加 拉
光 明</w>
m en
19 6
致 命</w>
致 函</w>
电 站</w>
生 果金</w>
犯 人</w>
模 拟</w>
挪 威</w>
城 乡</w>
互 惠</w>
不 法</w>
一 生</w>
u n
9 00</w>
验 室</w>
飞 弹</w>
紧 缩</w>
简 略</w>
测 验</w>
此 前</w>
张 汉
年 中</w>
小 班</w>
9 8</w>
00 00</w>
集 资</w>
选 手</w>
选 定</w>
筹 款</w>
第2 2</w>
痴 迷</w>
略 为</w>
独立 自主</w>
永 乐</w>
旗 帜</w>
整 治</w>
支 持
尔 ·
奥 运</w>
多 宗</w>
士 尼</w>
国际 性</w>
博物 馆</w>
偏 见</w>
侮 辱</w>
九 八</w>
a s
a .</w>
4 6</w>
而 言之</w>
组 织
种 族
求 职</w>
比利 时</w>
杰 出</w>
既 往</w>
斯洛 伐
斯洛伐 克</w>
恐 慌</w>
如 既往</w>
基 础
反 驳</w>
充 实</w>
之 路</w>
一 如既往</w>
一 国</w>
t r
9 9年</w>
骨 干</w>
起 飞</w>
聚 力</w>
癌 症</w>
正常 化</w>
收 率</w>
工 伤</w>
士 兵</w>
厂 房</w>
从 严</w>
交 由</w>
五 百</w>
7 000</w>
钱其 濂</w>
钰 成</w>
认 清</w>
监 视</w>
电 梯</w>
漫 长</w>
架 次</w>
权 责</w>
早 期</w>
撰 写</w>
幼 儿
外 部</w>
外 相</w>
国 土</w>
出 庭</w>
决 意</w>
关 重要</w>
信 誉</w>
世界 杯</w>
黄 钱其濂</w>
颜 锦
颜锦 全</w>
起 立</w>
试 想</w>
莫 桑
莫桑 比克</w>
致 使</w>
第 一
着 眼</w>
疏 导</w>
火 灾</w>
换 取</w>
应 邀</w>
尤 为</w>
哥 伦
区 别</w>
凝 聚力</w>
决 条件</w>
先 决条件</w>
亚 太</w>
争 端</w>
主 意</w>
世 人</w>
专 项</w>
降 落</w>
逾 期</w>
财 力</w>
获 益</w>
百 亿</w>
特 首</w>
拆 除</w>
想 想</w>
怀 孕</w>
张有 兴</w>
地 亚</w>
国 旗</w>
原 子
克罗 地亚</w>
伪 造</w>
亦 非</w>
互 动</w>
事 后</w>
200 5年</w>
陪审 团</w>
社 交</w>
皇 家</w>
法 定
法定 人数</w>
易 于</w>
无 条件</w>
张汉 忠</w>
合 时宜</w>
八 时</w>
兄 弟</w>
不 合时宜</w>
o f
1 .</w>
防 治</w>
责 无
责无 旁
责无旁 贷</w>
特 殊
浩 然</w>
未 知</w>
曾 钰成</w>
报 酬</w>
总 量</w>
坦 诚</w>
僵 局</w>
住 宅
上 班</w>
三 角</w>
l e
首 次</w>
除 外</w>
阿尔巴 尼亚</w>
起 点</w>
血 液</w>
维 奇</w>
潘 宗
潘宗 光</w>
源 头</w>
武 装
招 募</w>
唯 有</w>
分 离</w>
二 千</w>
一般 性</w>
通 用</w>
犯 罪
然 不同</w>
流 行</w>
正 规</w>
有 趣</w>
常 见</w>
发 起</w>
发 电厂</w>
内 涵</w>
免 受</w>
专 机</w>
199 7-98</w>
逐 年</w>
致 以</w>
明 知</w>
哥伦 比亚</w>
倚 靠</w>
住 所</w>
不可 分割</w>
一 来</w>
5 0
震 海</w>
重 返</w>
管理 层</w>
百 计</w>
河 道</w>
排 名</w>
损 坏</w>
彭 震海</w>
年 份</w>
失业 者</w>
回 落</w>
传 送</w>
亲 身</w>
难 关</w>
间 谍</w>
金 属</w>
迁 出</w>
贝 尔</w>
讲 求</w>
至 关重要</w>
独立 性</w>
整 体
整体 而言</w>
排 斥</w>
工 人
尔 斯</w>
合法 化</w>
只 顾</w>
十 亿</w>
免 权</w>
丹 麦</w>
讯 号</w>
西 医</w>
第3 4</w>
爱 尔
文 化
扣 留</w>
惨 剧</w>
就 任</w>
导 向</w>
大 门</w>
十 三日</w>
医 科</w>
保护 区</w>
一九七 九年</w>
6 4</w>
马 其
难 于</w>
防 务</w>
选 择
踊 跃</w>
超级 市场</w>
贩 卖</w>
维 亚</w>
犯 法</w>
工业 化</w>
奏 效</w>
取 回</w>
动 作</w>
7 时</w>
马其 顿</w>
阻 塞</w>
约 翰
民 心</w>
改 用</w>
情 愿</w>
开 工</w>
实 效</w>
完 备</w>
同 寅</w>
南 京</w>
英 雄</w>
色 彩</w>
肺 炎</w>
考 核</w>
涌 入</w>
更 生</w>
景 点</w>
对外 贸易</w>
土 木</w>
二零零 零年</w>
中 亚</w>
不 前</w>
一 共</w>
17 %</w>
长 足</w>
诧 异</w>
行 不通</w>
缓 解</w>
炒 家</w>
法 特</w>
无 限期</w>
所 长</w>
延 展</w>
商 船</w>
商 定</w>
升 降</w>
修 理</w>
聪 明</w>
短 视</w>
特 许</w>
派 员</w>
斯 基</w>
引 渡</w>
坚 强</w>
固 定
区 内</w>
债 权
供 电</w>
事务 署</w>
2 50</w>
车 速</w>
用 品</w>
政治 性</w>
扼 要</w>
扭 曲</w>
手 册</w>
惠 珠</w>
悬 浮</w>
恪 守</w>
尔 德</w>
实 验室</w>
地 域</w>
名 词</w>
军 费</w>
信 号</w>
事 例</w>
8 万</w>
邻 友好</w>
轻 型</w>
睦 邻友好</w>
眼 睛</w>
相 辅
盈 亏</w>
深 厚</w>
十 二日</w>
刘华 森</w>
万 计</w>
4 9</w>
隆 重</w>
邻 国</w>
谭 惠珠</w>
视 野</w>
职 守</w>
第2 6</w>
社会 制度</w>
海 南</w>
星期 日</w>
慷 慨</w>
往 返</w>
幸 运</w>
寻 常</w>
和 非</w>
博 彩</w>
分 隔</w>
i l
青 山</w>
迈 出</w>
自 力
自力 更生</w>
球 队</w>
检 疫</w>
患 病</w>
弊 端</w>
宗 主
宗主 国</w>
发 明</w>
前 夕</w>
交 涉</w>
二 点
16 %</w>
阿拉 法特</w>
酒 店
酒店 业</w>
莫 大</w>
爱尔 兰</w>
棘 手</w>
最 好</w>
情 理</w>
含 义</w>
企业 界</w>
中 午</w>
丝 毫</w>
不 能
长 洲</w>
财 物</w>
社 论</w>
相辅 相
相辅相 成</w>
登记 税</w>
电 子
猖 獗</w>
海 市</w>
民 情</w>
感 激</w>
张 贴</w>
尴 尬</w>
天 台</w>
固定 资产</w>
办 公</w>
凡 是</w>
二十 二日</w>
不 一</w>
销 毁</w>
轻 率</w>
薄 弱</w>
罕 见</w>
简 称</w>
火 力</w>
浓 度</w>
挽 留</w>
废 纸</w>
头 痛</w>
基督 教</w>
危 及</w>
刑 期</w>
六 成</w>
为 数
丰 厚</w>
不 景气</w>
隐 瞒</w>
送 达</w>
辛 勤</w>
继 承
旅 馆</w>
挖 掘</w>
急 于</w>
封 锁</w>
反 感</w>
午 餐</w>
十 五
凭 借</w>
党 内</w>
书 包</w>
选择 性</w>
进 口
赌 注</w>
读 书</w>
警 署</w>
营 业
美 德</w>
炜 彤</w>
泡 沫</w>
油 公司</w>
汉 城</w>
梁 炜彤</w>
明 文
拟 就</w>
心 全
心全 意</w>
困 苦</w>
可 喜</w>
全 心全意</w>
一 级</w>
4 7
30 亿</w>
造 福</w>
通 风</w>
进 而</w>
课 本</w>
莱 德</w>
英 镑</w>
编 写</w>
管辖 区</w>
税 费</w>
狮 子
沙 咀</w>
榜 样</w>
开 心</w>
尖 沙咀</w>
历 程</w>
制 备</w>
债权 人</w>
二十 五日</w>
乡 镇</w>
上 网</w>
配 备</w>
英 皇</w>
舰 艇</w>
着 重</w>
电 缆</w>
珠 海</w>
珍 贵</w>
权 限</w>
拯 救</w>
年 级</w>
体 谅</w>
进 出</w>
超 时</w>
诞 生</w>
行 程</w>
病 症</w>
明文 规定</w>
无 视</w>
复 述</w>
周 末</w>
偏 差</w>
互 不</w>
a pe
高 涨</w>
陷 于</w>
谋 取</w>
私 下</w>
潘 志
攀 升</w>
开 放
小 朋友</w>
处 理
塔 吉
坚 实</w>
养 殖</w>
何 等</w>
传 票</w>
以 内</w>
二十 四日</w>
二 时</w>
世界 大战</w>
8 000</w>
5 1</w>
远 离</w>
谭 王鸣</w>
老 山</w>
第2 3</w>
毛 病</w>
报 案</w>
十 字
包 袱</w>
事 事</w>
一 千</w>
5 3</w>
19 4
领导 班子</w>
难 度</w>
迁 移</w>
股 权</w>
终 结</w>
纪 元</w>
片 面</w>
有 别
有别 于</w>
截 然不同</w>
总 经理</w>
后 期</w>
台 风</w>
印 度
勉 强</w>
前 面</w>
不 容</w>
赋 权</w>
第二十 四</w>
票 数</w>
礼 谦</w>
石 礼谦</w>
生 命
狮子 山</w>
爱 国主义</w>
潘志 辉</w>
洪 水</w>
招 致</w>
库 务司</w>
屏 障</w>
学 金</w>
国 企</w>
变 更</w>
兴 旺</w>
共 度</w>
亦 能</w>
乘 坐</w>
不 会</w>
4 00万</w>
200 2
进 攻</w>
超 额</w>
负 有</w>
触 及</w>
积 蓄</w>
情 合理</w>
归 纳</w>
归 根</w>
合 情合理</w>
出 动</w>
交通 费</w>
不能 不</w>
不容 忽视</w>
上 课</w>
马 尼
那 种</w>
节 日</w>
纳 税</w>
精 确</w>
移 动</w>
真 空</w>
用 水</w>
生 机</w>
消 耗</w>
愤 慨</w>
平 方
小 学生</w>
宾 主</w>
天 下</w>
合 作
北 方</w>
借 助</w>
会 考</w>
优 待</w>
产 值</w>
5 6</w>
隔 离</w>
知 名</w>
用 语</w>
民 用</w>
日 方</w>
悬 挂</w>
态 势</w>
开 幕式</w>
安 居</w>
失 效</w>
地 基</w>
决 定性</w>
会 后</w>
从 此</w>
下 月</w>
ape c</w>
5 9</w>
4 0万</w>
逆 转</w>
贝尔 格
贝尔格 莱德</w>
联 手</w>
第3 2</w>
立 足</w>
治 本</w>
旅行 团</w>
掌 声</w>
持 平</w>
总 统
开 源</w>
年轻 人</w>
平 行</w>
孤 立</w>
呈 请</w>
同 年</w>
分 行</w>
克 杰</w>
偏 远</w>
九 龙
中 印</w>
下 次</w>
上 学</w>
通 力
通力 合作</w>
跑 道</w>
誓 言</w>
观察 员</w>
致 意</w>
群 体</w>
绍 尔</w>
淫 亵</w>
比 喻</w>
此 行</w>
最 少</w>
星期 六</w>
方 位</w>
改 装</w>
布 莱
工人 阶级</w>
居 港</w>
就 算</w>
实 体</w>
取 舍</w>
区 区</w>
劳 方</w>
儿 女</w>
三 千</w>
3 5%</w>
雷 斯</w>
连 任</w>
足 轻重</w>
租 赁</w>
法 人</w>
新 鲜</w>
援 引</w>
成 克杰</w>
意 孤
意孤 行</w>
富 户</w>
四 川</w>
占 有
共 享</w>
八 九年</w>
中国人民 银行</w>
一 时间</w>
一 意孤行</w>
错 失</w>
重 庆</w>
通讯 社</w>
试 行</w>
续 会</w>
紧 紧</w>
等 级</w>
电 影
注 意
注意 力</w>
扰 乱</w>
强 奸</w>
巴 尔
工 种</w>
屡 次</w>
宪 章</w>
契 机</w>
多样 化</w>
向 本</w>
倡 导</w>
万 亿</w>
一 俟</w>
4 6
18 0</w>
鱼 类</w>
需 求
需求 量</w>
遴 选</w>
车 厢</w>
路 段</w>
联 席
约 旦</w>
暴 雨</w>
抽 样</w>
并 未</w>
实 情</w>
定 案</w>
定 权</w>
决 定权</w>
主 妇</w>
2002 -0
2002-0 3</w>
通 行</w>
解放 思想</w>
空 前</w>
深 水</w>
汝 大</w>
李 汝大</w>
年 年</w>
失 职</w>
加 金</w>
入 手</w>
五 千</w>
下 岗</w>
万 人</w>
14 %</w>
马尼 拉</w>
论 及</w>
用 人</w>
清 单</w>
李 卓</w>
承 包</w>
屋 内</w>
尼 日
勾 结</w>
六 百</w>
下 滑</w>
阴 影</w>
选 用</w>
远 洋</w>
西 欧</w>
薛 浩然</w>
聘 任</w>
结 业</w>
热 诚</w>
潜 质</w>
想 起</w>
幸 好</w>
国 商</w>
善 于</w>
商 量</w>
吐 露</w>
可 言</w>
共同 体</w>
免 责</w>
中 全会</w>
3 点</w>
200 亿</w>
2 .</w>
高 瞻
高瞻 远
高瞻远 瞩</w>
领 有</w>
远 程</w>
路 旁</w>
豁 免权</w>
该 人</w>
良 知</w>
海 水</w>
殴 打</w>
柏 林</w>
时 段</w>
平 民</w>
完 美</w>
大 肆</w>
外 间</w>
响 应</w>
南 方</w>
兰 卡</w>
中 巴</w>
世 昌</w>
不 妥</w>
- -
里 斯
过 量</w>
载 明</w>
脱 节</w>
纸 币</w>
精 心</w>
目 光</w>
电 话
浙 江</w>
河 内</w>
期 满</w>
年 长</w>
图 章</w>
升 学</w>
分 析
入 伙</w>
议 论</w>
联席 会议</w>
粗 略</w>
科 技
看 出</w>
电 器</w>
独 裁</w>
日 元</w>
斯 特</w>
报 表</w>
抢 劫</w>
年 虫</w>
巴 拉克</w>
屠 杀</w>
小 圈子</w>
宣 告</w>
地 区
地区 性</w>
国 宾馆</w>
启 联</w>
千 年虫</w>
医 疗
勘 察</w>
人 工</w>
丧 生</w>
饮 品</w>
裁 减</w>
自 满</w>
物 理</w>
归 属
归属 感</w>
回 家</w>
参 建</w>
出 错</w>
军 事
之 为</w>
主 席
个 中</w>
东 北</w>
一九八 五</w>
重 提</w>
邮 件</w>
这 般</w>
视 觉</w>
西 安</w>
称 之为</w>
科 威
科威 特</w>
现 谨</w>
海 内外</w>
梦 想</w>
新 纪元</w>
斯 里
提 请</w>
控 股</w>
损 毁</w>
应 予</w>
复 杂
增 收</w>
吊 销</w>
发 还</w>
原 则
原则 性</w>
占 领</w>
冗 长</w>
人 命</w>
举 足轻重</w>
鲁 平</w>
践 踏</w>
赛 事</w>
老 实</w>
罪 恶</w>
缺 陷</w>
缘 故</w>
第2 9</w>
照 片</w>
源 于</w>
沉 降</w>
欠 款</w>
标 记</w>
报 复</w>
总 收入</w>
开 刀</w>
回 应
偷 运</w>
倾 倒</w>
亲 人</w>
二十 三日</w>
不 然</w>
七 一</w>
a t
9 7</w>
9 000</w>
199 8</w>
负 盈亏</w>
调 查
自 负盈亏</w>
约 国</w>
第2 8</w>
海 泉</w>
景 观</w>
悲 观</w>
张 荣
幻 想</w>
差 额</w>
回应 时</w>
佩 克</w>
二 千
不 行</w>
9 2</w>
5 8</w>
11 %</w>
骄 人</w>
重 任</w>
过渡 性</w>
身 心</w>
规划 委员会</w>
缔 约国</w>
第2 4</w>
每 周</w>
橡 皮
总统 府</w>
广 西</w>
官 地</w>
城市 规划委员会</w>
国际 化</w>
向 来</w>
决 赛</w>
c i
9 万</w>
200 1</w>
里 面</w>
造 就</w>
赞 成
赞成 票</w>
质 性</w>
该 段</w>
种族 歧视</w>
病 情</w>
激 增</w>
演 出</w>
武 警</w>
查 核</w>
无 形</w>
搭 建</w>
排 队</w>
总 协定</w>
布莱 尔</w>
容 加金</w>
实 质性</w>
实 习</w>
字 楼</w>
大 计</w>
周 期</w>
写 字楼</w>
再 说</w>
不足 为
不 尽</w>
13 %</w>
钦 佩</w>
细 菌</w>
短 片</w>
督 促</w>
相 距</w>
每 人</w>
欧 佩克</w>
文 莱</w>
拍 摄</w>
抵 押</w>
幼儿 教育</w>
州 市</w>
富 于</w>
奥 委会</w>
外 出</w>
夏 季</w>
善 后</w>
占有 率</w>
全 文</w>
专 注</w>
不 善</w>
co m
革 新</w>
诊 治</w>
认 证</w>
药 房</w>
药 剂
罗 干</w>
纷 争</w>
知识 型</w>
相 近</w>
畅 顺</w>
摒 弃</w>
控 制
女 儿</w>
塔吉 克斯坦</w>
北 上</w>
分 娩</w>
全 方位</w>
充 当</w>
体 验</w>
义 工</w>
阵 地</w>
遵 行</w>
达 姆</w>
辩 称</w>
足 球赛</w>
纳 米</w>
纪 委</w>
相 连</w>
橡皮 图章</w>
有 毒</w>
宏 伟</w>
安全 网</w>
和平 共处</w>
化 解</w>
冲 绳</w>
亲 王</w>
亏 蚀</w>
中 西部</w>
不 合</w>
7 2</w>
难 得</w>
镇 压</w>
郑 海泉</w>
聚 集</w>
相 处</w>
电 动</w>
王 丹</w>
猜 测</w>
潜 能</w>
滞 留</w>
深 思</w>
有 机</w>
支持 者</w>
师 生</w>
京 都</w>
产 税</w>
五 年
两 三</w>
下 星期</w>
8 00万</w>
5 4</w>
5 2</w>
里 程
轻 心</w>
航 道</w>
而 来</w>
统 一
累 计</w>
简 要</w>
民 族
毁 灭</w>
服务 性</w>
曾 荫
放 松</w>
掉 以
掉以 轻心</w>
怎 么样</w>
弹 药</w>
崩 溃</w>
女 皇</w>
外 流</w>
伤 者</w>
专 线</w>
上 下</w>
防 洪</w>
装 卸</w>
线 路</w>
示 范</w>
游 戏
本 性</w>
时 艰</w>
快 乐</w>
四 点
名 誉</w>
再 行</w>
住 房</w>
举 动</w>
一 手</w>
一 万</w>
7 00万</w>
长 江</w>
贸 然</w>
综合 国力</w>
统 计
森 喜</w>
必 不可
年 会</w>
小 孩</w>
创 伤</w>
克 制</w>
三 点</w>
高 校</w>
露 天</w>
里程 碑</w>
郊 区</w>
证券 业</w>
纺织 品</w>
牢 固</w>
格 兰</w>
曾荫 权</w>
戏 院</w>
干 事</w>
争 夺</w>
上 空</w>
9 5年</w>
10 时</w>
1 00亿</w>
驱 逐
隐 藏</w>
金融 司</w>
重 演</w>
输 送</w>
耕 地</w>
耐 心</w>
生 殖</w>
现 职</w>
游戏 机</w>
涵 义</w>
民 党</w>
欧 共
欧共 体</w>
次 要</w>
收 效</w>
支 撑</w>
四 千</w>
商 店</w>
原子 能</w>
匆 匆</w>
功 率</w>
分 销</w>
全球 性</w>
偶 然</w>
产 物</w>
五年 计划</w>
6 0万</w>
6 0
驱逐 舰</w>
随 之</w>
进 会</w>
第3 1</w>
秘 鲁</w>
破 裂</w>
曾 庆
昨 晚</w>
四 百</w>
内 在</w>
八 六</w>
做 成</w>
不 息</w>
e c
9 5</w>
迫 害</w>
迫 切
迫切 性</w>
药剂 师</w>
翻 版</w>
热 点</w>
水 利</w>
曾庆 红</w>
帮 忙</w>
回 去</w>
化学 品</w>
内 需</w>
六 时</w>
倒 不如</w>
互 补</w>
12 .
还 价</w>
费 时</w>
货 币
营 养</w>
界 限</w>
热 心</w>
灾 区</w>
比 如</w>
本 着</w>
斯里 兰卡</w>
平 台</w>
实 况</w>
大 批</w>
地 积</w>
可 怕</w>
只 得</w>
六 国</w>
饱 和</w>
钓鱼 台
钓鱼台 国宾馆</w>
觉 性</w>
署 方</w>
稳 妥</w>
着 手</w>
理事 国</w>
物 力</w>
消 灭</w>
政 界</w>
审 定</w>
奥 尔
净 值</w>
关 键
保 释</w>
a b
骄 傲</w>
音 乐
非 典</w>
遗 产税</w>
适 龄</w>
系 数</w>
百 年</w>
母 乳</w>
文 学</w>
敢 于</w>
必不可 少</w>
弘 扬</w>
导 体</w>
好 几</w>
奥 林
喉 管</w>
台 阶</w>
利 弊</w>
公 有制</w>
二 00
专 长</w>
高 中</w>
饱 受</w>
遗 漏</w>
评 论
罢 免</w>
系 统
硬 币</w>
气 象</w>
枢 纽</w>
星期 一</w>
无 线
推 介</w>
报 税</w>
心 里</w>
开发 区</w>
幼 师</w>
巴 布
密 封</w>
审 视</w>
奥林 匹
外 观</w>
吃 饭</w>
台 办</w>
关键 性</w>
俱 乐
俱乐 部</w>
优 越</w>
世 博</w>
u r
19 5
配 置</w>
访 者</w>
荣 毅
荣毅 仁</w>
编 队</w>
等 互利</w>
留 给</w>
瑞 拉</w>
现 况</w>
王 绍尔</w>
犹 如</w>
最高 人民法院</w>
新 月
平 等互利</w>
希 拉克</w>
委 内
委内 瑞拉</w>
合 营</w>
到 处</w>
共产 主义</w>
兑 现</w>
乐 园</w>
世界 级</w>
in g
风 波</w>
顽 固</w>
锦 辉</w>
草 率</w>
至 此</w>
疲 弱</w>
独 有</w>
激 发</w>
无可 厚
无可厚 非</w>
无 助</w>
方 百计</w>
当 代</w>
布 政</w>
奥林匹 克</w>
外 币</w>
垃 圾
千 方百计</w>
初 中</w>
全国 性</w>
何 锦辉</w>
人 群</w>
高 峰
高峰 期</w>
革 命
诺 贝尔</w>
证 金</w>
见 习</w>
维 系</w>
空 谈</w>
派 驻</w>
校 园</w>
柜 台</w>
杀 人</w>
拉 萨</w>
总 局</w>
待 续</w>
归 还</w>
常 设</w>
外 面</w>
处理 厂</w>
同 心协力</w>
受 访者</w>
公安 部</w>
充 公</w>
保 证金</w>
下 药</w>
上 海市</w>
隶 属</w>
陆 上</w>
郑 汉
送 给</w>
追 查</w>
行政 部门</w>
艰 苦
缓 急</w>
浪 潮</w>
李 肇
无 良</w>
文 法</w>
德 拉</w>
建 国</w>
平 时</w>
平 反</w>
布 局</w>
大 体
大体 上</w>
创造 性</w>
切 尔
修 复</w>
传 闻</w>
产 业化</w>
中 级</w>
驳 斥</w>
郑 耀
郑耀 棠</w>
超 载</w>
解 民</w>
至 终</w>
肯 尼亚</w>
耗 费</w>
第 11
瞻 性</w>
症 下药</w>
毋 庸
李肇 星</w>
曲 折</w>
星期 四</w>
日 新月
日新月 异</w>
征 收率</w>
形 式
布 赖
小 撮</w>
对 症下药</w>
始 至终</w>
增 建</w>
在 中英</w>
半 导体</w>
前 瞻性</w>
会 者</w>
一 小撮</w>
1 ·
霸 权</w>
郑汉 钧</w>
途 中</w>
近 乎</w>
认 知</w>
自由 化</w>
联 大</w>
张荣 典</w>
孟 加拉
地 质</w>
啤 酒</w>
启 示</w>
吉 尔
及 非</w>
医 师</w>
匪 徒</w>
加 勒
分析 家</w>
减 幅</w>
人 流</w>
一 刻</w>
e d
黑 钱</w>
转 而</w>
讨 价
讨价 还价</w>
编 排</w>
特殊 教育</w>
煤 矿</w>
热 爱</w>
源 自</w>
深 度</w>
注 明</w>
收 受</w>
据 说</w>
战 士</w>
成 药</w>
得 逞</w>
弱 点</w>
并 进</w>
参 议员</w>
厕 所</w>
勒 索</w>
全 省</w>
低 落</w>
令人 信服</w>
五 一</w>
之 初</w>
与 会者</w>
不 予</w>
p n
l i
9 6</w>
12 亿</w>
阻 力</w>
谋 生</w>
脆 弱</w>
第七 十四</w>
独 居</w>
沮 丧</w>
水 警</w>
服 从</w>
文 艺</w>
挫 折</w>
张 建
张 宇</w>
孟加拉 国</w>
姆 斯
在 非</w>
咨 询</w>
可 怜</w>
压 迫</w>
出 版
军 舰</w>
典 范</w>
九 五
为 人</w>
下 面</w>
ati on
6 8</w>
5 8
15 00</w>
10 年</w>
阻 挡</w>
选 配</w>
赶 上</w>
购 买
诟 病</w>
表 扬</w>
英 军</w>
自 相
胜 任</w>
爱 护</w>
杠 杆</w>
服 刑</w>
星期 五</w>
斯 堡</w>
掣 肘</w>
尸 体</w>
容 器</w>
国家 机关</w>
到 期</w>
公 平
全 权</w>
也 就是说</w>
中 层</w>
一九七 八年</w>
s i
黎 巴
黎巴 嫩</w>
至 今日</w>
考 生</w>
缔 约</w>
研究 生</w>
特 质</w>
热 门</w>
演 词</w>
游 荡</w>
根 基</w>
核 能</w>
时 至今日</w>
提 起</w>
掀 起</w>
成 败</w>
惩 处</w>
恶 果</w>
工作 组</w>
工 时</w>
对 比</w>
外 事</w>
可 用</w>
压 缩</w>
压 抑</w>
党 政</w>
交 付</w>
v ii</w>
3 .</w>
198 5年</w>
预 科</w>
运 往</w>
申请 书</w>
渡 过</w>
流 动性</w>
智 力</w>
政治 部</w>
志 坚</w>
开 业</w>
延 伸</w>
帝 国主义</w>
太 太</w>
公 升</w>
修 补</w>
侧 重</w>
会 社</w>
人民 日报</w>
交 出</w>
亚 运会</w>
二 氧化
中 学生</w>
中 东
中东 地区</w>
不足为 奇</w>
18 万</w>
逃 税</w>
适 时</w>
腾 出</w>
统一 战线</w>
熟 练</w>
湿 地</w>
沉 默</w>
核 试验</w>
无 需</w>
无 谓</w>
揭 发</w>
投票 率</w>
慰 问</w>
形式 主义</w>
布赖 特</w>
布 达
就 业
就业 率</w>
外 债</w>
华 沙</w>
严 打</w>
t r</w>
轻 松</w>
责任 制</w>
荣 誉</w>
粤 语</w>
眼 中</w>
滞 不前</w>
民 运</w>
教 练</w>
揣 测</w>
接 着</w>
微 薄</w>
尼日 利亚</w>
射 击</w>
封 建</w>
定 价</w>
奥尔 布赖特</w>
声 声</w>
坦 克</w>
吸 取</w>
含 意</w>
反 观</w>
参 加
凤 英</w>
减 弱</w>
公平 交易</w>
停 滞不前</w>
例 规</w>
从 前</w>
一 体</w>
an d
7 4</w>
6 3</w>
10 .
退 回</w>
过 后</w>
辞 退</w>
视 听</w>
航 行</w>
穷 人</w>
祸 害</w>
渐 渐</w>
水 货</w>
毗 邻</w>
杨 宝
杨宝 坤</w>
效 法</w>
挽 回</w>
意 料</w>
情 势</w>
尺 度</w>
小 市民</w>
在 华</w>
回 乡</w>
列 席</w>
公 援</w>
人 龙</w>
为 重</w>
个 体</w>
3 4
20 10年</w>
野 生</w>
逝 世</w>
通 关</w>
选 举
边 防</w>
自相 矛盾</w>
细 致</w>
第3 3</w>
时 日</w>
无 异</w>
掩 饰</w>
抽 签</w>
护 养</w>
底 线</w>
国 庆</w>
合 办</w>
出 卖</w>
俗 称</w>
侵 害</w>
会 场</w>
以 身
万 一</w>
p ro
9 4</w>
7 0
高 乐</w>
需 品</w>
透 明</w>
选 址</w>
管理 处</w>
知 名
生命 力</w>
平 整</w>
富 强</w>
壮 大</w>
回 忆</w>
吉尔 吉
十 几</w>
副 本</w>
决 权</w>
养 院</w>
上 加
三 万</w>
5 7</w>
199 7</w>
15 000</w>
防 疫</w>
长 春</w>
还 原</w>
边 际</w>
贾 庆
荣 幸</w>
红 色</w>
痛 心</w>
生 长</w>
新 意</w>
巴 格
工 法</w>
哥 尔
名 列</w>
参加 者</w>
劳 工法</w>
初 稿</w>
入 侵</w>
优 胜</w>
习 俗</w>
中 旬</w>
两 性</w>
三 方</w>
2 .5%</w>
除此 以外</w>
退 还</w>
运 量</w>
联 体</w>
编 订</w>
第 四十
独 联体</w>
特 性</w>
泄 漏</w>
毒 者</w>
晚 间</w>
政 见</w>
挑 衅</w>
怎 么
怎么 办</w>
忠 诚</w>
夸 大</w>
基 辅</w>
吸 毒者</w>
可 笑</w>
可 悲</w>
勇 敢</w>
关 卡</w>
僵 化</w>
九 时</w>
东 江</w>
下 台</w>
9 6年</w>
11 .
飞 船</w>
预 报</w>
队 员</w>
锦 松</w>
重 心</w>
邮 票</w>
遥 远</w>
路 边</w>
言 行</w>
红 十字
离 任</w>
照 明</w>
毋庸 置疑</w>
梁 锦松</w>
暂 缓</w>
教育 工作者</w>
招 显</w>
担 负</w>
必 需品</w>
座 谈</w>
大 堂</w>
堵 截</w>
功 课</w>
克 斯</w>
偏 重</w>
佩 斯</w>
伊斯 兰
下 属</w>
8 5</w>
6 6</w>
郑 慕
郑慕 智</w>
过 失</w>
讨 好</w>
美 英</w>
红十字 会</w>
租 人</w>
督 府</w>
疗 养院</w>
留 任</w>
牌 价</w>
民 国</w>
李 凤英</w>
本 世纪</w>
有 如</w>
时 效</w>
据 称</w>
总 督府</w>
应 对</w>
威 尔斯</w>
威 信</w>
天 文
天 堂</w>
天 主教</w>
处 方</w>
固 有</w>
原 料</w>
功 效</w>
停 工</w>
什 么样</w>
中 年</w>
世界 银行</w>
与 其</w>
pn tr</w>
p o
e l
6 2</w>
飙 升</w>
货币 基金
货币基金 组织</w>
调 拨</w>
裂 主义</w>
目 的
目的 地</w>
沿 线</w>
毫 克</w>
旧 有</w>
无 罪</w>
放 量</w>
放 射
投资 额</w>
忠 实</w>
巴格 达</w>
实 战</w>
失 衡</w>
国际 货币基金组织</w>
回 流</w>
原 理</w>
危险 性</w>
刘 云
分 裂主义</w>
准 确
共产 党
共产党 人</w>
佛 教</w>
交 接</w>
上 级</w>
13 .
迄 今
迄今 为止</w>
议 价</w>
行 长</w>
自 称</w>
科技 界</w>
相 称</w>
新闻 稿</w>
文 职</w>
振 奋</w>
承 租人</w>
扎 实</w>
平 均
尖 锐</w>
如 流</w>
填 写</w>
善 如流</w>
可 图</w>
动 辄</w>
利 可图</w>
冒 险</w>
借 用</w>
从 善如流</w>
书 中</w>
之 地</w>
不 足以</w>
不 理</w>
6 0亿</w>
0 8
限 定</w>
阿 塞
长 短</w>
锺 沛
辩 解</w>
跟 踪</w>
贾庆 林</w>
读 者</w>
街 坊</w>
英 籍</w>
英 文
自 信</w>
老 朋友</w>
海 鱼</w>
泊 位</w>
架 空</w>
旧 式</w>
排 放量</w>
执 行
少 量</w>
售 出</w>
古 物</w>
医 治</w>
作 主</w>
体 力</w>
下 旬</w>
马 拉
领 会</w>
阿塞 拜
阿塞拜 疆</w>
运动 会</w>
词 语</w>
综合 治理</w>
游 泳</w>
止 境</w>
核 电站</w>
有 增
有增 无
明 渠</w>
支 取</w>
擅 自</w>
恶 意</w>
式 各样</w>
开 罗</w>
帽 子</w>
山 东</w>
尼 西亚</w>
塞 车</w>
商 家</w>
各 式各样</w>
历 时</w>
北 省</w>
加 利</w>
刑 法</w>
保 守
二 万</w>
8 时</w>
高 空</w>
马 尔
锺沛 林</w>
铺 路</w>
铺 设</w>
重 开</w>
邻 居</w>
过 重</w>
路 上</w>
膳 食</w>
罗 马</w>
经济 基础</w>
第一百 五十
盛 事</w>
犯罪 分子</w>
沿 岸</w>
无 家
无家 可
新 生</w>
探 测</w>
懈 努力</w>
张 人龙</w>
定 稿</w>
大 都</w>
团 伙</w>
合 理
可 疑</w>
办公 厅</w>
切 身</w>
分 辨</w>
冯 志坚</w>
农 历</w>
侵 权</w>
严 惩</w>
不 懈努力</w>
七 时</w>
9 a</w>
8 a</w>
25 万</w>
长 工</w>
邓 莲
邓莲 如</w>
远 流
远流 长</w>
访 问团</w>
要 紧</w>
若 非</w>
胡 乱</w>
绅 士</w>
纷 纭</w>
第3 7</w>
疗 法</w>
特 派</w>
激 动</w>
源 远流长</w>
注 目</w>
权 衡</w>
日 程</w>
放射 性</w>
插 手</w>
战 时</w>
张 子
小 童</w>
学 制</w>
大 中型</w>
坚 尼</w>
呼 吸
发 掘</w>
厢 情愿</w>
却 步</w>
利 害</w>
典 礼</w>
伸 展</w>
介 意</w>
东 铁</w>
上 面</w>
一 厢情愿</w>
6 7</w>
黑 人</w>
高 速
钢 铁</w>
逆 境</w>
自 助</w>
脏 病</w>
约翰 内
简 述</w>
疑 人</w>
玩 弄</w>
昔 日</w>
撤 离</w>
心 脏病</w>
延 至</w>
嫌 疑人</w>
国 务</w>
后 面</w>
同 行</w>
党 校</w>
停 火</w>
人 意</w>
交 还</w>
二 级</w>
不 妨</w>
6 9</w>
198 6年</w>
雄 厚</w>
遣 送</w>
走 势</w>
赞 许</w>
诈 骗</w>
西 省</w>
萨 达姆</w>
船 东</w>
职业 性</w>
缺 席</w>
模 范</w>
机 票</w>
整 合</w>
搜 寻</w>
掩 盖</w>
截 止</w>
怀 诚</w>
徒 刑</w>
平 安</w>
字 不
字不 提</w>
只 字不提</w>
公 允</w>
偏 袒</w>
作 者</w>
举 债</w>
中 途</w>
u s
8 0年</w>
199 9</w>
0 .5%</w>
验 证</w>
项 怀诚</w>
迷 信</w>
突 尼斯</w>
福 建
福建 省</w>
相 比
相比 之下</w>
深 知</w>
江 苏</w>
款 人</w>
暴 利</w>
抵 制</w>
战 法</w>
成 都</w>
开 通</w>
展 现</w>
头 角</w>
坦 率</w>
午 夜</w>
军 机</w>
兼 任</w>
兴 奋</w>
停车 位</w>
使用 费</w>
令人 担忧</w>
中 部</w>
三 百
一 万
16 0</w>
高速 公路</w>
高 效</w>
马 克</w>
转 运</w>
评 议</w>
记 者
署 理</w>
筹 措</w>
环 顾</w>
热 衷</w>
款 待</w>
机 械
末 期</w>
支 票</w>
抢 救</w>
在 第</w>
剔 除</w>
前 不久</w>
佐 证</w>
伊斯 兰</w>
交 汇</w>
业 部</w>
6 1</w>
200 6年</w>
0. 0
马 里</w>
频 频</w>
雨 水</w>
过 来说</w>
费 解</w>
讲 解</w>
经 受</w>
约翰内 斯堡</w>
第十 六</w>
突 破
离 不
离不 开</w>
研 发</w>
步 入</w>
服务 队</w>
服 用</w>
强 国</w>
工 艺</w>
小 康</w>
场 面</w>
可 贵</w>
发 性</w>
反 过来说</w>
协 同</w>
决 不能</w>
优 厚</w>
二 000</w>
一 .</w>
8 9</w>
7 1</w>
遗 弃</w>
追 问</w>
违 纪</w>
计 委</w>
行 劫</w>
艰 辛</w>
福 州</w>
热 切</w>
炸 药</w>
温 室</w>
涌 现</w>
毛泽 东
毛泽东 思想</w>
根 本性</w>
无 知</w>
抽 查</w>
批 判</w>
托 儿</w>
截 取</w>
战 役</w>
官 立</w>
夏 天</w>
基 会</w>
四 人</w>
卖 淫</w>
剧 烈</w>
不 法
下 子</w>
一 无
一 下子</w>
a m
7 8</w>
4 .</w>
12 万</w>
霍 震
霍震 霆</w>
隔 音</w>
观 光</w>
紧 迫
空 洞</w>
特 使</w>
灵 魂</w>
永 不</w>
文 世昌</w>
德 ·
市 中心</w>
塞 族</w>
坠 毁</w>
原 地</w>
印度 尼西亚</w>
创 建</w>
内 战</w>
侵 蚀</w>
不 争</w>
释 法</w>
社会 化</w>
用 尽</w>
生产 商</w>
玻 璃</w>
海 协</w>
案 情</w>
抵 御</w>
情 景</w>
将 要</w>
宣 传
宗 教
受 理</w>
军 火</w>
京 生</w>
五 万</w>
不 是</w>
t er
8 1</w>
7 0万</w>
15 亿</w>
龙 头</w>
预 警</w>
量 入
量入 为
量入为 出</w>
递 增</w>
运 站</w>
路 撒
路撒 冷</w>
谎 言</w>
课 外</w>
致 歉</w>
聚 会</w>
联合 王国</w>
耶 路撒冷</w>
统计 局</w>
经济 学</w>
第十 四</w>
第3 6</w>
第3 5</w>
看 作</w>
省 份</w>
瘫 痪</w>
申 明</w>
用 来</w>
武装 力量</w>
权 政治</w>
木 图</w>
抹 煞</w>
才 干</w>
强 权政治</w>
定 会</w>
固 体</w>
内 河</w>
八 七年</w>
光 辉</w>
倒 置</w>
作 物</w>
云 南</w>
九 八年</w>
之 类</w>
七 点
th e
in g</w>
5 a</w>
轮 椅</w>
越 南
越南 人</w>
贵 国</w>
警 区</w>
结 社</w>
第三十 九</w>
独 力</w>
濒 临</w>
深 圳
水 渠</w>
杭 州</w>
断 定</w>
救 灾</w>
救 济</w>
按 摩</w>
总 公司</w>
增 减</w>
其 二</w>
兴 起</w>
公 元</w>
偿 债</w>
做 事</w>
a a</w>
雨 绸
雨绸 缪</w>
阿拉 木图</w>
郑 重</w>
逊 色</w>
转 机</w>
财政 部长</w>
获 释</w>
自 新</w>
而 知</w>
研 讨</w>
爱 国
未 雨绸缪</w>
斯 ·
数 十万</w>
拉 姆斯
开 端</w>
平 息</w>
布达 佩斯</w>
山 顶</w>
存 有</w>
复 职</w>
口 声声</w>
口 口声声</w>
压 倒</w>
前 年</w>
冰 岛</w>
俄 国</w>
不 失
n e
d p</w>
6 时</w>
12 00</w>
麦 高乐</w>
院 士</w>
长 沙</w>
通货 膨
通货膨 胀率</w>
逃 犯</w>
辛 格</w>
融 洽</w>
置 于</w>
经贸 委</w>
纠 缠</w>
繁 多</w>
电 路</w>
焦 虑</w>
焚 化</w>
海 基会</w>
无可 置疑</w>
无 可</w>
播 出</w>
抓 获</w>
岭 南</w>
尽 忠</w>
实 实</w>
大 火</w>
大 有
听 说</w>
变 通</w>
参 政</w>
包 容</w>
劳 力</w>
共产 党员</w>
党 风</w>
停 顿</w>
借 款</w>
体育 运动</w>
任 用</w>
人 才
书 籍</w>
不 明</w>
8 2</w>
魏 京生</w>
高 原</w>
选 取</w>
远 大</w>
菲 尔德</w>
自然 环境</w>
肉 类</w>
矫 正</w>
爱 心</w>
深圳 市</w>
涉 案</w>
洁 净</w>
次 于</w>
松 懈</w>
朝 着</w>
旁 观</w>
施 压</w>
方 程式</w>
挑 起</w>
尼 亚
客 货</w>
官 僚
头 来</w>
型 号</w>
商 号</w>
合理 化</w>
到 头来</w>
击 败</w>
以 防</w>
人 所
亲 友</w>
之 效</w>
中 肯</w>
丑 闻</w>
r i
3 分</w>
面 目</w>
门 特
部 就
部就 班</w>
精 密</w>
病 假</w>
添 置</w>
洛 杉
民 居</w>
毫 不
撇 开</w>
按 部就班</w>
手 提</w>
或 少</w>
或 多
或多 或少</w>
性 命</w>
开放 式</w>
年 期</w>
宗教 界</w>
大 势
大 于</w>
基础 教育</w>
听 觉</w>
反 过来</w>
反 响</w>
动 向</w>
分 数</w>
催 化</w>
传 真</w>
一九九 零</w>
v i
t md</w>
n a</w>
7 6</w>
5 分</w>
1 .5%</w>
饮 用</w>
预 约</w>
陆 观
陆观 豪</w>
阿尔 及
门特 别行政区</w>
过 自新</w>
迁 入</w>
车 臣</w>
谋 杀</w>
评论 员</w>
营业 额</w>
航 母</w>
老 鼠</w>
继承 权</w>
纵 容</w>
爱 好</w>
灭 火</w>
澳 门特别行政区</w>
法 纪</w>
沉 箱</w>
校 外</w>
整 改</w>
托 管</w>
影 像</w>
布拉 格</w>
官僚 主义</w>
塞 尔
后 代</w>
可 见
劳动 节</w>
函 件</w>
修 毕</w>
例 证</w>
低 息</w>
任 教</w>
世界 性</w>
不 上</w>
三 千
g dp</w>
驱 逐</w>
顺 差</w>
雅 加
雅加 达</w>
闭 路
闭路 电视</w>
酝 酿</w>
近 邻</w>
计划 生育</w>
苏 海
苏海 文</w>
艰苦 奋斗</w>
联 想</w>
空 泛</w>
疏 散</w>
生 动</w>
早 餐</w>
敷 设</w>
改 过自新</w>
平 日</w>
尔 巴
境 界</w>
塑 造</w>
困 难
哈 佛</w>
品 格</w>
叛 乱</w>
反 弹</w>
勃 勃</w>
动 武</w>
决 策
养 老
供 给</w>
人 质</w>
乌 兹
专 政</w>
三 级</w>
h o
8 5%</w>
路 轨</w>
贫 苦</w>
自治 权</w>
籍 法</w>
科 夫</w>
示 意</w>
生 活
牙 齿</w>
海 洛
民 权</w>
月 底</w>
引 来</w>
市 价</w>
实 实
实实 在
实实在 在</w>
大 连</w>
国 籍法</w>
告 示</w>
古 老</w>
南 区</w>
医 学会</w>
前 期</w>
判 定</w>
保险 费</w>
会 展</w>
产 地</w>
乌兹 别
主 人</w>
3 00亿</w>
附 有</w>
辨 别</w>
辖 市</w>
贵 宾</w>
草 稿</w>
而 出</w>
纸 张</w>
相 撞</w>
申 索
珍 视</w>
烟 花</w>
查 明</w>
本 末
本末 倒置</w>
日 数</w>
数 百万</w>
推 断</w>
抱 怨</w>
抛 弃</w>
所 趋</w>
总 站</w>
就 绪</w>
大势 所趋</w>
司令 员</w>
去 年底</w>
代 之</w>
中华 民国</w>
中 毒</w>
下 放</w>
一 斑</w>
l o
d na</w>
9 3</w>
7 0亿</w>
4 0亿</w>
1 :
集 思
集思 广
集思广 益</w>
陕 西</w>
邪 说</w>
那 天</w>
适 度</w>
轻 视</w>
贸易 区</w>
该 校</w>
装 有</w>
第 六
禁 令</w>
登 陆</w>
留 学生</w>
生 死</w>
洛杉 矶</w>
水 源</w>
杨 洁
李 铁
服 装</w>
时 性</w>
斯 德
数以 万计</w>
拉 动</w>
折 衷</w>
恤 金</w>
总 算</w>
心 脏</w>
张建 东</w>
常 驻</w>
大 体</w>
多 寡</w>
国家 计委</w>
回 头</w>
可 予</w>
制 度
减 租</w>
侦 破</w>
依 次</w>
争 执</w>
下 层</w>
7 9</w>
7 7</w>
3 .5%</w>
11 时</w>
顺 带</w>
谣 言</w>
节 水</w>
自 问</w>
紧 接</w>
简 言之</w>
突 发</w>
相 提
相提 并
相提并 论</w>
河 流</w>
新 近</w>
指挥 官</w>
强 加</w>
引 人
年 均</w>
合 伙</w>
北 韩</w>
养老 金</w>
公 证人</w>
偏 偏</w>
下 班</w>
上 层</w>
一九七 六年</w>
5 .</w>
齐 下</w>
零 碎</w>
赫 尔</w>
论 证</w>
西 哈
自 足</w>
自 给
自给 自足</w>
股 价</w>
绍 伟</w>
篡 改</w>
管 齐下</w>
第 五十
私 有</w>
礼 貌</w>
直 辖市</w>
激 进</w>
杨洁 篪</w>
本 社</w>
曹 绍伟</w>
斯德 哥尔
斯德哥尔 摩</w>
斯 斯坦</w>
教 徒</w>
政 坛</w>
摩 洛
悲 哀</w>
度 假</w>
四 周</w>
吉尔吉 斯斯坦</w>
十五 大</w>
医 学院</w>
前 列</w>
兵 种</w>
信 徒</w>
了 事</w>
举 世</w>
不 定</w>
三 条</w>
一 亿</w>
a d
4 50</w>
高 薪</w>
隐 忧</w>
迪 士尼</w>
路 口</w>
评 分</w>
西哈 努
编 号</w>
绕 道</w>
社会 科学</w>
看 似</w>
物 件</w>
海 面</w>
杜 马</w>
敬 意</w>
放 置</w>
投 机
总 人口</w>
急 务</w>
引 以为
开 列</w>
工业 区</w>
寄 予</w>
夫 斯基</w>
塔 尔</w>
坏 事</w>
后 备</w>
可见 一斑</w>
双 向</w>
卓 有
判 罚</w>
刊 载</w>
住宅 楼</w>
专 访</w>
不得 已</w>
一 成
6 5%</w>
5 .5%</w>
3 50</w>
霸 道</w>
零 点
足 联</w>
记 处</w>
西哈努 克</w>
葵 青</w>
第 12
积 聚</w>
知识 分子</w>
沉 着</w>
无 人</w>
摄 录</w>
接 任</w>
拉姆斯 菲尔德</w>
抗 旱</w>
强 有力</w>
巴尔 干</w>
己 见</w>
对 口</w>
多 媒体</w>
外交 大臣</w>
四 时</w>
合 计</w>
制度 化</w>
共 济</w>
八 五</w>
党 建</w>
优 劣</w>
从 政</w>
亦 经常</w>
二 战</w>
书 记处</w>
上 街</w>
上 来</w>
三 军</w>
ati on</w>
1 30</w>
高 增值</w>
那 一</w>
警 诫</w>
获 利</w>
草 图</w>
能 量</w>
老 虎</w>
美 莲</w>
稠 密</w>
科 尔</w>
煤 炭</w>
深 造</w>
汇 编</w>
武 汉</w>
检察 官</w>
格 式</w>
标 榜</w>
数 万</w>
政 法</w>
摩洛 哥</w>
得 起</w>
妈 妈</w>
周 美莲</w>
卓有 成效</w>
八 五年</w>
不 公</w>
c on
9 5%</w>
非 议</w>
震 荡</w>
院 所</w>
鉴 于
鉴于 此</w>
金 边</w>
这 时候</w>
车 队</w>
赎 回</w>
记者 会</w>
训 令</w>
认 购</w>
表 彰</w>
缆 车</w>
累 进</w>
第5 4</w>
第 10
私 利</w>
研究 院</w>
生 素</w>
激 光</w>
浓 厚</w>
江 省</w>
权 威
权威 性</w>
有 鉴于此</w>
春 节</w>
无 线</w>
手 无
成 功率</w>
慢 性</w>
总 面积</w>
天 星</w>
复杂 性</w>
境 地</w>
国 泰</w>
同 比</w>
受 阻</w>
六 点
修 建</w>
伍 周美莲</w>
令 其</w>
交易 商</w>
事 会</w>
主 因</w>
com m
身 边</w>
视 而不
视而不 见</w>
行 医</w>
粗 暴</w>
粉 岭</w>
第二十 二</w>
笑 话</w>
离 去</w>
省 级</w>
直 言</w>
申 述</w>
水 上</w>
歪 理</w>
李铁 映</w>
景 象</w>
无 助于</w>
数 学</w>
敬 老</w>
推 测</w>
技 工</w>
所 作
所作 所
所作所 为</w>
战 备</w>
德 健</w>
开 除</w>
屠 宰</w>
作 家</w>
体 格</w>
休 息
乌兹别 克斯坦</w>
举 世
中国 队</w>
中 将</w>
不 变</w>
七 千</w>
一成 不变</w>
a g
饭 店</w>
非 礼</w>
郑 德健</w>
跨 越
跨越 式</w>
贯 穿</w>
说 到底</w>
诚 恳</w>
讲 法</w>
见 证</w>
补 性</w>
蓝 本</w>
职业 病</w>
监 事会</w>
皇 室</w>
段 落</w>
格 外</w>
有增无 减</w>
斯洛 文
斯洛文 尼亚</w>
持 不懈</w>
折 旧</w>
托 儿
托儿 所</w>
张 宇
市场 化</w>
坚 持不懈</w>
场 馆</w>
叛 国</w>
变 数</w>
反对 党</w>
及 格</w>
升 格</w>
到 位</w>
关 头</w>
公 开
全 资</w>
作 法</w>
传 染</w>
互 补性</w>
一九 四
22 %</w>
1 10</w>
集团 军</w>
锦 渡</w>
铁 路线</w>
遇 难</w>
说 明书</w>
论 会</w>
计划 经济</w>
袖 手
袖手 旁观</w>
衡 工</w>
若 无
美 誉</w>
综 观</w>
第4 2</w>
第 十五</w>
竞争 性</w>
略 作</w>
泥 土</w>
步 行</w>
文 锦渡</w>
数以 千
数以千 计</w>
操 作
拟 稿</w>
抗 生素</w>
成 交
必 要性</w>
居 然</w>
增 大</w>
土 库
公安 局</w>
公 正
伦 理</w>
p er
23 %</w>
非 公有制</w>
难 民营</w>
触 发</w>
衣 服</w>
船 员</w>
自 强
自强 不息</w>
翻 阅</w>
综 述</w>
签 约</w>
生 前</w>
母 婴</w>
此 刻</w>
查 出</w>
更 正</w>
手 头</w>
并 存</w>
巴 拿
小 龙</w>
实 事</w>
夺 得</w>
夺 取</w>
复 文</w>
地 图</w>
周 刊</w>
同 日</w>
可 信</w>
召 唤</w>
制 宜</w>
判 例</w>
出 自</w>
几 内
作 则</w>
体 内</w>
伊 利
以身 作则</w>
仍 旧</w>
人民 检察院</w>
人 心
乡 镇
中 成药</w>
x x
8 8</w>
马 德里</w>
邹 家
邹家 华</w>
连 续性</w>
联 络
羡 慕</w>
竞争 者</w>
爆 破</w>
灰 色</w>
海 员</w>
津 巴布
桑 尼亚</w>
查 获</w>
未 成年</w>
有 序</w>
既 得
既得 利益</w>
无 比</w>
教育 部</w>
放 映</w>
撤 出</w>
摆 放</w>
推 论</w>
恒 生</w>
总 工会</w>
性 格</w>
张宇 人</w>
席 扬</w>
安全 带</w>
天文 台</w>
壁 垒</w>
坦 桑尼亚</w>
商 业
命 脉</w>
北 美</w>
加 州</w>
利 比亚</w>
六 千</w>
全 市</w>
保 健
份 额</w>
二 亿</w>
为数 不少</w>
不 力</w>
8 4</w>
5 00亿</w>
16 亿</w>
14 0</w>
高 低</w>
雷 声</w>
连 战</w>
赞 比亚</w>
艺术 家</w>
航 运
自 民党</w>
自 欺
自欺 欺
自欺欺 人</w>
考 察
第十 一</w>
第1 32</w>
着 力</w>
病 率</w>
注 定</w>
无线 电</w>
放 射</w>
描 绘</w>
接 连</w>
抗 衡</w>
总 而言之</w>
总 会</w>
家 族</w>
审 判
因 工</w>
克 尔</w>
传 召</w>
乡镇 企业</w>
为 名</w>
上 届</w>
上 万</w>
9 1</w>
8 3</w>
8 0万</w>
25 000</w>
高等 院校</w>
骚 乱</w>
陈 英
错 觉</w>
配 药</w>
遗 忘</w>
诉 讼
莫 过于</w>
经 商</w>
简 而言之</w>
积 压</w>
破 获</w>
疫 苗</w>
疫 情</w>
犹 豫</w>
潜 逃</w>
港 澳
津巴布 韦</w>
民族 主义</w>
楼 梯</w>
朝 美</w>
有 数</w>
无家可 归</w>
整 天</w>
收 缩</w>
所 欲
当 晚</w>
常 理</w>
如 此
失 明</w>
失 事</w>
四 百
咪 表</w>
友 协</w>
动 植物</w>
创 下</w>
兽 医</w>
三 亿</w>
7 3</w>
须 知</w>
音乐 会</w>
陈英 麟</w>
阿尔及 利亚</w>
防 洪
里 亚</w>
遣 散</w>
筹 码</w>
盟 友</w>
由 始至终</w>
炳 良</w>
查 看</w>
放 慢</w>
快 艇</w>
录 取</w>
张 炳良</w>
年 内</w>
干 达</w>
幕 后</w>
安 享
安享 晚年</w>
天 空</w>
外交 官</w>
基 数</w>
名 牌</w>
变 迁</w>
厉 害</w>
卫 生
其 他人</w>
公 式</w>
公 干</w>
光 耀</w>
催 促</w>
仅 次于</w>
事 发</w>
乌 干达</w>
三 天</w>
陷 阱</w>
转 折</w>
贵 州</w>
继 任</w>
硕 士</w>
研究 会</w>
省 市</w>
独 自</w>
流 域</w>
沿 着</w>
水 灾</w>
标 准
来 得</w>
朱 琳</w>
日 俱
日俱 增</w>
整 整</w>
当 权
当 家
应 求</w>
庄 严</w>
平 静</w>
崛 起</w>
宽 限</w>
奖 学金</w>
奈 何</w>
国家 经贸委</w>
呼吸 系统</w>
呼 吸</w>
告 别</w>
启 程</w>
准确 性</w>
农 户</w>
军 民</w>
偏 不
偏不 倚</w>
促 进会</w>
供 不
供不 应求</w>
中 山</w>
与 日俱增</w>
不 偏不倚</w>
上 十</w>
14 00</w>
雄 辩</w>
铁 站</w>
这 时</w>
较 量</w>
诺 言</w>
至 三</w>
管理 费</w>
第4 3</w>
穆 斯
科 院</w>
疯 狂</w>
生活 费</w>
理 事</w>
狠 抓</w>
热 潮</w>
氧 化</w>
明 扬</w>
所 有制</w>
戴 展
戴展 华</w>
惊 奇</w>
归 入</w>
强 度</w>
导 航</w>
安 徽</w>
孙 明扬</w>
失 控</w>
大 道</w>
大 地</w>
地 铁站</w>
只 限</w>
动 乱</w>
分 明</w>
倒 塌</w>
人 生
人 性</w>
事 无
世界 观</w>
一点 :</w>
f or
7 a</w>
1 b</w>
默 默</w>
鲁 莽</w>
非 难</w>
雅 典</w>
诽 谤</w>
讲 师</w>
英 明</w>
老 百姓</w>
群 岛</w>
结 盟</w>
细 胞</w>
第十 二</w>
淤 塞</w>
沙 头角</w>
最高 法院</w>
打 断</w>
当家 作主</w>
市场 占有率</w>
尔 多
塞 俄
塞俄 比亚</w>
埃 塞俄比亚</w>
困难 重重</w>
吸 食</w>
吃 力</w>
压 制</w>
务 使</w>
制 成</w>
创 立</w>
写 信</w>
内 心</w>
二 零</w>
中 西</w>
非 公务</w>
隐 含</w>
铜 锣</w>
选 委会</w>
购买 力</w>
课 堂</w>
计 票</w>
警 觉性</w>
警 力</w>
英 格兰</w>
股 本</w>
考察 团</w>
第十 三</w>
窃 取</w>
破 坏
知名 人士</w>
牌 子</w>
爱国 者</w>
火 车站</w>
斯特 罗</w>
打 电话</w>
志 愿
建 制</w>
市 政府</w>
工 党</w>
宽 容</w>
商 用</w>
听 听</w>
同 一个</w>
到 访</w>
内 蒙古</w>
何 承</w>
以 待</w>
人 文</w>
4 时</w>
高 潮</w>
高 压</w>
首 当
首当 其
陪审 员</w>
门 市</w>
长 廷</w>
重 担</w>
退 伍
走 过</w>
谢 长廷</w>
诉 诸</w>
解 体</w>
王 永
燃 烧</w>
有 机
有 史
有史 以来</w>
春 天</w>
明 文</w>
忽 然</w>
弹 头</w>
应 征</w>
并 重</w>
尤 德</w>
存 货</w>
存 异</w>
太 阳
大 海</w>
司令 部</w>
卡 斯特罗</w>
全 日</w>
充 斥</w>
债 权</w>
之 士</w>
下 功夫</w>
4 9
4 5%</w>
2 ·
13 亿</w>
龙 永
龙永 图</w>
首当其 冲</w>
预 言</w>
阳 光</w>
退伍 军人</w>
赤 贫</w>
货 运量</w>
负责 制</w>
英 勇</w>
良 方</w>
祥 安</w>
由 衷</w>
狄 士尼</w>
浦 东</w>
求 同
求同 存异</w>
新 德里</w>
政 委</w>
接 轨</w>
挣 扎</w>
拓 宽</w>
拉 开</w>
报 告
成 衣</w>
总 和</w>
微 粒</w>
平方 公里</w>
多 加</w>
参 院</w>
务 科</w>
办 到</w>
养 鱼</w>
借 调</w>
传 出</w>
任 善</w>
仓 库</w>
人 材</w>
亚 美
下 届</w>
部长 会议</w>
透 彻</w>
辛 劳</w>
赘 述</w>
证 会</w>
议 定</w>
要 是</w>
罗 的
罗的 海</w>
综合 性</w>
篇 章</w>
盗 窃
王 凤
波 罗的海</w>
治 罪</w>
束 手无
束手无 策</w>
机械 化</w>
服务 费</w>
有效 性</w>
春 云</w>
明 日</w>
打 桩</w>
成 文法</w>
悲 惨</w>
当权 者</w>
强 势</w>
实 权</w>
安 达</w>
姜 春云</w>
姊 妹</w>
后 盾</w>
合法 性</w>
公 诉</w>
付 诸
亚美 尼亚</w>
争 相</w>
下 议院</w>
七 百</w>
u l
1 分</w>
非 但</w>
问 问</w>
适 从</w>
进 军</w>
迎 来</w>
第十 九</w>
第4 4</w>
示 威
示威 者</w>
看 守</w>
由 其</w>
激 化</w>
演 绎</w>
湖 北</w>
清 华
民主 党派</w>
核 裁军</w>
标 价</w>
来 之
昆 明</w>
无所 适从</w>
搜 索</w>
提 取</w>
户 外</w>
少 将</w>
商 营</w>
听 证会</w>
吝 啬</w>
发言 权</w>
区 域
别 有
分 包</w>
出 事</w>
使 节</w>
亚 运</w>
9 8%</w>
25 亿</w>
黑 暗</w>
高 举</w>
频 率</w>
集 成
集成 电路</w>
阶 段
阶段 性</w>
酒 吧</w>
载 入</w>
载 人</w>
论 者</w>
视 若无
视若无 睹</w>
花 钱</w>
臭 氧
臭氧 层</w>
肝 炎</w>
网 吧</w>
策 性</w>
病 例</w>
电 气</w>
王 光
牧 业</w>
每 逢</w>
此 案</w>
棉 花</w>
束 缚</w>
有 心</w>
曼 德拉</w>
政 策性</w>
接 替</w>
报 名</w>
批 发
成 品</w>
得 一
官 司</w>
套 用</w>
国 队</w>
反对 派</w>
千 亿</w>
动 态</w>
几内 亚</w>
减 慢</w>
值 得一
依 旧</w>
人 造</w>
亦 然</w>
二十 五</w>
二 分</w>
中 资</w>
专 业化</w>
不可 避免</w>
5 5%</w>
鲍 尔</w>
青 马</w>
长 途
邻 舍</w>
邦 交</w>
资本 家</w>
视 性</w>
自然 资源</w>
肆 意</w>
精 辟</w>
疑 惑</w>
男 士</w>
王 敏
猪 肉</w>
物 主</w>
滋 生</w>
清华 大学</w>
治 标</w>
歧 视性</w>
此 为止</w>
有 形</w>
有 幸</w>
晚 宴</w>
显 现</w>
无 产阶级</w>
散 布</w>
敏 锐</w>
放 开</w>
拉 那</w>
惩 治</w>
强 权</w>
张子 江</w>
屏 幕</w>
屈 服</w>
对 峙</w>
完 税</w>
夫 联盟</w>
历 年</w>
南斯拉 夫联盟</w>
副 作用</w>
到 此为止</w>
别有 用心</w>
凡 事</w>
关 岛</w>
不得 人心</w>
一九 八</w>
一 心</w>
to c</w>
s t
8 0亿</w>
领导 层</w>
门 口</w>
金 牌</w>
迟 早</w>
调 研</w>
订 购</w>
警 钟</w>
言 语</w>
规 范
虚 伪</w>
罢 了</w>
经营 权</w>
红 军</w>
筹 委</w>
百 分</w>
王凤 超</w>
灿 烂</w>
水 塘</w>
有 利可图</w>
无 期</w>
收 获</w>
撤 军</w>
控制 权</w>
指 派</w>
得 不
得不 偿
得不偿 失</w>
年 幼</w>
外 科</w>
地 拉那</w>
国家 杜马</w>
发 病率</w>
半 价</w>
分 级</w>
分 成</w>
决策 者</w>
兵 力</w>
八 四年</w>
八 千</w>
传 呼</w>
休 憩</w>
从 业</w>
二 者</w>
东 九龙</w>
6 a</w>
15 0万</w>
长 大</w>
邮 递</w>
通 货</w>
路 祥安</w>
诱 惑</w>
获 胜</w>
良 多</w>
纳 扎
第 40</w>
神 话</w>
直 航</w>
疑 点</w>
王 忠
猜 想</w>
牢 牢</w>
点 :</w>
漠 不
漠不 关心</w>
源 节流</w>
水 库</w>
极 限</w>
期 徒刑</w>
有 望</w>
散 发</w>
放 眼</w>
支 部</w>
捐 助</w>
抵 抗</w>
护 卫</w>
投 产</w>
急 救</w>
心 愿</w>
引 申</w>
开 源节流</w>
建 党</w>
延 续性</w>
安全 感</w>
安 盟</w>
威 慑</w>
如 同</w>
夫 妻</w>
大 雨</w>
大 军</w>
周 全</w>
养 父母</w>
佛 州</w>
人才 外流</w>
二 :</w>
中国 银行</w>
万 变</w>
一九七 七年</w>
· 阿
14 .
黑 龙
黄 菊</w>
风 雨</w>
难 以
阵 营</w>
赤 柱</w>
识 之士</w>
草 根</w>
英 豪</w>
美 日</w>
索 马里</w>
第十 八</w>
第3 8</w>
电子 化</w>
班 机</w>
现 役</w>
流 血</w>
江 西</w>
每 每</w>
死 亡
权 国</w>
有 识之士</w>
明 义</w>
救 助</w>
放 任</w>
摩 尔多
摩尔多 瓦</w>
报告 会</w>
扎 扎
扎扎 实实</w>
户 主</w>
志 伟</w>
干 脆</w>
子 孙</w>
始 终
填 报</w>
困 惑</w>
回 响</w>
回 合</w>
咖 啡</w>
命 名</w>
向 上</w>
号 召</w>
发 卡</w>
即 可</w>
单 元</w>
公 益</w>
八 一</w>
党 性</w>
介 人</w>
人生 观</w>
交通 量</w>
亏 本</w>
九 零年</w>
主 权国</w>
主 任
中 介人</w>
中 下</w>
不 人道</w>
e s</w>
3 3
3 -0
3-0 4</w>
200 3-04</w>
198 2年</w>
197 8年</w>
% .</w>
雨 季</w>
阵 线</w>
锐 意</w>
遥 遥
追 随</w>
草 业</w>
管理 人</w>
湖 南</w>
水 道</w>
死亡 率</w>
杀 害</w>
掌 管</w>
按 时</w>
指挥 员</w>
悉 尼</w>
库 区</w>
巴拿 马</w>
展 翅</w>
官 立
安 慰</w>
奉 献</w>
土库 曼
历 届</w>
升 高</w>
化 工</w>
军 控</w>
倾 斜</w>
保 单</w>
依 托</w>
体 能</w>
体 积</w>
住宅 区</w>
人 格</w>
于 求</w>
乘 车</w>
主任 委员</w>
东 道
七 五年</w>
一九七 四年</w>
一 举</w>
9 0
17 0</w>
食 其
隔 膜</w>
销 量</w>
配 给</w>
选举 法</w>
轰 炸
轰炸 机</w>
越 境</w>
贬 低</w>
谢 志伟</w>
诚 挚</w>
西 岸</w>
英 权</w>
致 富</w>
自 食其
职 者</w>
署 曾</w>
素 来</w>
空 白</w>
科学 化</w>
禁 闭</w>
看 望</w>
相 对
烟 草业</w>
求 职者</w>
本 领</w>
有 线</w>
改 作</w>
揭 示</w>
接 手</w>
报 关</w>
扬 言</w>
当 场</w>
应 堆</w>
居 英权</w>
实 例</w>
外 电</w>
城 区</w>
品 牌</w>
口 供</w>
反 应堆</w>
反 击</w>
化 妆
务 必</w>
加 油
别 处</w>
准 时</w>
关 口</w>
公 益
公 厕</w>
俗 语</w>
休息 日</w>
五 时</w>
临 近</w>
不失 为</w>
不 已</w>
不 堪
上 游</w>
197 2年</w>
12 5</w>
高 尔
铲 除</w>
酒 后</w>
邻 邦</w>
辖 区</w>
跌 幅</w>
资 产阶级</w>
船 上</w>
而 论</w>
罗 叔
罗叔 清</w>
经 得起</w>
纪念 日</w>
百分 之
百分之 百</w>
畅 通</w>
申 奥</w>
王忠 禹</w>
海 口</w>
正 直</w>
来之 不易</w>
指 向</w>
扫 荡</w>
所 有权</w>
对 面</w>
多 样</w>
土库曼 斯坦</w>
口 袋</w>
卸 任</w>
加 值</w>
前 沿</w>
前 例</w>
利 民</w>
分 量</w>
出口 额</w>
出 院</w>
准 入</w>
会 员国</w>
介 绍
五 亿</w>
二十 四</w>
事 关</w>
一 览
25 00</w>
1 亿
齐 心协力</w>
马 路</w>
餐 厅</w>
零售 价</w>
进口 商</w>
走 火</w>
赖 于</w>
航 导弹</w>
股 份
网 球</w>
穆 巴拉克</w>
留 心</w>
申 辩</w>
牌 局</w>
爱 沙
爱沙 尼亚</w>
清 新</w>
河 南</w>
根 深
机 上</w>
木 屋</w>
有 赖于</w>
暴 动</w>
智 之举</w>
明 智之举</w>
揭 开</w>
握 手</w>
拉 夫</w>
打 下</w>
所 在
我 方</w>
心 思</w>
徒 劳
徒劳 无
底 下</w>
庆 幸</w>
并 不</w>
平 房</w>
差 劲</w>
巡 航导弹</w>
密 码</w>
家 里</w>
实 处</w>
多 多</w>
埋 怨</w>
原 谅</w>
千 禧</w>
化妆 品</w>
刑 事
养 老</w>
俄 方</w>
乃 是</w>
东 涌
一九八 四</w>
n n
men t
c e</w>
8 7</w>
马克 思</w>
须 经</w>
除 去</w>
良 机</w>
航 天
社 长</w>
监 护</w>
生 涯</w>
琼 斯</w>
理 员</w>
牵 连</w>
清 清
正 反</w>
断 然</w>
持 械</w>
忍 耐</w>
心 智</w>
强 力</w>
定 时</w>
如此 一来</w>
女 童</w>
失 实</w>
太 阳</w>
大 队</w>
回 想</w>
发 电
反 思</w>
厨 房</w>
卜 杜
助 理员</w>
动 权</w>
共 存</w>
会 用</w>
优 异</w>
亦 清楚</w>
主 动权</w>
两 点:</w>
世 上</w>
不 言
不 止</w>
下 水</w>
一览 表</w>
men t</w>
m a
e r</w>
5 时</w>
200 2</w>
-9 7</w>
骗 取</w>
集 结</w>
闹 剧</w>
逆 差</w>
远 华</w>
购 入</w>
豪 华</w>
谈 到</w>
该 院</w>
试 办</w>
讲 稿</w>
言 耸
言耸 听</w>
规范 化</w>
观察 家</w>
自 发</w>
腹 地</w>
脱 维亚</w>
编 撰</w>
绝 种</w>
米 尔</w>
第5 9</w>
研究 员</w>
监 察
港 城</w>
消 毒</w>
海 滩</w>
永 祥</w>
每 桶</w>
核 查</w>
曾 培
曾培 炎</w>
数 据
收 看</w>
拉 脱维亚</w>
对 照</w>
学 府</w>
女 佣</w>
国 界</w>
反 抗</w>
参 赛</w>
危 言耸听</w>
占 据</w>
兴 国</w>
不 乏</w>
i i
8 0
15 .
马 耳
非 法定</w>
集 型</w>
陶 宛</w>
长 清</w>
这 部</w>
转 运站</w>
谬 误</w>
论 题</w>
计 时</w>
观 感</w>
蒂 固</w>
莫 非</w>
航空 兵</w>
致 敬</w>
肇 事</w>
结 局</w>
细 分</w>
系统 工程</w>
立 陶宛</w>
空 域</w>
称 职</w>
省 政府</w>
王敏 贤</w>
点 儿</w>
游 览</w>
温 度</w>
渗 入</w>
清清 楚
清清楚 楚</w>
深 夜</w>
民 兵</w>
检查 员</w>
根深 蒂固</w>
来 讲</w>
曹 王敏贤</w>
拜 会</w>
抗 争</w>
投机 者</w>
战 前</w>
性 骚扰</w>
开 启</w>
崇 尚</w>
密 集型</w>
威 吓</w>
妄 图</w>
大 气</w>
图 书</w>
发 钞</w>
十 美</w>
十 全
十全 十美</w>
农 地</w>
共 用</w>
克 ·
使用 量</w>
何 不</w>
人 间</w>
中 医师</w>
下 限</w>
一 早</w>
一 八
e t
8 6</w>
197 9年</w>
马耳 他</w>
飞 跃</w>
领 养</w>
集团 公司</w>
陌 生</w>
锻 炼</w>
锅 炉</w>
邮 报</w>
胜 诉</w>
罗 辉</w>
绑 架</w>
纳 米
纳米 比亚</w>
篮 子</w>
第十 七</w>
竖 立</w>
相 龙</w>
相 隔</w>
甚 者</w>
特 有</w>
洽 谈会</w>
法 则</w>
母 舰</w>
枪 支</w>
无 心</w>
旁 听</w>
新 高</w>
放 下</w>
戴 相龙</w>
成 交</w>
惋 惜</w>
录 用</w>
引以为 荣</w>
干 劲</w>
市 容</w>
安 生</w>
大 自然</w>
大 法</w>
国 营</w>
团 队</w>
响 起</w>
受 贿</w>
华 府</w>
勘 测</w>
刚 果</w>
共同 点</w>
传 输</w>
亿 万</w>
为 由</w>
一九七 二年</w>
: 1</w>
24 %</w>
2 分</w>
16 00</w>
16 .
黄 吉
黄吉 雯</w>
高尔 夫
非 亚</w>
雪 上加
雪上加 霜</w>
送 行</w>
近 海</w>
转 入</w>
走 私
落 到
落到 实处</w>
翌 日</w>
署 会</w>
经济 界</w>
索 非亚</w>
穆斯 林</w>
祖 父母</w>
生 生</w>
理 顺</w>
独 资</w>
温 饱</w>
活 生生</w>
油 库</w>
没 法</w>
杀 伤
暴 行</w>
方 黄吉雯</w>
改 为</w>
技 师</w>
患 有</w>
德 拉
徒劳无 功</w>
州 长</w>
宣 判</w>
季 节</w>
大 家庭</w>
城 门</w>
四 亿</w>
受 审</w>
发展 史</w>
加 斯</w>
到 场</w>
光 顾</w>
借 出</w>
保 管</w>
习 班</w>
为 非</w>
一 年
s o
l a
i t</w>
5 9
4 4
198 4年</w>
19 %</w>
鼎 力</w>
颜 色</w>
陈 方
陈方 安生</w>
防洪 工程</w>
长 处</w>
重 振</w>
避 开</w>
进 食</w>
足 球队</w>
调查 组</w>
订 单</w>
萨 拉
自 卫
联 营</w>
纳扎 尔巴
纳扎尔巴 耶夫</w>
筹 组</w>
称 号</w>
秉 承</w>
瞬 息
目 以待</w>
生产 能力</w>
生 理</w>
江 水</w>
气 温</w>
村 落</w>
本 法</w>
是 而非</w>
无可 奈何</w>
无 前例</w>
拭 目以待</w>
招 揽</w>
抚 养</w>
抗 辩</w>
战 犯</w>
惧 怕</w>
征 用</w>
引 诱</w>
常 用</w>
带 入</w>
小 小</w>
对 冲</w>
存 入</w>
媲 美</w>
复 制品</w>
复 会</w>
坏 处</w>
圣 诞
园 区</w>
听 众</w>
史 无前例</w>
似 是而非</w>
专 程</w>
不 知
17 亿</w>
鹌 鹑</w>
鸦 片</w>
随 同</w>
阿 斯
释 权</w>
酒 类</w>
连 锁</w>
远 景</w>
过 路</w>
轿 车</w>
解 释权</w>
节 制</w>
航空 母舰</w>
致 死</w>
维 港</w>
破 碎</w>
直 播</w>
白 费</w>
最高 人民检察院</w>
曝 光</w>
数据 库</w>
攻 势</w>
控 诉</w>
想 而知</w>
归 属</w>
引人 注目</w>
废 水</w>
应 有权</w>
平均 数</w>
四 万</w>
听 从</w>
各 科</w>
可 想而知</w>
双 管齐下</w>
制造 者</w>
创 办</w>
八 百</w>
伴 随</w>
五 点
万 分</w>
7 .5%</w>
198 1年</w>
14 亿</w>
12 时</w>
1 2000</w>
集 合</w>
难 过</w>
院 方</w>
连 贯</w>
转 给</w>
超 乎</w>
联合 政府</w>
羔 羊</w>
第4 5</w>
穿 梭</w>
禁 运</w>
破 案</w>
瞬息 万变</w>
瓦 解</w>
瓦 希
激 起</w>
清 贫</w>
泳 池</w>
气 焰</w>
欣 欣
欣欣 向
欣欣向 荣</w>
核 子</w>
标 书</w>
本 钱</w>
摩 擦</w>
技术 员</w>
感 动</w>
归 根
如 说</w>
奉 劝</w>
太阳 能</w>
大 屠杀</w>
图 片</w>
四 十五</w>
喝 酒</w>
喇 嘛</w>
口 腔</w>
反 动</w>
区域 性</w>
北 角</w>
功 劳</w>
制 服</w>
写 法</w>
关 根</w>
六 合</w>
伪 钞</w>
介绍 所</w>
九龙 城</w>
九 点
不 道德</w>
丁 关根</w>
6 -97</w>
魄 力</w>
顾 问团</w>
陛 下</w>
逃 离</w>
身 利益</w>
赖 斯</w>
词 句</w>
警 车</w>
角 大楼</w>
耳 不
耳不 闻</w>
纪 云</w>
笼 统</w>
站 立</w>
疾 呼</w>
田 纪云</w>
演 进</w>
游 艇</w>
残 酷</w>
植 树</w>
李 光耀</w>
敦 道</w>
散 播</w>
承 包
想 不到</w>
悉 数</w>
总 领事</w>
开 枪</w>
巧 合</w>
天 真</w>
外 经贸</w>
四 处</w>
哀 悼</w>
周 期
启 发</w>
半 日</w>
切 身利益</w>
净 化</w>
农 业部</w>
充 耳不闻</w>
体育 馆</w>
付 给</w>
些 微</w>
五 角大楼</w>
买 提</w>
书 本</w>
三 人</w>
b o
a te
5 6
13 a</w>
饲 料</w>
部 委</w>
连 带</w>
轮 船</w>
行 李</w>
行 将</w>
虚 设</w>
藐 视</w>
股 息</w>
纵 火</w>
素 有</w>
第3 9</w>
科 恩</w>
离 岸</w>
神 秘</w>
真 心</w>
相对 而言</w>
监 护
果 敢</w>
期 权</w>
暑 假</w>
旺 达</w>
整 性</w>
教 会</w>
损 伤</w>
手 里</w>
成 千
怀 念</w>
弊 病</w>
平方 尺</w>
左 派</w>
尽 心
少 女</w>
小 孩子</w>
完 整性</w>
学 徒</w>
土 壤</w>
周期 性</w>
周 转</w>
吞 吐
合 伙
合伙 人</w>
可 耻</w>
发 信</w>
厚 望</w>
印 证</w>
卢 旺达</w>
卢 卡
南 沙</w>
医疗 界</w>
劳动 者</w>
凯 瑞</w>
几 百</w>
其 说</w>
八 点
伊斯兰 堡</w>
付诸 实施</w>
今 年初</w>
云 南省</w>
举世 瞩目</w>
丰 硕</w>
专 制</w>
丑 恶</w>
i x</w>
驳 回</w>
错 综
错综 复杂</w>
金 门</w>
遥遥 无期</w>
进 驻</w>
迎 刃
迎刃 而
迎刃而 解</w>
赠 送</w>
调 停</w>
词 汇</w>
艾 滋病</w>
能 者</w>
纪 检</w>
繁 荣
等 到</w>
窗 口</w>
突破 性</w>
碰 撞</w>
石 头</w>
盛 会</w>
申索 人</w>
渴 求</w>
海 堤</w>
流 传</w>
河 北</w>
汇 丰</w>
氛 围</w>
未 成年人</w>
显 露</w>
时 光</w>
文 献</w>
攻 读</w>
攻 坚</w>
提 示</w>
批发 商</w>
执行 官</w>
往 年</w>
并 行</w>
平 心
平 常</w>
布 加勒
布加勒 斯特</w>
巴 西
山 区</w>
夸 张</w>
天 天</w>
四 千
君 子</w>
力 而
克 拉
何 必</w>
体 重</w>
伸 出</w>
伊利 沙
伊 信</w>
伊 万
交 替</w>
主 办
中 长期</w>
不 休</w>
不 了</w>
上 司</w>
一九七 三年</w>
s u
s ar
4 点</w>
16 .5%</w>
黄 大
青 春</w>
隆 坡</w>
陆 地</w>
长期 性</w>
辞 去</w>
载 货</w>
身 亡</w>
起 因</w>
赫 尔
西 南</w>
补 足</w>
联 通</w>
纺织 业</w>
繁 琐</w>
紧迫 感</w>
科 教
破坏 性</w>
石 家
牵 制</w>
炮 兵</w>
火 热</w>
毒 贩</w>
武装 部队</w>
检 举</w>
染 上</w>
日 战争</w>
无 偿</w>
教 员</w>
抽 象</w>
报 界</w>
抗 日战争</w>
投票 站</w>
所在 地</w>
成千 上万</w>
开 宗
开宗 明义</w>
库 奇
库奇 马</w>
干 旱</w>
工 委</w>
官立 及</w>
婚 姻
婚姻 法</w>
四 川
商 品
命 感</w>
卡 塔尔</w>
助 学金</w>
动 听</w>
力 以
力以 赴</w>
减 收</w>
再 不</w>
六 万</w>
公 主</w>
全 力以赴</w>
免 职</w>
使 命感</w>
仰 光</w>
交 待</w>
于 事无
于事无 补</w>
世 行</w>
7 .</w>
6 00亿</w>
黄大 仙</w>
霍 乱</w>
银 禧</w>
量 化</w>
里斯 本</w>
近 代</w>
过 问</w>
辛 基</w>
输 血</w>
踏 步</w>
起 初</w>
赫尔 辛基</w>
评 为</w>
自由 度</w>
背 离</w>
翟 克
翟克 诚</w>
经济 区</w>
练 功</w>
第 50</w>
申 科</w>
用 具</w>
生 率</w>
清 晨</w>
欠 债</w>
杀 虫
暂 行</w>
是 以</w>
无 端</w>
断 言</w>
改 道</w>
布 尔</w>
威 力</w>
备 案</w>
地 缘</w>
四川 省</w>
吉 隆坡</w>
受 苦</w>
卢卡 申科</w>
北京 大学</w>
办 案</w>
前 述</w>
出 国</w>
几 千</w>
军 工</w>
公 决</w>
信 守</w>
信 中</w>
伊利沙 伯</w>
五 中全会</w>
中 转</w>
一 朝
v i</w>
i m
198 3年</w>
阿 布
邮 轮</w>
遗 症</w>
遗 孀</w>
通 宵</w>
路 子</w>
谭 国
谭国 器</w>
警 民</w>
获 知</w>
而 应</w>
老 一
缺 水</w>
维多 利亚</w>
结 核
种 各样</w>
祸 首</w>
矿 产</w>
白 白</w>
生 病</w>
环 球</w>
永 波</w>
朝 向</w>
数 十亿</w>
捕 捞</w>
招 收</w>
抽 调</w>
扰 民</w>
手 软</w>
戴 河</w>
心 血</w>
心 灵</w>
官 邸</w>
墨西 哥
基本 建设</w>
均 等</w>
在 即</w>
在 乎</w>
唯 物
告 一
告一 段落</w>
后 遗症</w>
各 种各样</w>
双 层</w>
北 戴河</w>
制 成品</w>
别 无
分 队</w>
冬 季</w>
儿 科</w>
伤 心</w>
任 免</w>
他 国</w>
予 人</w>
主席 团</w>
主 旨</w>
专 职</w>
不 要紧</w>
一百 五十</w>
2. 5</w>
齐 全</w>
黑 兰</w>
驻 守</w>
马 英
靠 性</w>
零 件</w>
长 城</w>
钞 票</w>
连 贯
连贯 性</w>
辨 认</w>
车 头</w>
贷 款额</w>
谈 判
西 洋</w>
联 赛</w>
联 委会</w>
而 喻</w>
第三 产业</w>
第一百 零
第5 8</w>
看 成</w>
玛 丽</w>
深 层</w>
淤 泥</w>
水 务</w>
每 份</w>
查 证</w>
未 尝</w>
未 决</w>
服 役</w>
无 损</w>
提 法</w>
择 手段</w>
抽 出</w>
折 不
打 折扣</w>
想 象</w>
德 黑兰</w>
徐 匡
徐匡 迪</w>
影 子</w>
式 微</w>
广 义</w>
工作 员</w>
岁 数</w>
局 促</w>
定 决心</w>
安 稳</w>
大 声
大声 疾呼</w>
复 制</w>
向 性</w>
合 物</w>
台 胞</w>
可 靠性</w>
参 差</w>
参 展</w>
印 发</w>
劳 苦</w>
别无 选择</w>
分 部</w>
决 战</w>
其 妙</w>
六 百
光 彩</w>
停 办</w>
仁 爱</w>
中 纪委</w>
两 旁</w>
不言 而喻</w>
不 择手段</w>
不 堪</w>
下 定决心</w>
一 而
on g
18 00</w>
高 尚</w>
驶 入</w>
马英 九</w>
面 试</w>
面 子</w>
非 国
邮 政局</w>
邪 恶</w>
退 学</w>
远 超</w>
谈判 桌</w>
萨 尔
苏 省</w>
航 权</w>
脑 筋</w>
纤 维</w>
科教 兴国</w>
矿 业</w>
直 截
直截 了
直截了 当</w>
留 学</w>
电 灯</w>
生 物
熟 能
漫 画</w>
海 生</w>
沈 阳</w>
江 苏省</w>
汇 款</w>
残 害</w>
样 子</w>
查 问</w>
李 文
有 意思</w>
有 志</w>
无 非</w>
政 要</w>
招 生</w>
抚 恤金</w>
性 病</w>
思 量</w>
志愿 军</w>
已 故</w>
在 所
国 策</w>
国 安</w>
四 点</w>
吞吐 量</w>
合作 社</w>
友 善</w>
卢 森
加油 站</w>
切 尼</w>
公益 金</w>
何 须</w>
低 价</w>
伊万 诺夫</w>
于 永波</w>
中 德</w>
上 议院</w>
三 思</w>
一朝 一
一朝一 夕</w>
4 月份</w>
198 0年</w>
黑 市</w>
驾 驭</w>
马 普
马普 托</w>
野 战</w>
造 价</w>
这 家</w>
跨 入</w>
赖 昌
贸易 经济
贸易经济 合作
贸易经济合作 部</w>
象 牙</w>
记 载</w>
计 分</w>
规 矩</w>
落 空</w>
莫 名
莫名 其妙</w>
船 厂</w>
耳 熟能
耳熟能 详</w>
老一 辈</w>
罗 德</w>
罗 安达</w>
缔 结</w>
统 营</w>
结核 病</w>
组 长</w>
纵 然</w>
第二十 七</w>
章 节</w>
磨 擦</w>
盗窃 罪</w>
监 工</w>
登记 费</w>
登记 处</w>
王 毅</w>
牺 牲
牺牲 品</w>
治 病</w>
民 警</w>
格 鲁
杯 赛</w>
本 月底</w>
有 法
曙 光</w>
旁 边</w>
斯 达
教 主</w>
政 团</w>
愚 蠢</w>
御 用</w>
对外 贸易经济合作部</w>
孕 育</w>
委 托
奉 公
奉公 守法</w>
圣 经</w>
哈 尔
原 文</w>
卢森 堡</w>
加 派</w>
八 六年</w>
五 .</w>
二氧化 硫</w>
买 方</w>
乎 其
乌 兰
主 宰</w>
一九八 零年</w>
v er
9 99</w>
9 4年</w>
4 .5%</w>
阿 卜杜
阔 斧</w>
长 治
长治 久
长治久 安</w>
遗 属</w>
通 社</w>
退 役</w>
车 道</w>
贴 切</w>
责 骂</w>
诱 使</w>
记 分</w>
计 较</w>
补 习</w>
藏 族</w>
蒂 冈</w>
英 美</w>
若 罔
若罔 闻</w>
航运 业</w>
置 若罔闻</w>
精 彩</w>
第5 7</w>
立法 权</w>
盛 大</w>
病 菌</w>
疾 苦</w>
王 泽
王泽 长</w>
狭 隘</w>
港 督</w>
海 运</w>
浏 览</w>
洛 斯</w>
法 郎</w>
水 泥</w>
武 官</w>
梵 蒂冈</w>
标准 化</w>
收 拾</w>
撤 消</w>
掩 护</w>
推 动力</w>
房 署</w>
得 其
年 头</w>
巴 托</w>
奕 信</w>
大 抵</w>
大 声</w>
大 刀
大刀 阔斧</w>
多 方</w>
备 用</w>
唱 片</w>
周 密</w>
受 制</w>
厚 铧</w>
压 低</w>
印 刷
单 向</w>
北 欧</w>
剖 析</w>
分 摊</w>
分 家</w>
出口 商</w>
共 和</w>
傍 晚</w>
倍 增</w>
人 事
于 海生</w>
二十 六</w>
事 主</w>
a p
9 00万</w>
5 3
27 %</w>
199 6</w>
10 月份</w>
1 100</w>
风 浪</w>
道 琼斯</w>
该 案</w>
试 用</w>
论 文</w>
警 示</w>
草 药</w>
自 来
自来 水</w>
署 名</w>
粉 碎</w>
立 论</w>
看 好</w>
电视 机</w>
用 处</w>
灾 民</w>
潘 永祥</w>
漂 亮</w>
流 动
流动 资金</w>
洽 谈</w>
杀虫 剂</w>
期 盼</w>
新 式</w>
斥 资</w>
拜 登</w>
投 降</w>
微 乎其
微乎其 微</w>
得 税</w>
幸 而</w>
就 医</w>
小 心
增 派</w>
参 谋</w>
参 访</w>
即 使
即使 如此</w>
单 极</w>
华 尔
先 锋</w>
信 奉</w>
何 厚铧</w>
体 察</w>
主 线</w>
严 禁</w>
不 怕</w>
下 榻</w>
下 场</w>
上 去</w>
一九七 一年</w>
一 概</w>
h e
4 分</w>
27 a</w>
2 1%</w>
199 5</w>
-- --
龄 化</w>
高 利
高利 贷</w>
风 格</w>
障 碍
障碍 物</w>
隐 患</w>
陈 旧</w>
道 远</w>
轻 轻</w>
轮 流</w>
若 能</w>
自 此</w>
署 正</w>
精 通</w>
短 短
短短 的</w>
用 电量</w>
特 意</w>
爆 裂</w>
游 击
海 滨</w>
海 南省</w>
油 类</w>
水 车
最 先</w>
摸 索</w>
指 望</w>
拘 禁</w>
承包 商</w>
扒 窃</w>
家 乡</w>
委 实</w>
如 实</w>
唤 起</w>
唐 飞</w>
各 人</w>
召 集</w>
句 号</w>
化 合物</w>
劣 势</w>
划 界</w>
农 作物</w>
军 营</w>
免 疫</w>
克 莱
优 美</w>
任 重
人 防</w>
五十 万</w>
互 让</w>
二十 一</w>
乌兰 巴托</w>
上 帝</w>
9 0万</w>
6 .</w>
3 7%</w>
19 亿</w>
1. 5</w>
黑 客</w>
黄 星
黄星 华</w>
领导 者</w>
长 度</w>
锲 而不
锲而不 舍</w>
钟 会
钟会 响</w>
酿 成</w>
逆 施</w>
达 赖
赖昌 星</w>
赖 以</w>
警 权</w>
角 力</w>
西 斯</w>
行 逆施</w>
船 长</w>
自 修</w>
胡 法
胡法 光</w>
胆 量</w>
第三 世界</w>
第4 7</w>
秋 天</w>
社 康</w>
监 管
百 货
现 年</w>
犹 太
特 ·
照 料</w>
渲 染</w>
消 闲</w>
消 耗
海 床</w>
浮 现</w>
洗 手
洗手 间</w>
河 北省</w>
水车 薪</w>
杯 水车薪</w>
暂 时性</w>
无 误</w>
政 绩</w>
改 正</w>
改 制</w>
排 列</w>
拼 搏</w>
承 接</w>
执 意</w>
才 智</w>
手 机</w>
恰 恰</w>
年 终</w>
币 值</w>
巴 拉
小 量</w>
审 结</w>
学 说</w>
奖 赏</w>
头 号</w>
大 笔</w>
多 尔</w>
地 上</w>
喜 爱</w>
可 知</w>
历 年来</w>
卷 入</w>
分 居</w>
凸 显</w>
关 长</w>
共 知</w>
全 区</w>
倒 行逆施</w>
人所 共知</w>
交易 日</w>
五 百
互 通</w>
于 民</w>
中 流</w>
中 标</w>
东 北
不 仅仅</w>
一 一年</w>
a l</w>
4 3%</w>
3 5亿</w>
龙 湾</w>
高 雄</w>
音 像</w>
适 得其
适得其 反</w>
连 日
连日 来</w>
进 去</w>
运动 场</w>
达赖 喇嘛</w>
跻 身</w>
路 斯</w>
资 企业</w>
财 长</w>
记 忆
讨 论会</w>
规 章</w>
落 选</w>
荔 枝</w>
苦 难</w>
自 付</w>
脚 踏
而 代之</w>
群 之
群之 马</w>
罚 性</w>
精 明</w>
米 洛
社会 党</w>
礼 物</w>
炮 制</w>
深 渊</w>
浦 路斯</w>
注 释</w>
来 信</w>
暑 期</w>
普 及
敌 视</w>
放 假</w>
攻 关</w>
撤 退</w>
战 事</w>
感 化</w>
惩 罚性</w>
情 谊</w>
性 行为</w>
德 育</w>
尖 端</w>
射 程</w>
害 群之马</w>
外 人</w>
塞 浦路斯</w>
堪 称</w>
否 决权</w>
变 幻</w>
取 而代之</w>
发 动机</w>
勉 励</w>
刘 淇</w>
切尔 诺贝尔</w>
切尔 诺
减 去</w>
偏 向</w>
主 力</w>
东 北部</w>
三 时</w>
sar s</w>
e m
d i
餐 会</w>
锦 田</w>
赡 养</w>
谷 底</w>
该 报</w>
舒 服</w>
自 强</w>
胜 地</w>
老 龄化</w>
约 合</w>
紫 光
紫光 阁</w>
管理 权</w>
管理 员</w>
第 九
祥 和</w>
石 化</w>
直 达</w>
百货 公司</w>
电影 节</w>
王 兆
深 火热</w>
消 化</w>
沙 漠</w>
汇 聚</w>
水 深火热</w>
毕 生</w>
每 况
每况 愈
每况愈 下</w>
款 式</w>
欧 亚</w>
欣 然</w>
欣 喜</w>
格鲁 吉
格鲁吉 亚</w>
栖 身</w>
构 筑</w>
权 宜
有 损</w>
有 云</w>
无 情</w>
斯 克</w>
数 字
效 忠</w>
成 见</w>
意 向
恶 性
总 计</w>
忠 于</w>
微 妙</w>
影 印</w>
帷 幕</w>
帕 伊</w>
层 层</w>
尽 力而
尽力而 为</w>
导 员</w>
妨 害</w>
奢 侈
失 灵</w>
夕 阳</w>
墨西哥 城</w>
垃圾 堆</w>
同 心</w>
同 声</w>
十 时</w>
劳 务</w>
前 身</w>
初 次</w>
养 成</w>
体育 界</w>
伪 装</w>
休 假</w>
亦 有权</w>
九 零</w>
个 月</w>
世界 杯赛</w>
上 个月</w>
万 万</w>
3 时</w>
2 20</w>
18 .
1 000万</w>
高 额</w>
飞 往</w>
际 关系</w>
附 上</w>
门 前</w>
递 减</w>
逃 生</w>
述 评</w>
转 告</w>
越 共</w>
议 书</w>
计 议</w>
虚 报</w>
自卫 队</w>
置 信</w>
罕 默
穆 罕默
矛 头</w>
直 属</w>
皇 岗</w>
电 波</w>
瓦 杰
瓦杰 帕伊</w>
猜 疑</w>
特 网</w>
烧 伤</w>
灌 溉</w>
漏 水</w>
滔 滔</w>
温 暖</w>
海 洋
污 点</w>
求 学</w>
武 断</w>
核 武</w>
权宜 之
权宜之 计</w>
早 晨</w>
施 罗德</w>
据 此</w>
担 子</w>
把 关</w>
意向 书</w>
总 政治部</w>
将 领</w>
导 师</w>
客 机</w>
孕 妇</w>
奇 迹</w>
在 野
国防 大学</w>
因 特网</w>
分 支</w>
关 系
六 亿</w>
公正 无私</w>
偏 颇</w>
假 象</w>
保 税</w>
便 于</w>
份 量</w>
代 为</w>
人 际关系</w>
亲 眼</w>
二氧化 碳</w>
中国 科学院</w>
不 适</w>
上 扬</w>
m i
8 ·
19 3
魅 力</w>
高 素质</w>
预 制</w>
隐 蔽</w>
闯 入</w>
连 锁
超级 大国</w>
资 政</w>
该 部</w>
行 贿</w>
蓝 军</w>
菌 者</w>
苹 果</w>
能 为
能为 力</w>
联 军</w>
耕 耘</w>
翻 天</w>
缓 冲</w>
经济 危机</w>
神 经</w>
现 成</w>
环 绕</w>
烟 火</w>
烈 科</w>
烈 士</w>
火 炮</w>
海 南
海南 岛</w>
流 弊</w>
洋 溢</w>
法 典</w>
汇 价</w>
永 豪</w>
毁 坏</w>
残 忍</w>
木 材</w>
显 出</w>
无 能为力</w>
截 获</w>
廖 烈科</w>
带 菌者</w>
巴 方</w>
尽 责</w>
失 调</w>
多样 性</w>
外 在</w>
夏 永豪</w>
复 原</w>
基础 性</w>
场 上</w>
告 诫</w>
反 正</w>
南 京
勘 探</w>
加勒 比</w>
制 导</w>
分 批</w>
出 身</w>
农 药</w>
克 雷
何 尝</w>
体 力
亲 戚</w>
之 徒</w>
主办 者</w>
东 扩</w>
一 审</w>
b .</w>
a i
3 3%</w>
14 000</w>
魁 祸首</w>
野 蛮</w>
重 现</w>
避 风</w>
远 东</w>
运 转</w>
趁 机</w>
说 来</w>
误 用</w>
评 语</w>
萧 条</w>
英文 版</w>
苏 州</w>
舟 共济</w>
肆 虐</w>
美 满</w>
罪 魁祸首</w>
网 商</w>
筹 建</w>
空 话</w>
穆 沙
看 管</w>
由 非</w>
由 公</w>
用 水量</w>
甘 肃</w>
玫 瑰
王兆 国</w>
牵 引</w>
烟 民</w>
水 流</w>
气 愤</w>
模 型</w>
时 装</w>
政 者</w>
摄 影
接 办</w>
指挥 部</w>
拍 板</w>
手 枪</w>
怨 气</w>
得 失</w>
归 侨</w>
弥 敦道</w>
山 西</w>
少 年
天 灾</w>
大 厅</w>
多 彩</w>
声 望</w>
圣 诞</w>
固 网商</w>
喜 好</w>
善 良</w>
同 舟共济</w>
叫 做</w>
发 电量</w>
华尔 街</w>
升 值</w>
冷 却</w>
公 海</w>
公 民权</w>
倚 重</w>
侨 胞</w>
使用 权</w>
低 点</w>
主 角</w>
主 义
为 难</w>
业 性</w>
上 岗</w>
一而 再</w>
g i
d o
20 2
0 9
鲤 鱼</w>
鲜 有</w>
首 季</w>
飞 越</w>
风 俗</w>
预 祝</w>
靠 近</w>
长 篇
逐 项</w>
适 量</w>
连 三</w>
超 支</w>
计划 书</w>
莫 斯</w>
股份 制</w>
联 名</w>
精 采</w>
精 益
精益 求
精益求 精</w>
种 子</w>
盛 情</w>
监护 人</w>
皆 是</w>
病 态</w>
留 下来</w>
特 派员</w>
滞 后</w>
海 产</w>
波 音</w>
氧 气</w>
毫 米</w>
正 值</w>
格 拉
校 务</w>
无 穷</w>
方 略</w>
摩 托
接 二
接二 连三</w>
抹 黑</w>
抵 消</w>
恶性 循环</w>
总 纲</w>
忧 心</w>
彼 得
家 访</w>
实 物</w>
存 疑</w>
奢侈 品</w>
天 地</w>
告 终</w>
受 骗</w>
发 射
又 是</w>
单 边</w>
前 天</w>
出 击</w>
公 关</w>
入 场</w>
侵 占</w>
会 费</w>
休 止</w>
以 备</w>
交易 会</w>
不 无</w>
下 文</w>
8 .</w>
鲜 花</w>
重 机</w>
遗 传</w>
辩 证</w>
辨 识</w>
身 体力
身体力 行</w>
起 重机</w>
起 伏</w>
讨 厌</w>
认 罪</w>
虚 拟</w>
萨 德</w>
英文 科</w>
致 于</w>
自食其 力</w>
自然 灾害</w>
自 费</w>
自 主
联 部</w>
纽 带</w>
眉 睫</w>
白 人</w>
症 状</w>
由 来
由来 已
由来已 久</w>
瓜 多尔</w>
班 人</w>
玫瑰 园</w>
玉 明</w>
牲 畜</w>
焚 烧</w>
热 水</w>
烟 雾</w>
滋 事</w>
游 人</w>
浙 江省</w>
法 西斯</w>
汪 道
永 恒</w>
气 馁</w>
民主 主义</w>
根 治</w>
普 里
普 遍
明 了</w>
时 事</w>
斯特 拉
文化 部</w>
撞 击</w>
折不 扣</w>
感 触</w>
惊 喜</w>
急 性</w>
快 要</w>
弥 漫</w>
幸 免</w>
年 薪</w>
幌 子</w>
布 赫</w>
小 的</w>
小 小的</w>
姑 息</w>
奥 斯
天 津
和平 谈判</w>
听 见</w>
合 成</w>
古 代</w>
厄 瓜多尔</w>
化 为</w>
刚 巧</w>
军 装</w>
党 纲</w>
侵 华</w>
亲 密</w>
交 叉</w>
二十 二</w>
书 写</w>
乌 鲁
中 联部</w>
中 朝</w>
中 性</w>
严 加</w>
东北 亚</w>
不 见</w>
不 致于</w>
不 折不扣</w>
三 不</w>
e p</w>
9 .</w>
200 %</w>
10 5</w>
1 时</w>
齿 相
齿相 依</w>
鸿 沟</w>
领 馆</w>
防 盗</w>
销售 额</w>
金 克尔</w>
野 心</w>
里 约
里约 热
里约热 内
里约热内 卢</w>
邻 里</w>
过 于求</w>
软 弱</w>
车 玉明</w>
越 是</w>
走私 案</w>
贴 近</w>
角 落</w>
蜗 牛</w>
自 卫</w>
耐 性</w>
美 朝</w>
终 生</w>
组 件</w>
纵 观</w>
第二十 五</w>
第一百五十 九</w>
第5 2</w>
用 膳</w>
犯罪 率</w>
熊 光
熊光 楷</w>
港澳 办</w>
汇 演</w>
检查 站</w>
检 阅</w>
栋 梁</w>
无 能</w>
救 济
放 债</w>
收 据</w>
持 续性</w>
拉 赫
抬 头</w>
报 警</w>
房 产</w>
惨 痛</w>
总 司令</w>
思 潮</w>
律 师
律师 费</w>
形 同
形同 虚设</w>
录 音</w>
弹 劾</w>
开 采</w>
开 庭</w>
小 麦</w>
子 弹</w>
好 比</w>
奢 望</w>
央 行</w>
外 务</w>
在野 党</w>
团 费</w>
四 方</w>
唇 齿相依</w>
可 乘</w>
县 级</w>
协 议书</w>
刘华 秋</w>
分 贝</w>
兰 州</w>
六 分</w>
全国 总工会</w>
全 速</w>
先 天
保守 党</w>
供 过于求</w>
但 愿</w>
会 徽</w>
众 议员</w>
中央 电视台</w>
不法 之徒</w>
上 层
一 阵</w>
s e
q u
c e
5 7
13 00</w>
黄 河</w>
麻 疹</w>
高 调</w>
食 堂</w>
题 为</w>
集 体
随 行</w>
间 断</w>
长篇 大
长篇大 论</w>
近 似</w>
贸 促
贸促 会</w>
质 文明</w>
调 度</w>
诗 佳</w>
要 害</w>
表 决
表决 器</w>
血 压</w>
缴 获</w>
纽 西兰</w>
约 见</w>
社会 效益</w>
眼 镜</w>
盗 用</w>
男 童</w>
甲 级</w>
球 员</w>
物 质文明</w>
炽 热</w>
清 还</w>
流 程</w>
沼 气</w>
汪道 涵</w>
检 测</w>
梅 尔
标 明</w>
李 长春</w>
李 诗佳</w>
有机 可乘</w>
有 期徒刑</w>
是 大
是大 非</w>
明 钦</w>
新 春</w>
揽 子</w>
挪 用</w>
打 仗</w>
所 向</w>
成 数</w>
悼 念</w>
广 告
展 出</w>
层 出
层出 不
层出不 穷</w>
尽 其
害 处</w>
大 是大非</w>
复 修</w>
增 速</w>
地 下水</w>
图 表</w>
参谋 部</w>
危 急</w>
博 尔
加 班</w>
列 表</w>
出 面</w>
其 量</w>
八 亿</w>
充 其量</w>
佩 服</w>
传 呼
休 闲</w>
乌鲁 木
之 以
丰 富
不 解</w>
不 渝</w>
七 万</w>
一 派</w>
一 整套</w>
一 揽子</w>
p ar
it y</w>
24 0</w>
197 5年</w>
100 00</w>
黑 色</w>
马 拉</w>
预 选</w>
雨 量</w>
院 内</w>
陈 德
阿 族</w>
闹 事</w>
铺 位</w>
铁 路
鉴 定</w>
适 中</w>
赶 到</w>
赛 车</w>
赔 偿
诚 如</w>
西 药</w>
补 给</w>
行 得
行得 通</w>
蛇 头</w>
蒙 蔽</w>
蒂 尔</w>
艺术 节</w>
自 学</w>
背 弃</w>
肖 扬</w>
耗 尽</w>
统 战</w>
组织 者</w>
约 定</w>
称 得
称得 上</w>
碰 到</w>
省 却</w>
皇 后</w>
电 池</w>
热 带</w>
波 斯</w>
波 及</w>
水 中</w>
欣 悉</w>
检察 长</w>
框 框</w>
柯 士
李文 和</w>
朝 野</w>
有 发生</w>
时 有发生</w>
无 不</w>
斡 旋</w>
文 中</w>
扫 除</w>
打 入</w>
打 倒</w>
悲 痛</w>
恰 好</w>
思 危</w>
工 同
工同 酬</w>
小心 谨慎</w>
小 事</w>
寥 寥
宇 宙</w>
孙 中山</w>
天 才</w>
增 发</w>
囚 禁</w>
嘉 宾</w>
同 工同酬</w>
吉 林</w>
卡 拉
升 空</w>
勤 劳</w>
出 价</w>
军 兵种</w>
停 机</w>
低 调</w>
交 道</w>
二00 一</w>
九 九年</w>
乙 烯</w>
东 山
不 平</w>
下 游</w>
一年 一度</w>
一 家</w>
m ar
4 00亿</w>
25 0万</w>
15 0亿</w>
齐 心</w>
高 温</w>
震 撼</w>
随 之
随之 而来</w>
钱 彤</w>
部 件</w>
选 团</w>
迪 瓦</w>
车 票</w>
路 程</w>
贺 电</w>
试 看</w>
议 联</w>
装 甲</w>
肢 体</w>
翻 开</w>
缺 口</w>
纳 尔</w>
箭 牌</w>
第一 线</w>
穆沙 拉夫</w>
秋 季</w>
的 是</w>
电影 院</w>
用 忍</w>
生 署会</w>
海 鲜</w>
海 豚</w>
流 转</w>
沙 龙</w>
正 气</w>
歉 意</w>
李 明
更 进一步</w>
暂 且</w>
普及 率</w>
早 报</w>
斯 科
挡 箭牌</w>
持 证</w>
抱 负</w>
戒 急
戒急 用忍</w>
愚 昧</w>
心 意</w>
归 功</w>
幼 稚</w>
局 外</w>
尾 巴</w>
安 德
妄 想</w>
大 好</w>
喜 悦</w>
吴 作
吴作 栋</w>
同 一
吃 惊</w>
史 实</w>
历 任</w>
化学 武器</w>
务 部</w>
加 沙</w>
刻 苦</w>
创造 力</w>
兵 器</w>
克 里斯
停 业</w>
做 人</w>
偏 僻</w>
倾 听</w>
借 款人</w>
供 词</w>
人 和</w>
于 事</w>
二 .</w>
事务 所</w>
事 迹</w>
东 海</w>
不 菲</w>
下 工夫</w>
三 国</w>
一 齐</w>
一 角</w>
一 次
v e
6 -0
5 月份</w>
4 2%</w>
24 亿</w>
17 .
驱 使</w>
频 谱</w>
非 技术</w>
闻 名</w>
镜 头</w>
钱 财</w>
过 滤</w>
车 牌</w>
谬 论</w>
课 目</w>
试 射</w>
西 亚
虽 说</w>
若 真</w>
致 癌</w>
腾 空</w>
脚踏 实地</w>
简 洁</w>
空 地</w>
独 家</w>
独 一无
独一无 二</w>
犯 上</w>
湖 北省</w>
泄 露</w>
毒 性</w>
歧 途</w>
梁 锦</w>
查 办</w>
果 然</w>
机 能</w>
术 语</w>
本 部</w>
更 是</w>
普遍 性</w>
早 就</w>
播 映</w>
推 崇</w>
挑 战
护 航</w>
执 委会</w>
必 要
弗 拉
建 树</w>
小 姐</w>
安全 性</w>
如 常</w>
塞尔 维亚</w>
在所 难免</w>
圣诞 节</w>
司 署</w>
卫生 部</w>
匮 乏</w>
分 段</w>
写 照</w>
共 事</w>
公 仆</w>
倒 数</w>
中 信</w>
不法 分子</w>
不容 置疑</w>
不 觉</w>
不 只</w>
七 百
f ic
e x
8 .5%</w>
3 8%</w>
2 8%</w>
18 000</w>
13 000</w>
10 3</w>
. p
马 列
马列 主义</w>
青 海</w>
随 机</w>
限 量</w>
身 心
身心 健康</w>
谢 尔
谊 会</w>
设 计师</w>
言 词</w>
角 逐</w>
行 情</w>
蒂 奇</w>
艺术 界</w>
舞 蹈</w>
自 封</w>
联 谊会</w>
考 克斯</w>
纵 深</w>
睦 相处</w>
盖 达</w>
犹太 人</w>
火 器</w>
演 员</w>
派 别</w>
水 路</w>
星 球</w>
旭 东</w>
斯 托
文 版</w>
救 火</w>
推 委</w>
情 报
总 领事馆</w>
念 头</w>
必要 条件</w>
徘 徊</w>
录 音
岛 屿</w>
尚 且</w>
封 建
导 游</w>
实 业</w>
学 礼</w>
外 乎</w>
垂 直</w>
地 形</w>
地 处</w>
在 野</w>
在 今午</w>
哈 瓦
和 睦相处</w>
呼 应</w>
各 省</w>
可 数</w>
厌 恶</w>
南 华</w>
卖 方</w>
单 据</w>
匆 忙</w>
包 围</w>
劝 阻</w>
准 予</w>
关系 史</w>
关 联</w>
公 款</w>
公 司法</w>
党 团</w>
保健 员</w>
侵 略
传 来</w>
优 越
仇 恨</w>
人 情</w>
交通 部</w>
二 万
义 务
为数 不多</w>
中 文版</w>
东道 主</w>
世 代</w>
不 曾</w>
不 好
不 外乎</w>
不 复
下 达</w>
一 中</w>
h y
7 50</w>
6-0 7</w>
3 2%</w>
2. 8%</w>
2 6%</w>
19 .
17 万</w>
12 a</w>
11 年</w>
11 亿</w>
黑 工</w>
顽 强</w>
面 世</w>
青 岛</w>
错 过</w>
迷 惑</w>
轮 值</w>
赵 启
赵启 正</w>
赔偿 金</w>
调查 局</w>
请 教</w>
该 市</w>
订 价</w>
警 号</w>
血 管</w>
芯 片</w>
置 之
网 络
缓 冲
纳 粹</w>
红 潮</w>
签 定</w>
第5 3</w>
立 特
称 许</w>
社 联</w>
痴 呆</w>
畜 牧业</w>
生 气</w>
王 后</w>
牢 记</w>
照 样</w>
海洛 因</w>
济 南</w>
流 亡</w>
注 销</w>
沙 特
水 电</w>
水 化</w>
正 版</w>
果 真</w>
本 加
本加 厉</w>
昌 盛</w>
旅 程</w>
新 区</w>
搬 运</w>
接 再
接再 厉</w>
挫 败</w>
成 章</w>
惶 惶</w>
恳 切</w>
开 局</w>
尽 美</w>
尽 善
尽善 尽美</w>
尼 克
宣 示</w>
头 等</w>
复 查</w>
堂 皇</w>
地 契</w>
司 马
变 本加厉</w>
厄 立特
半 功
半功 倍</w>
再 接再厉</w>
倡 廉</w>
例 会</w>
作 案</w>
似 的</w>
众 人</w>
伊 尔</w>
些 年</w>
事 半功倍</w>
了 不起</w>
中国 海</w>
两 极</w>
不 胜
下 决心</w>
v iii</w>
p or
m o
200 6-07</w>
18 亿</w>
16 年</w>
鼓 掌</w>
难 者</w>
阿 米
锋 队</w>
银行 家</w>
钻 石</w>
重 伤</w>
造 纸</w>
运 气</w>
身 而出</w>
起 彼
败 诉</w>
误 差</w>
记忆 犹
记忆犹 新</w>
记 住</w>
计划 署</w>
衣 物</w>
苗 学礼</w>
自 行车</w>
脱 贫</w>
综合 症</w>
终 日</w>
紊 乱</w>
第4 9</w>
竞 逐</w>
祝 福</w>
眼 科</w>
电 网</w>
热 地</w>
游击 队</w>
民 怨</w>
此 起彼
核 潜艇</w>
期 刊</w>
有 工</w>
曲 解</w>
方 能</w>
敌 意</w>
挺 身而出</w>
总 支出</w>
忌 惮</w>
实 弹</w>
妇 孺</w>
好 评</w>
复杂 化</w>
在 任</w>
回 旋</w>
品 德</w>
同一 天</w>
吉 佩
吉佩 定</w>
危 机
占 地</w>
博 爱</w>
北 大</w>
创 汇</w>
列 强</w>
刑事 犯罪</w>
全 身</w>
克 扣</w>
先 锋队</w>
修 订
低 微</w>
于 某</w>
n o
: 0</w>
5 ·
3 ·
23 亿</w>
199 6-97</w>
12 2</w>
11 7</w>
黎 明</w>
鸡 蛋</w>
青 洲</w>
集 中
险 恶</w>
酒 会</w>
通讯 员</w>
途 经</w>
迟 疑</w>
过 硬</w>
赤 裸
赤裸 裸</w>
贫 乏</w>
谋 而
谋而 合</w>
诱 发</w>
译 本</w>
誉 为</w>
缓冲 区</w>
纪念 碑</w>
纪 要</w>
索 引</w>
糖 尿
糖尿 病</w>
第6 8</w>
第6 1</w>
第5 5</w>
第5 1</w>
税 种</w>
督 学</w>
相 当
相当 于</w>
用 字</w>
甘 心</w>
瓶 颈</w>
王光 亚</w>
牵 头</w>
熟 习</w>
然 无
流 向</w>
波 折</w>
水 表</w>
民 协
欺 凌</w>
样 式</w>
柯士 文</w>
来 京</w>
杞 人
杞人 忧
杞人忧 天</w>
新 颖</w>
斟 酌</w>
改 名</w>
探 亲</w>
挂 牌</w>
战 火</w>
戈 斯</w>
情 节</w>
总 产值</w>
徒 然</w>
开 战</w>
并 肩</w>
工作 队</w>
就 近</w>
宽 大</w>
宣传 品</w>
安 抚</w>
安 乐
妙 药</w>
大 方</w>
四 小龙</w>
哈瓦 那</w>
后 过渡期</w>
台 资</w>
口 中</w>
原 告</w>
南 中国海</w>
凭 空</w>
减 缓</w>
减 产</w>
冰 山</w>
农 田</w>
军 种</w>
党 籍</w>
先 导</w>
何 而来</w>
伸 张</w>
伊 始</w>
主 政</w>
中小 学生</w>
丛 生</w>
不 谋而合</w>
不 住</w>
上层 建筑</w>
上 演</w>
ti on
s er
g h
co un
8 5000</w>
3 5000</w>
3 4%</w>
199 4</w>
16 万</w>
11 a</w>
风 力</w>
预 备
顺 理
顺理 成章</w>
震 动</w>
雅 捷</w>
附 设</w>
队 长</w>
遗 失</w>
过 急</w>
踏 实</w>
购 回</w>
账 户</w>
该 党</w>
译 员</w>
言 行
观 望</w>
萨拉 热
萨拉热 窝</w>
耗 用</w>
而 今</w>
群 众
美 孚</w>
缄 默</w>
纯 利</w>
窗 户</w>
科 大</w>
监管 者</w>
球 迷</w>
灵 顿</w>
游 乐</w>
深 井</w>
消耗 量</w>
海洛 英</w>
沙 特</w>
求 医</w>
汀 九
汀九 桥</w>
本 意</w>
明 政</w>
无 畏</w>
数 次</w>
教 士</w>
操 之
操之 过急</w>
挑 剔</w>
挂 钩</w>
拉 斯
拉 尔</w>
抗 洪</w>
打 交道</w>
志 刚</w>
征 集</w>
引 言</w>
建 军</w>
工 贸</w>
小 商</w>
尊 贵</w>
将 近</w>
实 惠</w>
学 分</w>
始终 不渝</w>
奢 侈</w>
天津 市</w>
复 诊</w>
坎 代</w>
国 歌</w>
回 收率</w>
台 币</w>
变 卖</w>
反 面</w>
卡 尔
剥 落</w>
刑 警</w>
分 派</w>
兼 并</w>
养 殖
六 十
公 事</w>
全 然</w>
侵 袭</w>
侵 扰</w>
伯 雄</w>
代 码</w>
互 连</w>
买 主</w>
主 动性</w>
中国 证监会</w>
东 西方</w>
不 难</w>
ti on</w>
i a</w>
3 2
高 地</w>
验 收</w>
风 景</w>
非国 大</w>
非 统</w>
阳 市</w>
门 户</w>
通 信
选 平</w>
远 哲</w>
进 来</w>
运 载
运载 火箭</w>
谩 骂</w>
警 戒</w>
视 力</w>
补 选</w>
蒙 特
莱 斯</w>
莫 如</w>
草 签</w>
苏 哈
肺 癌</w>
肆 无
肆无 忌惮</w>
而 未决</w>
美 援
组 委会</w>
索 性</w>
笼 罩</w>
登 机</w>
涉 外</w>
法 学</w>
油 田</w>
水 区</w>
水 利
水 位</w>
气 味</w>
比 皆是</w>
比 比皆是</w>
李 远哲</w>
杀 手</w>
无 赖</w>
旗 号</w>
斯 亚
抗 美援
打 工</w>
成 才</w>
惨 重</w>
情 操</w>
悬 而未决</w>
总 参谋部</w>
怀 抱</w>
心 存</w>
开 动</w>
庆 市</w>
巴 斯</w>
山 东省</w>
好 坏</w>
多 半</w>
基 辛格</w>
国 统</w>
回 教</w>
叶 选平</w>
发电 机组</w>
反 问</w>
功 用</w>
剧 增</w>
剧 变</w>
列 夫</w>
兼 备</w>
其 三</w>
兴 办</w>
关 掉</w>
六 千
便 捷</w>
侨 眷</w>
体 罚</w>
会 儿</w>
伊斯兰 教</w>
亚 行</w>
亚 的
之 意</w>
为 政</w>
中 外
专 心</w>
一九八 三</w>
一九九 八</w>
一 七</w>
45 分</w>
3 80</w>
10 6</w>
颁 奖</w>
鞍 钢</w>
集 水区</w>
难以 置信</w>
陈 寿
陈寿 霖</w>
长 计议</w>
退 缩</w>
追 寻</w>
迁 徙</w>
迁 就</w>
车 上</w>
起 直
起直 追</w>
贝 巴</w>
见 智</w>
薄 彼</w>
药 材</w>
舍 维奇</w>
胁 论</w>
置之 不理</w>
继承 人</w>
统 治
紧 急
紧急 状态</w>
精 算
精算 师</w>
管 教</w>
称 呼</w>
离 退休</w>
石家 庄</w>
白 石</w>
生产 线</w>
理 力争</w>
物 体</w>
牛 肉</w>
热 忱</w>
烦 恼</w>
渗 水</w>
液 体</w>
江 西省</w>
毛 里
毒 害</w>
此 薄彼</w>
服 务员</w>
最 低点</w>
时 尚</w>
无 故</w>
无 动
无动 于
无动于 衷</w>
施 舍</w>
斯亚 贝巴</w>
斯 潘</w>
摄影 机</w>
措 词</w>
据 理力争</w>
换 代</w>
护 卫
成交 量</w>
徽 省</w>
广 为</w>
幅 员</w>
对 应</w>
家 用</w>
安 徽省</w>
学 识</w>
威 胁论</w>
奖 金</w>
失 修</w>
处 身</w>
处 以</w>
国家 级</w>
因 由</w>
各 异</w>
厚 此薄彼</w>
厌 其
厌其 烦</w>
北 美洲</w>
加 蓬</w>
功 不可
功不可 没</w>
劝 告</w>
刘华 清</w>
出 租
净 收入</w>
公安 厅</w>
八 .</w>
入 会</w>
光 大</w>
储 量</w>
停 电</w>
修订 本</w>
依 从</w>
低 潮</w>
任重 道远</w>
从 长计议</w>
人 头</w>
亚的 斯亚贝巴</w>
井 水</w>
九 百</w>
为 生</w>
丰富 多彩</w>
不 厌其烦</w>
下 挫</w>
一百 万</w>
一 味</w>
s h
d en
9 ·
9 9%</w>
5 5
197 3年</w>
14 万</w>
14 a</w>
12 0万</w>
11 5</w>
马尔 代
马尔代 夫</w>
题 材</w>
领 海</w>
面 对面</w>
陈 坤
陈坤 耀</w>
阻 截</w>
重 罚</w>
邹 春
述 明</w>
辽 阔</w>
转 播</w>
转 制</w>
说 谎</w>
议 事
议事 日程</w>
训 班</w>
觉 察</w>
要 案</w>
要 么</w>
表 露</w>
行 规</w>
蒙 古
苏哈 托</w>
自 觉性</w>
自 生
自生 自
自生自 灭</w>
罗 列</w>
米洛 舍维奇</w>
筹 资</w>
第二十 一</w>
第5 6</w>
第 二十</w>
笔 者</w>
竭 尽
竭尽 全力</w>
秉 国</w>
禽 鸟</w>
目 录</w>
畅 所欲
畅所欲 言</w>
电话 线</w>
生 还</w>
洪 森</w>
比 拟</w>
毅 力</w>
横 跨</w>
标 语</w>
林 业</w>
机 师</w>
曾 任</w>
昼 夜</w>
敬 佩</w>
政府 军</w>
操作 员</w>
摧 残</w>
挥 霍</w>
抗美援 朝</w>
扫 描</w>
戴 秉国</w>
成 规</w>
忧 患</w>
心 中
强 弱</w>
幼 童</w>
居 多</w>
局 级</w>
客 气</w>
宏 大</w>
存 亡</w>
妇 联</w>
奋 力</w>
大 权</w>
大 方向</w>
土 力</w>
因 果</w>
喜 讯</w>
呼 唤</w>
向 型</w>
合 宜</w>
各 自
可 敬</w>
受 灾</w>
历 经</w>
协 进会</w>
华 基</w>
冲 破</w>
八 分</w>
八 万
修 宪</w>
传 言</w>
会议 室</w>
优越 性</w>
义 不容
义不容 辞</w>
中外 合资</w>
专 栏</w>
三十 五</w>
三 .</w>
p r
f i
9 1年</w>
20 16年</w>
15 分</w>
.p .</w>
鸣 响</w>
鱼 塘</w>
饮 酒</w>
颖 而出</w>
预算 内</w>
静 坐</w>
难 忘</w>
限 制性</w>
门 诊
门诊 部</w>
邹春 义</w>
选 修</w>
迫 在
迫在 眉睫</w>
足 不前</w>
谱 写</w>
诉讼 费</w>
言 之
观 龙</w>
裹 足不前</w>
落 井
落井 下
落井下 石</w>
自 喜</w>
脱 颖而出</w>
胸 襟</w>
精 髓</w>
界 处</w>
申请 表</w>
狮 子</w>
犹 疑</w>
特殊 性</w>
特 遣
牌 货</w>
沾 自喜</w>
沾 沾自喜</w>
沙特 阿拉伯</w>
水 下</w>
氧化 碳</w>
毅 进</w>
检 讨会</w>
格 勒
杨 永
朝 一日</w>
有 色</w>
有 朝一日</w>
曾 建
曾建 徽</w>
景 色</w>
晓 得</w>
明 证</w>
旗 帜
旗帜 鲜明</w>
敬 重</w>
救济 金</w>
收 缴</w>
提 拔</w>
执 勤</w>
惠 灵顿</w>
心中 有数</w>
序 幕</w>
年 至</w>
工 务科</w>
山 坡</w>
尼 地</w>
小 人</w>
察 看</w>
实 非</w>
宙 斯</w>
外 泄</w>
声 浪</w>
坚 尼地</w>
地 界</w>
地 制宜</w>
因 地制宜</w>
名 言</w>
名 叫</w>
司 宪</w>
取 胜</w>
厄立特 里亚</w>
南 美</w>
华 仁</w>
午 餐会</w>
十 四
助 手</w>
出 生率</w>
写 入</w>
冒 牌货</w>
养 活</w>
党 政
光 学</w>
停 放</w>
从 不</w>
人事 部</w>
交 界处</w>
二十 八</w>
二十 三</w>
也 门</w>
九 九</w>
乘 机</w>
乐 趣</w>
义务 教育</w>
世界 市场</w>
一 章</w>
一 氧化碳</w>
4 9%</w>
1. 0
麦 隆</w>
驻 地</w>
阿 不
铭 清</w>
金 科
金科 玉
金科玉 律</w>
邦 联</w>
遍 及</w>
连 年</w>
违 犯</w>
近 亲</w>
达 卡</w>
车 轮</w>
越 权</w>
走 访</w>
苏 格兰</w>
自 用</w>
自 尊</w>
自 古
自古 以来</w>
背 负</w>
育 婴</w>
耻 辱</w>
置 身</w>
编 码</w>
绝 望</w>
组 团</w>
算 盘</w>
第一百五十 八</w>
移 送</w>
眉 之急</w>
盐 水</w>
田 径</w>
生 化</w>
燃 眉之急</w>
灭 亡</w>
滤 器</w>
源 部</w>
清 算</w>
海 协会</w>
派 对</w>
河 南省</w>
水 面</w>
水 厂</w>
水 产</w>
朝 方</w>
望 而
暂 定</w>
普 罗
日 军</w>
无 计划</w>
无 益</w>
旅 费</w>
新 华</w>
教 派</w>
招 徕</w>
拖 累</w>
护卫 舰</w>
思 想
张 铭清</w>
己 任</w>
巧 妙</w>
宣 部</w>
安 卡拉</w>
字 幕</w>
子 孙
妈 祖</w>
天 线</w>
大 公
塔 利
善 终</w>
哈 马
司法 部门</w>
号 称</w>
卡 特</w>
北 海</w>
力 图</w>
切尔诺 梅尔
冶 金</w>
军事 科学</w>
八 万</w>
克 里
停 滞</w>
候 审</w>
保护 法</w>
产 科</w>
产 假</w>
九 千</w>
中 科院</w>
中 宣部</w>
专 业性</w>
不知 不觉</w>
三 百万</w>
一 无所
一 新</w>
一 会儿</w>
一 亿
j .p.</w>
9 月份</w>
9 2%</w>
5. 5</w>
20 .
2 30</w>
13 万</w>
13 0万</w>
11 万</w>
0. 3%</w>
高 危</w>
马 科夫</w>
首 府</w>
重 金属</w>
速 递</w>
迎 头
载 道</w>
跋 涉</w>
越 战</w>
超 卓</w>
贯 通</w>
说 说</w>
论 断</w>
观 者</w>
见 效</w>
血 腥</w>
蒂 安</w>
萨 格勒
萨格勒 布</w>
莫 夫</w>
自 私</w>
能 干</w>
联 署</w>
考 量</w>
网 路</w>
续 费</w>
窃 听</w>
福 兹</w>
社 评</w>
眼 看</w>
监 测
皇 帝</w>
生产 率</w>
法 兰
民主 改革</w>
步 自封</w>
歌 曲</w>
欠 妥</w>
格 尔</w>
杰 福兹</w>
杀伤 性</w>
时 速</w>
早 年</w>
无 形
无形 中</w>
斐 然</w>
教 养</w>
探 望</w>
抵 押
才 华</w>
手 续费</w>
感 性</w>
恭 贺</w>
怨 声
怨声 载道</w>
急 起直追</w>
急 促</w>
心 底</w>
往 后</w>
廉 洁
广 州市</w>
山 水</w>
寥寥 可数</w>
完 竣</w>
安 然</w>
宇 航
姆 贝
奋 剂</w>
外 逃</w>
堕 入</w>
基 调</w>
培 训班</w>
坚 固</w>
土 墙</w>
喀 麦隆</w>
发 行
双 手</w>
原 动力</w>
南京 大屠杀</w>
南 昌</w>
区 旗</w>
切尔诺梅尔 金</w>
分 社</w>
分 局</w>
兴 奋剂</w>
关 税
党 支部</w>
假 使</w>
保 住</w>
佩 里</w>
低 空</w>
以 南</w>
人 烟</w>
乌鲁木 齐</w>
临 时
中央 纪委</w>
中 程</w>
不可 逆转</w>
不 辞
上 端</w>
n 1</w>
d r
8 3%</w>
7 月份</w>
4 8%</w>
4 3
10 9</w>
魏 茨
高 价</w>
首 屈
首屈 一
首屈一 指</w>
风 雨
风 云</w>
领 性</w>
预备 役</w>
顺 畅</w>
附 加值</w>
闭 门
金 石</w>
邮 费</w>
遍 布</w>
通 话</w>
选 中</w>
过 期</w>
辩 护
辜 负</w>
转 车</w>
责任 人</w>
谋 杀
见 仁
见仁 见智</w>
见 不
见不 鲜</w>
蓝 田</w>
蒙 骗</w>
落 入</w>
药 业</w>
航 海</w>
罗 素</w>
细 微</w>
纵 横</w>
纲 领性</w>
管 委会</w>
第 八
童 年</w>
称 霸</w>
科 协</w>
社 群</w>
直 气
直气 壮</w>
盛 华仁</w>
疗 养</w>
生 死
理 直气壮</w>
现 货</w>
清 白</w>
清 偿</w>
涅 夫斯基</w>
活 节</w>
毫不 犹豫</w>
殖民 主义</w>
柯 林顿</w>
构 造</w>
杨 国
普通 人</w>
文 官</w>
收 听</w>
擅 长</w>
摄 影</w>
提 的是</w>
换 届</w>
招 待</w>
拉 莫斯</w>
拉 戈斯</w>
抵押 品</w>
报 社</w>
扎 伊尔</w>
手 脚</w>
想 像
想像 力</w>
快 餐
帝 汶</w>
屡 见不鲜</w>
小 额</w>
寄 托</w>
实 性</w>
定 律</w>
安 危</w>
如 非</w>
大 额</w>
外 向型</w>
复 活节</w>
声 言</w>
塔利 班</w>
国 徽</w>
国 产</w>
四 国</w>
嘉 华</w>
各自 为政</w>
厦 门市</w>
十 点
加 权</w>
制 化</w>
判 罪</w>
列 确</w>
击 中</w>
出 海</w>
出 产</w>
军 火
军 力</w>
克里斯 托
克 什
值得一 提的是</w>
信 纳</w>
估 量</w>
代 办</w>
今 晨</w>
交 战</w>
亚 特
二十 七</w>
书 刊</w>
中 海</w>
中 下层</w>
两 院</w>
东 帝汶</w>
世 代
不 动</w>
m e
6 .5%</w>
3 6%</w>
3 50万</w>
27 亿</w>
25 0亿</w>
200 00</w>
2 亿
16 000</w>
驻 外</w>
阿 萨德</w>
防 汛</w>
长 途</w>
铨 叙</w>
重 庆市</w>
部 级</w>
邮 寄</w>
通 航</w>
近 些年</w>
跳 伞</w>
足 足</w>
贩 运</w>
诉讼 法</w>
解 蓉</w>
西 伯
西伯 利亚</w>
补 补</w>
蕴 藏</w>
萨 利
荡 然无
荡然无 存</w>
自主 性</w>
羽 毛
美 联
美 容</w>
美 国队</w>
编 造</w>
组织 部</w>
繁 殖</w>
神 舟</w>
确 证</w>
研 习</w>
眼 界</w>
病 历</w>
生产 者</w>
瓦 尔
犹 太</w>
特 赦</w>
滑 坡</w>
源 泉</w>
港 澳</w>
治 疗
河 水</w>
水 土</w>
步 步</w>
格 率</w>
树 备</w>
暗 中</w>
旺 盛</w>
方 向性</w>
数以 百计</w>
教 务</w>
改 称</w>
收 场</w>
支 队</w>
撰 文</w>
捕 捉</w>
战 舰</w>
战 俘</w>
感 冒</w>
惯 用</w>
急 进</w>
微 观</w>
弹 丸
弹丸 之地</w>
弱 小</w>
开 拓
并 入</w>
常 会</w>
巡 回</w>
岂 能</w>
尽心 尽力</w>
实 干</w>
姆贝 基</w>
头 目</w>
失 却</w>
培 拉</w>
地 皮</w>
在 元</w>
唯 独</w>
唐 树备</w>
味 道</w>
周 解蓉</w>
吴 平</w>
听 闻</w>
名 目</w>
危机 感</w>
南 丫
南丫 岛</w>
励 治</w>
初 衷</w>
出 走</w>
出 笼</w>
共同 市场</w>
八 百
全 程</w>
免 去</w>
克 拉克</w>
偿 付</w>
佐 夫</w>
代表 处</w>
人 听闻</w>
九 十
不可 告人</w>
不 正
上 马</w>
上 调</w>
一 身</w>
xx v</w>
t a
s a
m an
5 1%</w>
4 ·
2 80</w>
齐 兹</w>
高新 科技</w>
非 专业</w>
难 点</w>
降 温</w>
陈德 良</w>
门 面</w>
连 队</w>
辞 职
辞职 信</w>
趸 船</w>
败 坏</w>
负 债
说 穿</w>
诊 疗</w>
西 化</w>
装 载</w>
补 牢</w>
茁 壮</w>
自 选</w>
而 三</w>
美 食</w>
羊 补牢</w>
绿 灯</w>
维 生</w>
经 典</w>
线 索</w>
简 单
第6 3</w>
第 65</w>
窒 息</w>
空 隙</w>
砍 伐</w>
石 原</w>
白 表</w>
留 住</w>
用 量</w>
瓦希 涅夫斯基</w>
王 英
潜 伏</w>
测 绘</w>
洽 商</w>
洛 克
治疗 学</w>
水 箱</w>
死 去</w>
欢 乐</w>
查 验</w>
极 权</w>
来 电</w>
更 上
更上 一
更上一 层
更上一层 楼</w>
时 制宜</w>
日 美</w>
旅游 点</w>
文化 界</w>
数 值</w>
敞 开</w>
收 录</w>
振 强</w>
所欲 为</w>
戴 维
成 问题</w>
情 心</w>
必 行</w>
彭 励治</w>
张 俊
引 证</w>
带 走</w>
布 朗</w>
小 说</w>
封 杀</w>
奋 发
图 画</w>
固 执</w>
因 时制宜</w>
因 子</w>
回 事</w>
向 新</w>
向 往</w>
同 情心</w>
合 理性</w>
合 影</w>
卡 多
前 瞻</w>
制 药</w>
切 除</w>
农 奴</w>
再 而三</w>
债 务
修 养</w>
供 水量</w>
低 谷</w>
传呼 机</w>
令人 振奋</w>
亲 手</w>
产 后</w>
交 投</w>
亡 羊补牢</w>
五 百万</w>
之 风</w>
为 所欲为</w>
两 难</w>
两 回事</w>
东山 岛</w>
专 人</w>
不正 之风</w>
不 相
ser v
9 6%</w>
7 9
7 00亿</w>
5 4%</w>
19 0</w>
18 0万</w>
韩 方</w>
霍 德</w>
雅 图</w>
钟 声</w>
配 件</w>
过 滤器</w>
车 程</w>
起 重</w>
起 火</w>
起 居</w>
谈 何
谈何 容易</w>
观 赏</w>
见 影</w>
西 雅图</w>
行政 院</w>
草 地</w>
苦 苦</w>
良 策</w>
自然 保护区</w>
自 重</w>
自 居</w>
臃 肿</w>
网 民</w>
纪念 币</w>
约 翰</w>
紧 贴</w>
竿 见影</w>
立 竿见影</w>
积 存</w>
离 题</w>
礼 堂</w>
王英 凡</w>
献 身</w>
游 乐
海 牙</w>
流 通
派 系</w>
沿 途</w>
沉 痛</w>
民 工</w>
歌 词</w>
欺 压</w>
检查 组</w>
杜 尚
杜尚 别</w>
有所 作为</w>
有 可
月 刊</w>
星期 二</w>
明 星</w>
日 中</w>
旋 律</w>
新闻 公报</w>
支持 率</w>
摇 头</w>
探 究</w>
捐 献</w>
挑战 性</w>
报 实
报实 销</w>
房 租</w>
房 子</w>
战 乱</w>
感 想</w>
感 应</w>
惯 性</w>
总 编辑</w>
快餐 店</w>
忙 于</w>
引 爆</w>
年 限</w>
干 警</w>
帝 国</w>
市场 准入</w>
密 斯</w>
实 报实销</w>
好 心</w>
奴 隶</w>
女 生</w>
大 马
大 钱</w>
大 大
大 关</w>
增长 点</w>
增 产</w>
塔 米</w>
城市 化</w>
在 必行</w>
哈 塔米</w>
吴 明钦</w>
后 悔</w>
吊 车</w>
参 数</w>
医疗 费</w>
北 面</w>
势 在必行</w>
利 斯</w>
刘云 峰</w>
分 会</w>
出租 车</w>
具 体化</w>
公 有</w>
公 敌</w>
克雷 蒂安</w>
克什 米尔</w>
候 车</w>
修 补补</w>
修 修补补</w>
保险 金</w>
俊 达</w>
侵略 者</w>
仪 仗
仪仗 队</w>
九 亿</w>
丰 收</w>
东涌 道</w>
专 署</w>
专 区</w>
不 至于</w>
不 决</w>
不 依</w>
上 映</w>
三 中全会</w>
一九八 二</w>
一 二</w>
l ic
6 50万</w>
3 4亿</w>
2 60</w>
197 4年</w>
17 00</w>
16 a</w>
13 .5%</w>
1 c</w>
黑龙 江</w>
高 院</w>
骗 人</w>
马 哈
飞 速</w>
风 貌</w>
预 订</w>
难 说</w>
隐 形</w>
闭门 造
闭门造 车</w>
长途 电话</w>
重 温</w>
那 烈</w>
通 晓</w>
进 发</w>
返 国</w>
辽 宁</w>
输 电</w>
责 难</w>
试 金石</w>
装 甲
补 委员</w>
自 圆
自圆 其说</w>
腐 蚀</w>
胆 敢</w>
羽毛 球</w>
网 址</w>
绝 无
绝无 仅
绝无仅 有</w>
结 成</w>
经济 体</w>
组织 法</w>
第一 :</w>
第6 2</w>
科学 性</w>
神 经
省 区</w>
百 万计</w>
特 约</w>
特 种</w>
爱 德
火 如
火如 荼</w>
深 明</w>
法 宝</w>
治 军</w>
沈 国
沈国 放</w>
求 得</w>
气 象
母 公司</w>
概 而论</w>
构 建</w>
机 器
智 囊
智囊 团</w>
普罗 迪</w>
时 而</w>
时 度
时度 势</w>
施 展</w>
施 伟贤</w>
斜 路</w>
文 告</w>
数字 化</w>
数以 百万计</w>
教 职</w>
摒 除</w>
接 班人</w>
拉 那烈</w>
拉 丁
战 友</w>
情报 局</w>
思 索</w>
废 弃</w>
巨 变</w>
封 路</w>
寺 庙</w>
宴 请</w>
审 时度势</w>
官 商</w>
婴 孩</w>
如 火如荼</w>
坚 称</w>
场 内</w>
地 中海</w>
国 军</w>
团 员</w>
四 九年</w>
四 .</w>
商 贩</w>
哈尔 滨</w>
咸 水</w>
和 睦</w>
后 劲</w>
同 心
合 情</w>
受 罚</w>
受 挫</w>
参 演</w>
原 材料</w>
原 始</w>
历 次</w>
卡 耶夫</w>
医 术</w>
务 须</w>
割 裂</w>
剧 院</w>
出版 社</w>
共 计</w>
傀 儡</w>
健 身</w>
做 起</w>
候 补委员</w>
伪 劣</w>
伤 亡
伤亡 者</w>
传 教士</w>
众 院</w>
以 非</w>
以 示</w>
事 端</w>
为 时</w>
个 性</w>
东 莞</w>
七 亿</w>
一百 零
一无所 知</w>
一 路</w>
一 概而论</w>
p a
6 6
5 8%</w>
5 2%</w>
4 4%</w>
3 5万</w>
3 500</w>
27 000</w>
2 a
19 2
18 .5%</w>
默 契</w>
露 出</w>
除 恶</w>
陈 云
阿 曼</w>
造 访</w>
退 化</w>
访 京</w>
见 证人</w>
菲 菲</w>
聚 居</w>
职 衔</w>
而 同</w>
老 者</w>
统治 者</w>
约 而同</w>
繁荣 昌盛</w>
突破 口</w>
社 科院</w>
研究 室</w>
短 程</w>
瞄 准</w>
真 心
生 日</w>
甘 愿</w>
王 克</w>
煽 动性</w>
照 搬</w>
焕 光</w>
灭 性</w>
游乐 场</w>
济 于事</w>
气 枪</w>
毒 所</w>
毁 灭性</w>
概 况</w>
机 坪</w>
本 科</w>
普 理
明 明</w>
无 济于事</w>
文 革</w>
指 针</w>
指 战
指战 员</w>
持 人</w>
拉 亚
扬 光大</w>
打 劫</w>
户 籍</w>
戒 毒所</w>
惑 不解</w>
怡 和</w>
德 里
当 成</w>
建 校</w>
庆 典</w>
广 度</w>
崇 拜</w>
尼克 松</w>
尚 存</w>
导 性</w>
子 弟</w>
大公 无私</w>
大 麻</w>
大 树</w>
大 惑不解</w>
多 极</w>
外 语</w>
声 势</w>
地 税</w>
国务 院
国 罪</w>
响 动</w>
后 续</w>
同 小
吉 林
吉 布
合 资企业</w>
合 署</w>
司 亦</w>
叫 嚣</w>
叛 国罪</w>
发 扬光大</w>
厌 倦</w>
卡多 佐</w>
华 德</w>
加 油</w>
利 耶夫</w>
创 举</w>
冒 伪劣</w>
兼 容</w>
兰 大</w>
八 二年</w>
假 冒伪劣</w>
债务 人</w>
保守 派</w>
保 欣</w>
佳 绩</w>
低 级</w>
传 单</w>
产 区</w>
交 会</w>
亚特 兰大</w>
五 四</w>
争 持</w>
主 持人</w>
为 时
中国 化</w>
不 至</w>
不 约而同</w>
一 针
w w
o u
m in
h 5
h5 n1</w>
5 7%</w>
4 7%</w>
4 6%</w>
26 亿</w>
202 0年</w>
2 b</w>
0 ·
黄 保欣</w>
高尔夫 球</w>
首 任</w>
饮 料</w>
音 器</w>
韩 杼
韩杼 滨</w>
错 乱</w>
这 块</w>
轻 而易
轻而易 举</w>
轻 度</w>
赶 走</w>
评 选</w>
触 觉</w>
见 血</w>
西 面</w>
落 脚
落脚 点</w>
至 上</w>
自 立</w>
自 信心</w>
腐 化</w>
背 叛</w>
肾 脏</w>
职业 道德</w>
耐 用</w>
考 古</w>
缩 水</w>
结 语</w>
红 灯</w>
紧迫 性</w>
管 方</w>
第七 十三</w>
突 显</w>
穷 国</w>
研 习班</w>
睡 觉</w>
着 陆</w>
盛 行</w>
电 压</w>
生 于</w>
王永 平</w>
王 国
爱德 华
焕 发</w>
火 车头</w>
深 重</w>
流 行
流 利</w>
流 出</w>
活 泼</w>
洗 衣</w>
水 价</w>
林 焕光</w>
李 少
杀 人
机器 人</w>
更 迭</w>
普理 赫</w>
晚 会</w>
文 科</w>
文 昌</w>
数 亿</w>
救 生</w>
撤 除</w>
搬 走</w>
损 耗</w>
捏 造</w>
拙 劣</w>
打 官司</w>
感 慨</w>
微 型</w>
彩 虹</w>
归 于</w>
开 来</w>
年 假</w>
屹 立</w>
审判 权</w>
宋 健</w>
如 其
女 工</w>
失 窃</w>
基 因
基因 组</w>
器 具</w>
吹 嘘</w>
同心 同
同心同 德</w>
受 命</w>
发 病</w>
去 向</w>
即 日</w>
印 备</w>
勾 当</w>
劳动 密集型</w>
出 兵</w>
军事 基地</w>
军 转</w>
兴 衰</w>
共 鸣</w>
入 党</w>
免 遭</w>
克里斯托 弗</w>
克 瓦希涅夫斯基</w>
倍 数</w>
修 炼</w>
保险 单</w>
亚 历
九 百
乙 类</w>
中央 党校</w>
东 华</w>
不 须</w>
不 入</w>
上 楼</w>
一针 见血</w>
一九六 七年</w>
in ter
g e
30 1</w>
3 1%</w>
20 11年</w>
2 1.
0. 6%</w>
黄 色</w>
骗 税</w>
饭 盒</w>
靶 场</w>
雷 尔</w>
陕 西省</w>
陈云 林</w>
陈 至
陈至 立</w>
阿 联
阿联 酋</w>
阵 子</w>
闪 动</w>
长 寿</w>
铁路 网</w>
酷 刑</w>
选 购</w>
迫 不得已</w>
远 足</w>
趣 味</w>
购买 者</w>
谈 兵</w>
调 整
说 纷纭</w>
警 讯</w>
药 方</w>
药 性</w>
花 红</w>
自 给</w>
自 决</w>
耶 稣</w>
组 部</w>
纸 上
纸上 谈兵</w>
糟 糕</w>
精 细</w>
竭 诚</w>
眼 见</w>
看 病</w>
相 待</w>
监测 站</w>
皮 肤</w>
登记 证</w>
由此 看来</w>
理 论
玩 笑</w>
猴 子</w>
狱 中</w>
独 断</w>
牵 动</w>
爆 炸
清 洁
此 地</w>
此 一举</w>
模 棱
模棱 两
模棱两 可</w>
梁 文
栏 杆</w>
枪 杀</w>
李少 民</w>
木 门</w>
望而 却步</w>
是 因为</w>
时 分</w>
旧 事</w>
无 关
新 人</w>
断 层</w>
教 委</w>
敌 方</w>
揭 晓</w>
揭 幕</w>
捕 获</w>
括 号</w>
投 向</w>
扩 音器</w>
戒 备</w>
成 本
徐 振强</w>
序 言</w>
巴西 利亚</w>
巨 资</w>
工作 日</w>
巡 逻
尼 奥
就 范</w>
少 见</w>
家 杰</w>
实 亡</w>
存 实亡</w>
字 样</w>
头 发</w>
大大 小小</w>
大 石</w>
多 此一举</w>
堕 落</w>
唯物 主义</w>
哈 拉
名 存实亡</w>
名 副
名副 其实</w>
口 径</w>
发 育</w>
华 北</w>
劳 教</w>
加 拉</w>
加 尔</w>
则 正</w>
击 落</w>
出 资</w>
冒 犯</w>
关 上</w>
八 四</w>
党 魁</w>
克莱 斯
停 机坪</w>
保健 食品</w>
位 居</w>
众 说纷纭</w>
人心 所向</w>
人心 惶惶</w>
五 千
了 了
了了 之</w>
主席 国</w>
中 组部</w>
不辞 劳苦</w>
不 了了之</w>
不 严</w>
三合 土</w>
三 菱</w>
三 万
一 会</w>
t s</w>
ong k
g r
d is
7 6
6 月份</w>
38 a</w>
3 60</w>
27 0</w>
2 9%</w>
13 5</w>
黑龙 江省</w>
鸿 图</w>
风 云
非 理性</w>
雄 心</w>
限 性</w>
陈 云</w>
附 注</w>
阿 齐兹</w>
长途 跋涉</w>
金 银</w>
遗 体</w>
选 项</w>
选 任</w>
迫 于</w>
远 在</w>
过 敏</w>
边 疆</w>
轮 胎</w>
身 自由</w>
足 额</w>
试 探</w>
许 诺</w>
言 辞</w>
规 章
规章 制度</w>
见 于</w>
衷 共济</w>
蔑 视</w>
茨 基</w>
芝 加
芝加 哥</w>
艾 买提</w>
致 信</w>
自然 科学</w>
自 发性</w>
腐 朽</w>
脑 海</w>
肉 体</w>
红 旗</w>
筹 募</w>
第2 0
种族 主义</w>
硅 谷</w>
白 色</w>
疗 效</w>
用 事</w>
狙 击</w>
特 设</w>
特 尔</w>
版 图</w>
火 花</w>
演 唱
永 无
水 果</w>
死 难者</w>
横 向</w>
植 根</w>
梁文 建</w>
格 斯</w>
某 部</w>
枝 节</w>
杨永 强</w>
杨国 钧</w>
来 回</w>
春 季</w>
方 言</w>
斯 坦
救 生
故 步自封</w>
收 款</w>
撤 换</w>
捣 乱</w>
拉丁 美洲</w>
抢 修</w>
批 示</w>
扣 帽子</w>
打 消</w>
成 行</w>
很 难说</w>
工 潮</w>
屡 屡</w>
局 限性</w>
尔 反
尔反 尔</w>
导 演</w>
密 闭</w>
害 性</w>
守 成规</w>
女 王</w>
头 路</w>
失 利</w>
太 郎</w>
大 都市</w>
大 豆</w>
多 变</w>
墨 守成规</w>
堪 培拉</w>
地 雷</w>
回 头路</w>
嘴 脸</w>
和 衷共济</w>
后 门</w>
吉林 省</w>
原子 弹</w>
危 害性</w>
印刷 品</w>
卢 萨
卡 车</w>
升 温</w>
勘 查</w>
前 言</w>
切 断</w>
出 尔反尔</w>
减 退</w>
冲 动</w>
兴 盛</w>
元 旦</w>
傲 慢</w>
偷 窃</w>
偏 激</w>
值得一 提</w>
信 教</w>
侯 赛
佛 罗
会 址</w>
以为 然</w>
代 号</w>
人 身自由</w>
交 界</w>
五 十五</w>
二零零 六年</w>
九 仓</w>
主 委</w>
两 千</w>
丢 弃</w>
不堪 设想</w>
不 以为然</w>
七 千
一 波</w>
s ec
he al
9 4%</w>
8 7
黑 字</w>
高 明</w>
食 油</w>
风 光</w>
颠 倒
革命 性</w>
除 名</w>
防 线</w>
酸 雨</w>
通 缉</w>
过 错</w>
购 得</w>
质 问</w>
豪 雨</w>
调整 期</w>
设 宴</w>
议 论
规 避</w>
见 肘</w>
襟 见肘</w>
装 饰</w>
被 盗</w>
虚 心</w>
自 有</w>
联 网络</w>
而 无
美 华</w>
罪 人</w>
罗 伯
绿 表</w>
维 亚
统 会</w>
纸 黑字</w>
纯 一</w>
简 便</w>
科 特
社 民党</w>
破 旧</w>
矿 工</w>
短 促</w>
白 纸黑字</w>
留 念</w>
电 线</w>
瓦 努
琐 碎</w>
玛 利亚</w>
物 尽其
物尽其 用</w>
灵 丹
灵丹 妙药</w>
演唱 会</w>
海 里</w>
污 蔑</w>
汉 语</w>
求 实</w>
永无 止境</w>
正 轨</w>
正 规
栽 培</w>
李明 江</w>
杀 死</w>
更 何况</w>
时间 性</w>
方 面
新 篇章</w>
政治 协
政治协 商
政治协商 会议</w>
放 出</w>
捉 襟见肘</w>
挺 身</w>
拉 米</w>
拉 登</w>
扶 植</w>
托 运</w>
打 假</w>
成本 价</w>
戏 剧</w>
惶 恐</w>
惠 民</w>
情 感</w>
悉 心</w>
忧 心
忧心 忡
忧心忡 忡</w>
必 修</w>
征 得</w>
座 落</w>
并 发
并发 症</w>
平 凡</w>
布 隆
工商 联</w>
封 面</w>
对 抗
字 面</w>
嫌 疑</w>
如 意</w>
天 花</w>
外 办</w>
增 益</w>
填 料</w>
地 亚
地亚 哥</w>
圣 地亚哥</w>
圣 人</w>
国 统会</w>
国 库</w>
回 访</w>
周 明
司法 部长</w>
可 乐</w>
只 用</w>
变 质</w>
印度 洋</w>
卑 劣</w>
协 约</w>
十 二时</w>
助 产
动 产</w>
副 产品</w>
初 时</w>
分 红</w>
内 陆</w>
冀 望</w>
公开 赛</w>
充 沛</w>
伪 善</w>
传 授</w>
仅 如此</w>
仁 慈</w>
亟 待</w>
互 联网络</w>
主义 者</w>
中国人民 政治协商会议</w>
个 人
业 经</w>
不 免</w>
不 仅如此</w>
上 旬</w>
上 下
七 分</w>
一九 三
一 八</w>
i n</w>
i .</w>
h ongk
g o
co m</w>
c d</w>
b a</w>
9 7%</w>
9 0年</w>
8 6%</w>
3 20</w>
2. 7%</w>
17 000</w>
10 .</w>
高 踞</w>
阿 图</w>
长 征</w>
锋 相对</w>
铁 木
针 锋相对</w>
重 来</w>
通 商</w>
选举 权</w>
追 踪</w>
连 结</w>
违 约</w>
远 水</w>
运 费</w>
过 之
达 标</w>
达 州</w>
辩护 律师</w>
车 祸</w>
起 色</w>
赶 赴</w>
责 怪</w>
谨 祝</w>
语 句</w>
血 汗</w>
蒙特 利
艾 哈
自 始至终</w>
经济 部长</w>
约 旦
约旦 河</w>
管 人</w>
简 福
简福 饴</w>
第 二:</w>
穆 尔</w>
科特 迪瓦</w>
画 面</w>
电 业</w>
瓦努 阿图</w>
珠 宝</w>
王 储</w>
献 策</w>
海 盗</w>
海 关
海关 总署</w>
沙 滩</w>
水 塔</w>
氧化 物</w>
正 统</w>
欢 喜</w>
格 林
核 弹头</w>
末 日</w>
未 定</w>
服务 部</w>
有 过之
揭 批</w>
提 防</w>
振 英</w>
指 导性</w>
择 业</w>
折 磨</w>
扶 养</w>
憧 憬</w>
得 当</w>
弱 者</w>
张 良
库 尔德</w>
库 存</w>
干 道</w>
左 翼</w>
富 豪</w>
室 外</w>
孟 加拉</w>
子孙 后代</w>
威 廉
姿 势</w>
姆 ·
好 意</w>
奶 粉</w>
契 据</w>
大 师</w>
土 重来</w>
国防 军</w>
国 宝</w>
品 行</w>
周明 伟</w>
周 日</w>
后 人</w>
台 上</w>
古 人</w>
口 罩</w>
叛 逆</w>
卷 土重来</w>
即 便</w>
卢 劲</w>
加 纳</w>
制 胜</w>
决 断</w>
冠 冕
冠冕 堂皇</w>
兵 团</w>
八 三</w>
光 明
偶 尔</w>
作 假</w>
伊斯 坦
云 云</w>
主 旋律</w>
中 风</w>
中 间
中 一
中一 台</w>
东 山</w>
上 策</w>
三十 八</w>
七 十
一 旁</w>
一 中一台</w>
9 0亿</w>
7. 4%</w>
7 ·
40 a</w>
22 亿</w>
22 00</w>
2. 2%</w>
11 000</w>
1. 4%</w>
1 月份</w>
0. 1%</w>
-9 6</w>
默 许</w>
黑 白</w>
麦 法
高 档</w>
顾 名
顾名 思
顾名思 义</w>
顺 序</w>
阶 梯</w>
防 化</w>
金 龙</w>
里 程</w>
连锁 反应</w>
迂 回</w>
辍 学</w>
轻 伤</w>
转 轨</w>
路 途</w>
诉 人</w>
议论 纷纷</w>
计 量</w>
解 困</w>
西亚 诺夫</w>
装 箱</w>
蜕 变</w>
莫 诺夫</w>
荃 湾</w>
茶 叶</w>
苦 干</w>
致 词</w>
腐 倡廉</w>
群众 性</w>
群 策
群策 群
群策群 力</w>
罗 夫</w>
缺 一
缺一 不可</w>
编 纂</w>
编 入</w>
维 吾
终 审
终审 权</w>
简单 化</w>
筛 选</w>
第 70</w>
穷 困</w>
盘 问</w>
白 领</w>
痛 楚</w>
病 况</w>
物 园</w>
爸 爸</w>
湖 南省</w>
法 网</w>
法 制化</w>
治 权</w>
氯 氟
氯氟 烃</w>
民 公决</w>
正规 化</w>
欧 安
方面 面</w>
方 方面面</w>
新 猷</w>
教 学
改 观</w>
改 编</w>
收 藏</w>
抢 走</w>
愈 大</w>
悄 悄</w>
急 急</w>
德 米
德 尔</w>
录音 带</w>
归根 到底</w>
引 以
引以 自豪</w>
异 性</w>
异 口
异口 同声</w>
平心 而论</w>
干 净</w>
布隆 迪</w>
市 内</w>
差 价</w>
山 火</w>
就 学</w>
小 国</w>
对 等</w>
寡 头</w>
寄 望</w>
宽 恕</w>
家 具</w>
学 问</w>
委托 人</w>
始 末</w>
天 赋</w>
大 西洋</w>
大 势</w>
多 元</w>
墙 壁</w>
地 对
嘉 利</w>
喘 息</w>
商品 化</w>
商 业化</w>
吃 亏</w>
司法 权</w>
史 为
可 信
变 换</w>
反 腐倡廉</w>
卡 西亚诺夫</w>
包 庇</w>
助产 士</w>
加 之</w>
到 会</w>
划 时代</w>
冷 漠</w>
养 猪</w>
六 七</w>
全 民公决</w>
先 权</w>
低 洼</w>
优 先权</w>
产 妇</w>
交 差</w>
亚历 山
个 个</w>
不复 存在</w>
不 绝
不 竭</w>
下 载</w>
万 .</w>
a u
9 2年</w>
6 5
6 4%</w>
40 分</w>
4. 5</w>
4 1%</w>
24 00</w>
2 月份</w>
15 a</w>
11 3</w>
0. 2%</w>
鲜 血</w>
高 楼</w>
马 舰</w>
马 祖</w>
风 潮</w>
韩 达
霸 占</w>
难 能
难能 可贵</w>
防 伪</w>
销售 量</w>
郭 伯雄</w>
郑 州</w>
道 道</w>
适 逢</w>
退 让</w>
迟 到</w>
进 退</w>
转 手</w>
车 场</w>
身 事
身事 外</w>
赔 款</w>
贫 困
责 备</w>
说 不定</w>
训练 有
训练有 素</w>
言 不
解 开</w>
行 货</w>
行 文</w>
血 汗
血汗 钱</w>
蒙特利 尔</w>
落 伍</w>
节 性</w>
艾哈 迈
舍 弃</w>
自 救</w>
自 我
胡 同</w>
胚 胎</w>
肤 浅</w>
肝 脏</w>
置 身事外</w>
绸 之路</w>
继 往
继往 开来</w>
第四十 八</w>
第二十 六</w>
第七 十九</w>
第 60</w>
立 体</w>
科 教</w>
祖 康</w>
睡 眠</w>
电 讯
由 保安</w>
生 存
熊 猫</w>
激 情</w>
满 怀</w>
渗 漏</w>
渔 港</w>
添 马舰</w>
淑 仪</w>
流 水</w>
油 料</w>
水 患</w>
氮 氧化物</w>
民 政
死 胡同</w>
欢 呼</w>
梁 振英</w>
李 嘉
本 色</w>
月 票</w>
易 明</w>
昌 都</w>
无 愧</w>
断 送</w>
数 二</w>
数 一
数一 数二</w>
教 唆</w>
收 盘</w>
摇 摆
摇摆 不定</w>
挑 拨</w>
拮 据</w>
抽 水
承 继</w>
批 租</w>
忙 碌</w>
德 治</w>
归 类</w>
强 军</w>
并 举</w>
平 和</w>
巴 诺夫</w>
属 经济区</w>
尼 尔</w>
就 诊</w>
家 电</w>
夫 ·
太 空
多 哥</w>
图 像</w>
嚣 张</w>
喉 舌</w>
员 额</w>
同 级</w>
同 居</w>
受 益
去 何
去何 从</w>
原 状</w>
厅 长</w>
医疗 队</w>
包 裹</w>
力 气</w>
刘云 非</w>
减 速</w>
减 半</w>
其 时</w>
光 纤</w>
催 生</w>
使 领馆</w>
何 方</w>
何 去何从</w>
会 前</w>
代 用</w>
仓 促</w>
乘 船</w>
丝 绸之路</w>
专 属经济区</w>
不 畏</w>
上 百</w>
上 报</w>
三 者</w>
万 里</w>
v o
6 6%</w>
4. 8%</w>
4 4亿</w>
23 万</w>
14 0亿</w>
11 月份</w>
10 2</w>
马拉 松</w>
风 度</w>
题 词</w>
顿 时</w>
顺 便</w>
面 值</w>
霍 尔
霍 华德</w>
陪 同
陪同 团</w>
陆 战
陆战 队</w>
阻 滞</w>
问 卷
问卷 调查</w>
长 补
长补 短</w>
遗 传
逍 遥
迟 缓</w>
运 营</w>
过 正</w>
跟 不上</w>
赶 快</w>
赞 誉</w>
财 税</w>
谢 美华</w>
调 升</w>
该 地</w>
话 可
话可 说</w>
讳 言</w>
讲 讲</w>
讲 究</w>
视 线</w>
蚕 食</w>
萨尔 瓦
药 费</w>
花 圈</w>
舍 尔</w>
胜 负</w>
肮 脏</w>
联络 员</w>
联 结</w>
而无 不及</w>
老 龄</w>
缓 刑</w>
统 领</w>
结 晶</w>
经济 收益</w>
经 地
经地 义</w>
第一 手</w>
第8 7</w>
第3 74</w>
笑 皆
笑皆 非</w>
祖 先</w>
磨 灭</w>
矫 枉
矫枉 过正</w>
知 晓</w>
目 张
目张 胆</w>
百 货</w>
电 信
甲 醇</w>
生命 线</w>
王 冶
王冶 坪</w>
溪 流</w>
液 化</w>
沙 祖康</w>
正 比</w>
欧 罗</w>
概 要</w>
样 调查</w>
李 汝</w>
本 金</w>
有过之 而无不及</w>
普里 马科夫</w>
明 目张胆</w>
时 空</w>
时 势</w>
无线 电话</w>
无 话可说</w>
无 利可图</w>
旅游 局</w>
斯达 克</w>
斯 顿</w>
文 汇报</w>
敲 响</w>
教 条
教 堂</w>
摘 录</w>
搞 活</w>
掠 夺</w>
挂 帅</w>
抽水 站</w>
抽 样调查</w>
把 戏</w>
戒 除</w>
戈 兰</w>
慢 性病</w>
愿 违</w>
恒 隆</w>
德 政</w>
归根 结
强 项</w>
废 止</w>
年 复
年复 一年</w>
幕 僚</w>
已 晚</w>
富 翁</w>
宝 剑</w>
官 民</w>
威 夷</w>
天 经地义</w>
天 下
大 意</w>
大 宗</w>
多 伦
多伦 多</w>
外 销</w>
外 委会</w>
夏 威夷</w>
复 发</w>
声 援</w>
塔 斯
堡 垒</w>
坐 牢</w>
国 事</w>
啼 笑皆非</w>
史为 鉴</w>
史 密斯</w>
可 不
可不 可以</w>
召 回</w>
卢萨 卡</w>
半 点</w>
前 辈</w>
剂 量</w>
初 犯</w>
切实 实</w>
切 切实实</w>
军 魂</w>
克 列
先 机</w>
保 本</w>
保 值</w>
伤 势</w>
伎 俩</w>
以 史为鉴</w>
事 与
事与 愿违</w>
乒 乓
为时 已晚</w>
不好 意思</w>
不 齐</w>
三 :</w>
一 举
一 :</w>
u c
ne t</w>
c l
9 .5%</w>
6 8%</w>
50 分</w>
4 b</w>
3 8亿</w>
27 0万</w>
20 分</w>
194 9年</w>
11 2</w>
10 a</w>
10 8</w>
10 1</w>
0 6</w>
0 5</w>
黄 宏</w>
麦理 浩</w>
预 示</w>
预 售</w>
面 包</w>
零 散</w>
陈 慕
陈慕 华</w>
陈 太</w>
防 患
防患 于
防患于 未
防患于未 然</w>
阮 国
阮国 琴</w>
间 隔</w>
铤 而
铤而 走
铤而走 险</w>
金 山</w>
野 洋
重 灾区</w>
酬 酢</w>
邮 局</w>
那 场</w>
避 难</w>
遗 址</w>
遇 上</w>
透 视</w>
退 席</w>
述 职</w>
迪 尼</w>
辅 导员</w>
轰 动</w>
轮 班</w>
言行 一致</w>
要 务</w>
萨 马
营 销</w>
菲 利
自治 法</w>
自 首</w>
肤 色</w>
聪 敏</w>
联 勤</w>
耿 飚</w>
老 有所
老有所 养</w>
美 容
缩 影</w>
编 印</w>
维吾 尔
维 修
经 纪
经纪 人</w>
第4 8</w>
科 伦
科伦 坡</w>
知名 度</w>
真 实性</w>
病 征</w>
疲 软</w>
生产 资料</w>
狂 犬
狂犬 病</w>
特 种
牧 民</w>
湛 佑
湛佑 森</w>
温 哥
温哥 华</w>
渎 职</w>
海 浪</w>
流 露</w>
派 出
派出 所</w>
沉 没</w>
比 不上</w>
每 晚</w>
正 本</w>
枚 举</w>
杨 钊</w>
机 件</w>
本 ·
服务 所</w>
服务 处</w>
有 鉴于</w>
易 事</w>
旺 发达</w>
时 下</w>
族 自治区</w>
断 力</w>
整 年</w>
放 过</w>
收 纳</w>
撤 职</w>
探 测
排 球</w>
振 兴
振兴 中华</w>
拉赫 莫诺夫</w>
抵 挡</w>
扎 根</w>
恩 来</w>
总 长</w>
总 产量</w>
微 弱</w>
形 容
形容 词</w>
强 盛</w>
张 锦
张 宏
广告 牌</w>
并非 易事</w>
巴 林</w>
工 减
工减 料</w>
居 安
居安 思危</w>
少 之</w>
对抗 性</w>
客 车</w>
安全 观</w>
安 乐</w>
学 期</w>
婆 婆</w>
垄 断</w>
图 案</w>
周 恩来</w>
名 校</w>
叛 军</w>
取 长补短</w>
反 潜</w>
协 和</w>
半 决赛</w>
区 徽</w>
加 固</w>
功 绩</w>
刹 车</w>
判 断力</w>
刘 皇</w>
划 清</w>
刊 出</w>
分 野</w>
几 万</w>
冗 员</w>
兴 旺发达</w>
共 青
入 市</w>
克列 巴诺夫</w>
偷 工减料</w>
体 操</w>
二零零 七年</w>
争 吵</w>
了 结</w>
九 千
主 产区</w>
严 明</w>
世代 代</w>
世 世代代</w>
不胜 枚举</w>
三十 万</w>
万 能</w>
w or
so ci
p h
e f
9 8-99</w>
6 7
6 5亿</w>
5 3%</w>
4 500</w>
4 5000</w>
37 3</w>
3. 6%</w>
3 9%</w>
23 .
200 0万</w>
1. 7</w>
高尔夫 球场</w>
首 选</w>
餐 馆</w>
零售 店</w>
陈 健</w>
阿米 蒂奇</w>
针 织</w>
重 刑</w>
邮 电</w>
那 位</w>
造 林</w>
通 无
通无 阻</w>
逍遥 法
逍遥法 外</w>
选 派</w>
近 代
达 瓦
赌 场</w>
贸 发</w>
败 之地</w>
诺 维奇</w>
误 入
误入 歧途</w>
诗 琳
诗琳 通</w>
裁 判
衣 缩
衣缩 食</w>
街 灯</w>
蚀 本</w>
萨尔瓦 多</w>
草 原</w>
节 衣缩食</w>
色 色</w>
船 主</w>
自 制</w>
脑 袋</w>
脉 搏</w>
股 民</w>
缺 憾</w>
维 尔</w>
细 看</w>
约 略</w>
管理 者</w>
第8 4</w>
第11 5</w>
立 于
立于 不
立于不 败之地</w>
称 作</w>
秦 华
秦华 孙</w>
租 借</w>
盾 牌</w>
番 话</w>
畅 通无阻</w>
电话 会议</w>
电 报</w>
瓦 斯</w>
瑕 疵</w>
玻 利
狭 小</w>
特 地</w>
牵 强</w>
潮 水</w>
滋 味</w>
清 水</w>
淹 没</w>
深 入
消防 车</w>
海 路</w>
流行 病</w>
流 连</w>
洲 际</w>
汕 头</w>
民 望</w>
楚 瑜</w>
案 要案</w>
栏 目</w>
标 本
标本 兼
标本兼 治</w>
林 立</w>
杨 国强</w>
曹 刚
曹刚 川</w>
普 尔</w>
晓 明</w>
无 害</w>
无 上</w>
旅行 证</w>
教科 文</w>
振 有
振 振有
拆 毁</w>
抑 郁</w>
所 得税</w>
恩 赐</w>
得 力</w>
得 主</w>
形 色色</w>
形 形色色</w>
录 像</w>
归根结 底</w>
归 来</w>
建 新</w>
庙 宇</w>
小 时候</w>
封 套</w>
宽 阔</w>
家 事</w>
宋 楚瑜</w>
安全 岛</w>
姆 斯</w>
女 人</w>
大有 可
大有可 为</w>
大 洲</w>
大 案要案</w>
大 同小
大同小 异</w>
大 卫</w>
备 注</w>
增 加值</w>
塞尔 维亚
堂 费</w>
基 亚</w>
商 务部</w>
唾 弃</w>
哈 龙</w>
后 勤
受益 者</w>
发 人
印 行</w>
募 捐</w>
力 战</w>
力 军</w>
农 友</w>
六 十五</w>
公正 性</w>
公开 信</w>
公 寓</w>
公 共
全 家</w>
入 场
儒 家</w>
停 职</w>
假 装</w>
倒 流</w>
伤 员</w>
从 属</w>
乌 有</w>
之 言</w>
中 银</w>
中 生
中 枢</w>
中 度</w>
两 万</w>
专 家
不得 而知</w>
下 车</w>
一百 四十
一 番话</w>
u b
or d
ar d</w>
5 50</w>
5 -96</w>
28 亿</w>
27 00</w>
2 1a</w>
1. 8%</w>
0.0 5%</w>
饥 饿</w>
风雨 雨</w>
风 风雨雨</w>
靳 如
靳如 超</w>
静 气</w>
集 装箱</w>
阿 罗
阅 读
门 槛</w>
锺 庭
锺庭 耀</w>
迷 失</w>
近代 史</w>
迎头 赶上</w>
身 受</w>
踏 入</w>
走 回头路</w>
诸 如
诸如 此类</w>
语 气</w>
该 行</w>
证券 商</w>
设 计
言之 成
言之成 理</w>
裂 痕</w>
行 车道</w>
萌 芽</w>
菲 舍尔</w>
若 是</w>
苏 维
舰 船</w>
聚 焦</w>
美 中
美中 不足</w>
累 赘</w>
精神 病
精神病 院</w>
精 度</w>
管 工</w>
筑 物</w>
第六 十四</w>
第五十 二</w>
第三十 一</w>
端 正</w>
窃 案</w>
突 如其
突如其 来</w>
空 导弹</w>
空 壳</w>
碎 石</w>
矿 物</w>
矿 区</w>
真 面目</w>
玻利 维亚</w>
特 拉
特 委</w>
特 命</w>
熟 知</w>
烧 毁</w>
炉 灶</w>
潘 文
清洁 工</w>
浴 室</w>
求 救</w>
构 筑物</w>
李 福
木 料</w>
有法 可
有法可 依</w>
有 别</w>
最高 点</w>
暴 乱</w>
普 法</w>
无可 忍</w>
无 庸</w>
方 才</w>
敷 衍</w>
数 千万</w>
救 治</w>
改 版</w>
撤 走</w>
拨 付</w>
招 商</w>
拉斯 维
承 造</w>
托 斯</w>
手 语</w>
戴 维</w>
战 车</w>
惯 法</w>
快 讯</w>
忍 无可忍</w>
形 状</w>
张良 华</w>
开拓 进取</w>
应 届</w>
平心 静气</w>
居 高
少年 犯</w>
富 人</w>
宣 讲</w>
实 时</w>
定 向</w>
安 定
守 旧</w>
学 子</w>
奉 命</w>
天 皇</w>
天 候</w>
大马 士
大马士 革</w>
大 举</w>
声 器</w>
士 顿</w>
塔斯 社</w>
坚 毅</w>
地 势</w>
围 栏</w>
四 月份</w>
商业 区</w>
周 永
吉布 提</w>
可信 性</w>
只 见</w>
参 众
参众 两院</w>
原 水</w>
包 涵</w>
制造 厂</w>
利 马</w>
切 尔</w>
写 作</w>
内 行</w>
养殖 业</w>
公共 场所</w>
八万 五</w>
入 主</w>
党 组</w>
克 萨
假 借</w>
保 管人</w>
佩 戴</w>
低 劣</w>
伶 仃
伶仃 洋</w>
以 民</w>
以 北</w>
付 运</w>
于 耳</w>
二零零 零</w>
二 等</w>
习 惯法</w>
九 万</w>
乐 队</w>
主 理</w>
临 时性</w>
两 边</w>
不绝 于耳</w>
下 落</w>
上 门</w>
七 .</w>
一千 五百</w>
to r</w>
t u
t or
9 6
7 8
3 30</w>
2 2000</w>
197 1年</w>
14 4</w>
14 0万</w>
齐 备</w>
鼓 里</w>
黑 海</w>
黄 金
黄 埔</w>
麻 醉
麦 当
麦当 劳</w>
陵 水</w>
除 害</w>
陈 财</w>
野洋 平</w>
那 边</w>
邀 请
进 退
达瓦 买提</w>
辩 论会</w>
跃 进</w>
费 尔
谋 私</w>
谋 利</w>
调 任</w>
访 华
访华 团</w>
装 配</w>
蒙 在
蒙在 鼓里</w>
萨马 兰
萨马兰 奇</w>
若 我</w>
花 卉</w>
舰 长</w>
臭 氧</w>
自 如</w>
腰 包</w>
耳 朵</w>
而 后
考 取</w>
羞 耻</w>
羞 愧</w>
罗 毕</w>
维修 费</w>
纳 拉亚
纳拉亚 南</w>
纪 德</w>
粉 饰</w>
第 四十</w>
第 98</w>
真 务实</w>
申 诉人</w>
牟 取
牟取 暴利</w>
焊 接</w>
点 火</w>
炸 毁</w>
潘文 凯</w>
港 台</w>
渣 滓</w>
渔 场</w>
混 合</w>
深 海</w>
海 区</w>
测 控</w>
流 会</w>
河 野洋平</w>
求 真务实</w>
水 稻</w>
毒 瘾</w>
死 伤</w>
歹 徒</w>
歪 风</w>
案 组</w>
核 算</w>
核 扩散</w>
果 实</w>
朱 佩</w>
本 分</w>
服务 组</w>
暴 跌</w>
暗 杀</w>
显 示
无 中生
无中生 有</w>
方 设法</w>
新 生
敬 琏</w>
接 踵
持 枪</w>
拥 抱</w>
拜 访</w>
招 数</w>
拉斯维 加斯</w>
拆 息</w>
想 方设法</w>
恩 柱</w>
德米 雷尔</w>
得 分</w>
彻 尾</w>
彻 头
彻头 彻尾</w>
强 健</w>
廉 宜</w>
幼儿 园</w>
希 尔</w>
崎 岖</w>
屈 不
屈不 挠</w>
居 委会</w>
尾 声</w>
小 渊</w>
定 夺</w>
定 型</w>
守 望</w>
学 风</w>
存 保</w>
字 典</w>
威 尔
姜 恩柱</w>
如 一</w>
奔 驰</w>
失 常</w>
大 革命</w>
外 层</w>
处 级</w>
嘴 巴</w>
呐 喊</w>
吴 敬琏</w>
后勤 部</w>
司 徒</w>
古 语</w>
取 悦</w>
发言 稿</w>
发 落</w>
双 亲</w>
卫 奕信</w>
卫 士</w>
博 鳌</w>
午 宴</w>
匪 帮</w>
北 辙</w>
北 爱尔兰</w>
勇 军</w>
加 德
分 清</w>
分 权</w>
分 层</w>
军火 商</w>
军 团</w>
内 罗毕</w>
公 论</w>
公 尺</w>
全 票</w>
全 场</w>
入 选</w>
兆 瓦</w>
侯赛 因</w>
佛罗 里
伊 拉
以 军</w>
人 之
五十 一</w>
于 今</w>
二零零 三年</w>
事 理</w>
中 青年</w>
中 叶</w>
专 案组</w>
不 屈不挠</w>
不 复</w>
不 俗</w>
下 发</w>
三十 六</w>
三 四</w>
一 条
一 己</w>
· 布
o p
at e</w>
9 50</w>
8 5亿</w>
7 5万</w>
6 3%</w>
5 6%</w>
26 a</w>
2 10</w>
197 0年</w>
16 7万</w>
12 0亿</w>
1. 3%</w>
0 3</w>
高 楼
高楼 大厦</w>
韦 斯</w>
集 权</w>
雄 心
随 处
随处 可见</w>
随 地</w>
阶 级
长 线</w>
锐 减</w>
铁 山</w>
道 教</w>
通 向</w>
辕 北辙</w>
转 送</w>
转 型
转型 期</w>
车 龙</w>
贾 春
负债 表</w>
谢 里
评 述</w>
讲 授</w>
警 长</w>
触 动</w>
装甲 车</w>
表 白</w>
获 奖</w>
草 草</w>
艺术 品</w>
艺 界</w>
能 及</w>
胜 过</w>
肥 料</w>
翻 案</w>
美 术</w>
美 台</w>
网 球赛</w>
缜 密</w>
绳 之</w>
绘 画</w>
篮 球</w>
第 19
稽 核</w>
税 源</w>
稍 微</w>
称 谓</w>
神 奇</w>
祈 求</w>
社会 民主党</w>
目 下</w>
由 之路</w>
生 息</w>
王 德
独 厚</w>
淼 茫</w>
洗 礼</w>
沙 尔</w>
沉 闷</w>
民 愤</w>
正 达</w>
欺 负</w>
楼 盘</w>
桌 会议</w>
来 宾</w>
李 纪
权 谋私</w>
杀 伤</w>
朝 气</w>
朝 令
朝令 夕
朝令夕 改</w>
服务 社</w>
昭 示</w>
新 田</w>
新 楼</w>
文 盲</w>
数 百亿</w>
放 款</w>
攻 击
改 选</w>
改 弦
收 成</w>
摩托 车</w>
掌 柜</w>
拉 拢</w>
拉 巴
投 考</w>
抄 袭</w>
批 驳</w>
扭 亏</w>
扫 黄</w>
所 能及</w>
截 断</w>
戒 心</w>
我 身</w>
总 队</w>
必 由之路</w>
微 电子</w>
得 天
得天 独厚</w>
强 人意</w>
开 脱</w>
庄 家</w>
幽 默</w>
平 坦</w>
干 事
干事 长</w>
差 强人意</w>
寿 保险</w>
对 岸</w>
宣 泄</w>
安定 团结</w>
威 望</w>
好 感</w>
奖 项</w>
头 版</w>
失 色</w>
太 华</w>
大 象</w>
外 衣</w>
基 点</w>
埃 塞</w>
圆 桌会议</w>
围 堵</w>
四 起</w>
听 命</w>
史 册</w>
古 迹</w>
发 声</w>
参 战</w>
厨 师</w>
南 辕北辙</w>
十 二亿</w>
劳动 党</w>
力 所能及</w>
初 见
分 解</w>
几 十万</w>
减 肥</w>
冰 鲜</w>
关 押</w>
允 诺</w>
倍 感</w>
信 箱</w>
信 封</w>
住 址</w>
估 算</w>
伯 杰</w>
企业 化</w>
以 权谋私</w>
以 利</w>
人 寿保险</w>
五 点</w>
五 一年</w>
事务 性</w>
九龙 西</w>
义 勇军</w>
中 药材</w>
中 英
中 委</w>
严 守</w>
东 风</w>
上 缴</w>
p s</w>
m r
k e
b u
9 3年</w>
8 2%</w>
6 8亿</w>
5 50万</w>
4 5亿</w>
27 0亿</w>
24 .
22 万</w>
2. 4%</w>
199 2</w>
19 万</w>
13 2</w>
1. 2</w>
鲁 阿</w>
高 性能</w>
高 估</w>
骨 头</w>
骇 人听闻</w>
风 范</w>
颠 倒</w>
音 机</w>
靠 拢</w>
青 藏</w>
雪 亮</w>
阿斯 纳尔</w>
闻 不
门 票</w>
销 路</w>
钓鱼 台</w>
金 马</w>
配 对</w>
郭 金龙</w>
通 例</w>
远 洋
辱 性</w>
辩 证
轨 迹</w>
路 障</w>
足 协</w>
越 过</w>
起 降</w>
贾春 旺</w>
货 员</w>
谢 列
诺 斯
诺斯 艾
诺斯艾 利斯</w>
诱 导</w>
诉 书</w>
论 不休</w>
见 识</w>
西 气
西气 东</w>
行 乞</w>
藏 身</w>
落 地</w>
落 不明</w>
营业 执照</w>
苦 恼</w>
苏维 埃</w>
艺 人</w>
艰 巨
艰巨 性</w>
船 队</w>
腾 飞</w>
脉 相
脉相 承</w>
而 实
而实 不至</w>
羊 毛</w>
置 评</w>
经营 不善</w>
经济 部</w>
繁 华</w>
第1 373</w>
笑 柄</w>
穆罕默 德</w>
破 灭</w>
矢 志</w>
眼 里</w>
相 抵</w>
盆 地</w>
电 磁</w>
由 民选</w>
生存 权</w>
王光 英</w>
独立 国家</w>
狡 辩</w>
犯 规</w>
煤 灰</w>
满 都</w>
游 玩</w>
流 畅</w>
派 人士</w>
汇 市</w>
水 器</w>
水 北
水北 调</w>
气 化</w>
毒 瘤</w>
此起彼 伏</w>
次 官</w>
椿 霖</w>
李纪 周</w>
杂 费</w>
机 关
本 位</w>
本 事</w>
朝 夕</w>
有 生
更 替</w>
旱 灾</w>
旧 址</w>
无 党
无党 派人士</w>
方 宝剑</w>
新闻 社</w>
斯 加</w>
料 到</w>
敷 衍
敬 献</w>
政 部长</w>
收 音机</w>
收 税</w>
探测 器</w>
授 受</w>
持 之以
持之以 恒</w>
拆 散</w>
抱 有</w>
报 考</w>
扶 手</w>
扫 雷</w>
我 党</w>
成交 额</w>
慨 叹</w>
惠 而实不至</w>
必 经</w>
徽 号</w>
徐 家杰</w>
待 业</w>
强 心
张 德
引 水</w>
开 普
廉洁 自律</w>
康 保</w>
应 考</w>
庇 护
广 交会</w>
平 原</w>
布 宜
布宜 诺斯艾利斯</w>
巴 沙尔</w>
工程 院</w>
履 约</w>
尼奥 夫</w>
宾 逊</w>
家 境</w>
害 人</w>
宰 割</w>
安 宁</w>
孤 独</w>
委 屈</w>
始终 如一</w>
奥 克兰</w>
奔 波</w>
奋 进</w>
夭 折</w>
大 不了</w>
外 行</w>
声 带</w>
塞 拉
地 人</w>
在 业</w>
售 货员</w>
命 中</w>
合 一</w>
叶 刘
叶刘 淑仪</w>
口 惠而实不至</w>
取 巧</w>
取 信</w>
印 花</w>
博 取</w>
南 水北调</w>
单 项</w>
华 夏</w>
化 石</w>
加德 满都</w>
加 密</w>
加 利
判 词</w>
分 立</w>
出版 物</w>
军 政</w>
内 阁
内 政部长</w>
共青 团</w>
六 .</w>
公 害</w>
全国 妇联</w>
全 天候</w>
僵 持</w>
傅 铁山</w>
倒 转</w>
倍 加</w>
保 姆</w>
侮 辱性</w>
何 椿霖</w>
以 方</w>
令人 不安</w>
人 翁</w>
五 千万</w>
于 世</w>
二十 万</w>
争 论不休</w>
乡 民</w>
主 人翁</w>
为 民</w>
中 年人</w>
东 面</w>
东 头</w>
不可 收拾</w>
不 详</w>
不 动产</w>
下 落不明</w>
下 任</w>
万 国
一次 次</w>
一 脉相承</w>
y s
r on
is si
in s
h i
8 月份</w>
7 7
6 4
30 a</w>
3 亿
3 b</w>
3 2亿</w>
28 万</w>
26 000</w>
22 5</w>
197 6年</w>
17 .5%</w>
16 3</w>
13 b</w>
13 1</w>
11 6</w>
麦 克
高 血压</w>
驻 扎</w>
鞭 策</w>
面 额</w>
零 部件</w>
零 星</w>
长 篇</w>
铭 记</w>
钥 匙</w>
金 日
郁 症</w>
逼 近</w>
违 禁
近 视</w>
跃 升</w>
超 前</w>
谢列 兹
谢列兹 尼奥夫</w>
试 卷</w>
设 防</w>
设 在</w>
训 导</w>
言 人</w>
解 读</w>
觉 悟</w>
要 职</w>
西 壮
被 占
被占 领土</w>
表 决权</w>
菜 馆</w>
苏 周
苏周 艳
苏周艳 屏</w>
自 保</w>
肥 胖</w>
聪 明
聊 天</w>
美 观</w>
美 印</w>
羁 押</w>
网络 化</w>
编 成</w>
纵 向</w>
累 累</w>
系统 性</w>
米 尔
策 动</w>
第6 4</w>
立 派</w>
福 特</w>
真 话</w>
相 传</w>
盛 赞</w>
疏 于</w>
界 面</w>
男 生</w>
由 布政</w>
生 育
煎 熬</w>
海 岸
气 力</w>
根 除</w>
柜 员</w>
极 右</w>
李 炳
景 况</w>
斯 斐</w>
斗 志</w>
文 传</w>
教学 法</w>
教 条</w>
政 企</w>
收容 所</w>
收 入
摄 氏</w>
排 挤</w>
指 纹</w>
拥 挤</w>
报 价</w>
抢 险</w>
抑 郁症</w>
惨 遭</w>
悬 空</w>
怀 有</w>
心 平
心平 气
德拉 鲁阿</w>
待 解决</w>
引 出</w>
异 己</w>
开放 性</w>
开 阔</w>
庇护 所</w>
广 西壮
并 列</w>
平均 价</w>
希 特
川 ·
川· 立派</w>
密 不可
密不可 分</w>
宵 禁</w>
宝 忠</w>
宏 图</w>
宇航 员</w>
季 节性</w>
孟 买</w>
存 量</w>
如 山</w>
多 时</w>
声 讨</w>
壮 丽</w>
堂 堂
基督 徒</w>
培 植</w>
国 书</w>
回 首</w>
吴 基
启 发性</w>
各 派</w>
口 味</w>
叙 述</w>
取 证</w>
取 出</w>
取 决</w>
发 制
发制 人</w>
参 议</w>
卸 责</w>
卡 帕</w>
南 美洲</w>
助 力</w>
动 荡
劝 说</w>
前所未 见</w>
到 任</w>
利 诱</w>
利 比
判 案</w>
初见 成效</w>
切 忌</w>
冬 天</w>
内 销</w>
关税 区</w>
保护 伞</w>
促 销</w>
侧 面</w>
伦 斯斐</w>
优 胜
令人 瞩目</w>
代 言人</w>
他 日</w>
从 小</w>
人所 得税</w>
亟 待解决</w>
互 为</w>
于 利</w>
二 亿
二 五</w>
书 院</w>
乡 亲</w>
为 人
中 草药</w>
个 人所得税</w>
上 进</w>
上 千</w>
三点 :</w>
三 宗</w>
丁 宝忠</w>
一百 一
一九六 六年</w>
v en
re g
re c
p ri
ment al
comm it
b er
9 3%</w>
8 8
8 63</w>
6 分</w>
3 月份</w>
3 6亿</w>
3 200</w>
3 1亿</w>
3 1a</w>
25 .
22 .
12 1
10 4</w>
1. 7%</w>
齐 心
齐心 合力</w>
黎 可
黎可 漂</w>
麻 醉</w>
鸡 场</w>
高 雄
高雄 市</w>
高 点</w>
高 望
高 呼</w>
高 兴
高 位</w>
马哈 蒂尔</w>
饶 有</w>
饮 用水</w>
风 顺</w>
预 审</w>
集中 制</w>
难 民
隔 绝</w>
随 身</w>
陋 习</w>
阿罗 约</w>
闭 幕式</w>
门 路</w>
铭 彦</w>
钢 材</w>
金日 成</w>
重 中
重中 之
重中之 重</w>
里 根</w>
避 而不
避而不 谈</w>
遂 行</w>
逆 流</w>
送 往</w>
进 场</w>
迈 步</w>
过 户</w>
辛 辛
轮 车</w>
蹴 而
蹴而 就</w>
蹂 躏</w>
超 市</w>
资 源部</w>
账 目</w>
财 源</w>
贝 壳</w>
请 愿
请愿 书</w>
见 地</w>
表 面
蛇 口</w>
薄 扶
薄扶 林</w>
艺术 工作者</w>
航空 器</w>
致 性</w>
自 尊
而 为
绪 化</w>
绝 食</w>
经 社</w>
精 算</w>
精 品</w>
简 陋</w>
第8 1</w>
第7 3</w>
第6 6</w>
第 四十五</w>
空 间
稀 有</w>
移 民
离 家</w>
瞬 间</w>
直 径</w>
盛 名</w>
益 俊</w>
疯 牛
疯牛 病</w>
畏 惧</w>
电话 费</w>
电子 游戏</w>
王 晓
独 揽</w>
特 朗</w>
燃 煤</w>
熟 食</w>
然 大
潜 入</w>
渊 源</w>
海 拔</w>
沃 尔
污 泥</w>
民 意
民意 测验</w>
毁 于
毁于 一旦</w>
次 大战</w>
楼 房</w>
梧 桐</w>
梁 铭彦</w>
杨 文昌</w>
李嘉 诚</w>
李 平</w>
有可 无</w>
有 甚者</w>
更 有甚者</w>
晓 松</w>
早 晚</w>
日 增</w>
无 聊</w>
新 娘</w>
收 复</w>
抬 高</w>
抢 先</w>
抛 开</w>
手 铐</w>
手 球</w>
所 述</w>
成 风</w>
情 绪化</w>
性 交</w>
怀 远</w>
心平气 和</w>
张宏 喜</w>
张 益俊</w>
广西壮 族自治区</w>
广 岛</w>
常 务
师 傅</w>
帆 风顺</w>
布 里
布 特
巴西 队</w>
巴 塞尔</w>
尼亚 州</w>
尼亚 佐夫</w>
小 幅</w>
小 区</w>
寻 觅</w>
密 特朗</w>
宽 敞</w>
家 庭
宪 政</w>
实 据</w>
安 曼</w>
存 心</w>
始 料
女 孩</w>
奋 战</w>
夹 杂</w>
失 信</w>
大有 裨益</w>
士 官</w>
堆 肥</w>
堂堂 正正</w>
地 主</w>
土 资源部</w>
图 利</w>
国 殇</w>
国 土资源部</w>
唤 醒</w>
呼 喊</w>
周 到</w>
吴基 传</w>
司马 义</w>
可 爱</w>
可 有可无</w>
可 嘉</w>
可 口
可口 可乐</w>
句 子</w>
取 之</w>
千 瓦</w>
动 感</w>
加利 福
加 里</w>
加 工业</w>
剧 性</w>
制 高点</w>
分 科</w>
击 毙</w>
出口 量</w>
全 人类</w>
党政 机关</w>
党 章</w>
克 勒
停 课</w>
信息 产
信息产 业部</w>
侵 入</w>
伤 痛</w>
传 销</w>
传 教</w>
任 人
今 年底</w>
人 马</w>
交易 量</w>
五十 八</w>
二 次大战</w>
书 信</w>
丰 盛</w>
中间 人</w>
中央 委员</w>
中 东欧</w>
东 南部</w>
不 许</w>
不 灵</w>
不 服</w>
三 轮车</w>
七 五</w>
一百 二十</w>
一点 五</w>
一无 所有</w>
一九 零
一 蹴而就</w>
一 致性</w>
一 帆风顺</w>
n n</w>
c .</w>
a n</w>
7 5亿</w>
6 ·
6 6000</w>
35 a</w>
3. 5</w>
3 3a</w>
26 00</w>
23 00</w>
22 8a</w>
16 9</w>
16 0万</w>
10 分</w>
1. 5亿</w>
齐 放</w>
鼓 励
黎 加</w>
鱼 雷</w>
魏茨 曼</w>
高等 学校</w>
首 畏
首畏 尾</w>
领 款</w>
须 先</w>
韩达 德</w>
集体 主义</w>
难 堪</w>
难 保</w>
陆 空</w>
量 衡</w>
里 ·
退 款</w>
过 其实</w>
起 诉书</w>
货 运站</w>
谢里 夫</w>
谋 划</w>
该 省</w>
认 领</w>
警 醒</w>
言 过其实</w>
要 不得</w>
西 德</w>
表 率</w>
衣 架</w>
节 能</w>
节 奏</w>
自 在</w>
耽 误</w>
而 后</w>
统 合</w>
结 核</w>
经济 特区</w>
索 赔</w>
素 养</w>
穆罕默 德·
福 州市</w>
祖 泽</w>
祈 祷</w>
真 伪</w>
监察 部</w>
的 放
的放 矢</w>
百 花
留 用</w>
畏 首畏尾</w>
生产 关系</w>
生 虫</w>
理 科</w>
理 府</w>
玩 火</w>
熟 识</w>
照 常</w>
然 一新</w>
焕 然一新</w>
溶 剂</w>
港澳 台</w>
渥 太华</w>
清 查</w>
海 陆空</w>
海 地</w>
沙 伊
民主 集中制</w>
氏 度</w>
毛里 塔
毛里塔 尼亚</w>
比 兰
每 户</w>
棋 子</w>
标 示</w>
查 韦斯</w>
村 庄</w>
李国 能</w>
李 荣
杀伤 力</w>
期 付款</w>
晚 报</w>
星期 天</w>
星 级</w>
日 可
日可 待</w>
无 私
无 所谓</w>
无 怪
无怪 乎</w>
新 疆
斯达 黎加</w>
斯 库</w>
放 手</w>
收入 者</w>
撑 腰</w>
摄 氏度</w>
搭 乘</w>
换 文</w>
指 日可待</w>
择 优</w>
拉 斯</w>
抽 水</w>
抗 命</w>
投资 人</w>
戒 烟</w>
惰 性</w>
惟 一</w>
悲 伤</w>
总 理府</w>
怀 着</w>
心 力</w>
征 兆</w>
归 案</w>
强心 针</w>
张 云
度 量衡</w>
底 盘</w>
将 令</w>
寄 生虫</w>
宠 物</w>
存 款人</w>
子 民</w>
姬 鹏飞</w>
委托 书</w>
姐 妹</w>
大 校</w>
复 活</w>
备 战</w>
处 决</w>
塞拉 利
塞拉利 昂</w>
图 文</w>
国家 队</w>
囤 积</w>
四 海</w>
唐 纳</w>
唇 舌</w>
哮 喘</w>
哥 斯达黎加</w>
响 亮</w>
吕 聪敏</w>
后 尘</w>
合 宪</w>
各 处</w>
叫 苦</w>
发 泄</w>
反 馈</w>
原 址</w>
协 办</w>
副 标题</w>
刘 思
分 期付款</w>
冷 水</w>
决 算</w>
兜 售</w>
克 明</w>
健 儿</w>
倒 下</w>
保 障
使 者</w>
任 建新</w>
仁 学</w>
享 誉</w>
五十 亿</w>
二零 一
二十 九</w>
九 十五</w>
乐 团</w>
中 西医</w>
与 其说</w>
不 在</w>
不 下</w>
s on</w>
o o
l e</w>
i z
i d
g n
c r
ai r
a f
8 5
8 4%</w>
7. 6%</w>
7 7亿</w>
7 7%</w>
7 5000</w>
5 5亿</w>
4. 75%</w>
4 3亿</w>
36 000</w>
3 40</w>
3 000万</w>
3 0000</w>
28 .
2. 6%</w>
16 5</w>
16 1</w>
15 5</w>
14 9</w>
14 6</w>
13 6</w>
100 0亿</w>
1. 2%</w>
0 2</w>
黑 名单</w>
鸦 片
鸦片 战争</w>
鸟 兽</w>
驾 车
驾车 者</w>
饮 水</w>
餐 具</w>
食 物
风 向</w>
除 夕</w>
陈 祖泽</w>
陈 济
陈济 强</w>
阿拉 伯
间 接
间接 选举</w>
间 或</w>
铸 铁</w>
银 根</w>
铁木 尔</w>
郑 万
郑万 通</w>
道 出</w>
通 盘</w>
追 捕</w>
连 天</w>
违 禁</w>
这 边</w>
达 尔
赵 新
货 主</w>
谈 不上</w>
调 子</w>
语 调</w>
语 法</w>
试 法</w>
解 说</w>
见 度</w>
西 非</w>
装 备
裁 断</w>
衰 落</w>
虽 则</w>
范 本</w>
花 八
花八 门</w>
自 打</w>
能 见度</w>
胡 旭东</w>
联 队</w>
耕 种</w>
而后 行</w>
维吾尔 自治区</w>
维 园</w>
纳 斯达克</w>
纪念 邮票</w>
繁荣 富强</w>
第7 7</w>
端 倪</w>
童 工</w>
空 降</w>
穆 克</w>
税 务
税务 总局</w>
稀 少</w>
票 务</w>
硝 烟</w>
破 烂</w>
石 云
石云 生</w>
知 灼
知灼 见</w>
着 想</w>
眼 下</w>
真 知灼见</w>
省 部级</w>
相 片</w>
相 助</w>
百花 齐放</w>
百 孔</w>
痛 绝</w>
疲 劳</w>
疮 百孔</w>
电视 电话会议</w>
用 率</w>
瓦希 德</w>
现 政府</w>
炒 作</w>
火 上加
火上加 油</w>
演 艺界</w>
滥 用</w>
溪 涧</w>
温 布
深 恶
深恶 痛绝</w>
海洋 生物</w>
海岸 线</w>
海 珊</w>
浅 水</w>
活 页</w>
洞 悉</w>
泰 然</w>
法兰 克
法兰克 福</w>
沉 迷</w>
永 建</w>
水利 部</w>
水 车</w>
模 一样</w>
楼 上</w>
楷 模</w>
桑 托斯</w>
标 的</w>
架 设</w>
条 理</w>
李荣 融</w>
木 不
有 名</w>
明 珠</w>
早 点</w>
旅游 区</w>
旁 观者</w>
新疆 维吾尔自治区</w>
收 买</w>
接 送</w>
接 壤</w>
掌 权</w>
捷 径</w>
拟 建</w>
担 保
折 旧
抗 体</w>
把 手</w>
所 罗
情 怀</w>
恩 格斯</w>
总 务</w>
怨 言</w>
思 议</w>
思 而后行</w>
忠 心</w>
必 胜</w>
德 孟</w>
征 管</w>
张有 浩</w>
张子 强</w>
开 场
开场 白</w>
建 民</w>
库 尔
广 播
年 起</w>
平 方</w>
常 规
帮 凶</w>
巴 特
已 然</w>
左 手</w>
工作 间</w>
工 艺
展 览
居高 不下</w>
居 点</w>
尽 如
尽如 人意</w>
尼 克</w>
封建 主义</w>
富 庶</w>
家 正</w>
审判 庭</w>
定 居点</w>
安乐 死</w>
安 科</w>
学 生
孙 家正</w>
姆 卡帕</w>
好 运</w>
奠 基</w>
奖 牌</w>
奋 勇</w>
太 子</w>
天 生</w>
大 户</w>
大 义</w>
声 响</w>
塞 内
堆 积</w>
图 强</w>
国家 税务总局</w>
商 住</w>
哈 达姆</w>
哈 利
周 文
后 天</w>
各 司
各司 其
各司其 职</w>
发电 机</w>
参 赛
南 面</w>
千 疮百孔</w>
十四 大</w>
劫 匪</w>
力 促</w>
副 刊</w>
刻 薄</w>
创 纪录</w>
刊 印</w>
出 名</w>
出 乎
决 不会</w>
农 牧业</w>
农 民工</w>
农 德孟</w>
内 设</w>
养 育</w>
党 外</w>
克 劳
先天 性</w>
先 发制人</w>
停 靠</w>
假 冒</w>
值 班</w>
候 选</w>
信用 证</w>
何 其</w>
以身 试法</w>
代 会</w>
付 费</w>
产 业
五 花八门</w>
九龙 东</w>
中 智</w>
中 庸</w>
两 手
东涌 新</w>
业 者</w>
专家 组</w>
不可 思议</w>
不 丹</w>
上 水</w>
上 下班</w>
三点 五</w>
三十 一</w>
三 思而后行</w>
一 辞</w>
一 模一样</w>
x ii</w>
vi ron
serv ic
p re
on al
l in
it y
en viron
d .</w>
b an
ation al
7 3%</w>
6 8
5. 3%</w>
4. 9%</w>
30 秒</w>
29 a</w>
27 .
23 000</w>
2 1000</w>
197 7年</w>
194 5年</w>
17 a</w>
11 8</w>
11 1</w>
鼓 动</w>
麻 木不
麻木不 仁</w>
麦法 新</w>
高 炮</w>
高 息</w>
高 唱</w>
马 儿</w>
风云 变幻</w>
额 达</w>
面 谈</w>
集 成</w>
雄 风</w>
难 受</w>
随 者</w>
随 处</w>
陈 锦
陈 果</w>
阿卜杜 拉</w>
阿 达
长 策</w>
锦 上
锦上 添
锦上添 花</w>
钻 研</w>
钱 包</w>
钢 筋</w>
金 刚</w>
重 创</w>
里 亚
那 亚</w>
进口 额</w>
进 式</w>
购 价</w>
货 船</w>
请 勿</w>
诈 骗
评论 家</w>
订 货</w>
触 目
触目 惊
触目惊 心</w>
衷 一
衷一 是</w>
虚 构</w>
虚 作假</w>
莫 衷一是</w>
荷 包</w>
荒 废</w>
茨 瓦
茨瓦 纳</w>
自由 放任</w>
自我 批评</w>
自 负</w>
联络 处</w>
联 办</w>
而为 一</w>
考 评</w>
美联 储</w>
结 识</w>
经 社
经社 文</w>
终 究</w>
终 点</w>
级 数</w>
系统 化</w>
粟 米</w>
简 明</w>
第三十 六</w>
第7 8</w>
第6 7</w>
立 项</w>
立 断</w>
直 线</w>
直 前</w>
盟 军</w>
留 宿</w>
男 人</w>
瓶 装</w>
理 查
班 轮</w>
王 洪
王 乐
狂 热</w>
热 那亚</w>
渐 进式</w>
测 定</w>
油 轮</w>
沸 腾</w>
汽 车
江 河</w>
求 证</w>
求 斯</w>
民协 都</w>
毫无 道理</w>
比兰 德拉</w>
毒 气</w>
横 幅</w>
案 犯</w>
格 里
林 林
林林 总
林林总 总</w>
松 绑</w>
李福 祥</w>
李炳 才</w>
机 立断</w>
朱 亚
朱亚 衍</w>
本 经营</w>
智 囊</w>
是 处</w>
明 市</w>
旺 季</w>
无 日</w>
斯 卡
断 绝</w>
文 田</w>
数以 十
数以十 万计</w>
攻击 性</w>
收 购价</w>
掏 腰包</w>
挖 沙</w>
指 使</w>
抗 药性</w>
抗 力</w>
承 租</w>
扬 声器</w>
戴维 斯</w>
成 文</w>
慷 慨
惭 愧</w>
恩 斯</w>
急 就
急就 章</w>
得 罪</w>
往 直前</w>
影 音</w>
当 权</w>
当 机立断</w>
张 建</w>
张 君</w>
弄 虚作假</w>
开放 型</w>
年 岁</w>
干 洗</w>
巴 耶夫</w>
屈 辱</w>
居 住
尼 茨基</w>
少 部分</w>
小 本经营</w>
对 称</w>
宾 拉登</w>
宣 战</w>
实 话</w>
学术 性</w>
孙 子</w>
姑 且</w>
好 友</w>
头 部</w>
外 访</w>
外 表</w>
塞内 加尔</w>
地 道道</w>
地 地道道</w>
在 校</w>
国 境</w>
固 醇</w>
四十 五分</w>
吴 黎明</w>
吓 人</w>
合 而为一</w>
司 可</w>
右 手</w>
只 求</w>
发 行人</w>
包 销</w>
包 办</w>
劫 持</w>
加拉 加斯</w>
加 风</w>
加 长</w>
劝 导</w>
到 时</w>
利比 里亚</w>
出乎 意料</w>
出 人
减 息</w>
农 牧民</w>
共 谋</w>
兰 特</w>
八 十
全国 工商联</w>
免 得</w>
克 森</w>
克 斯
先 河</w>
儿 戏</w>
信 任
使用 税</w>
何 文田</w>
住 院
伸 手</w>
伤 感</w>
传 入</w>
会 话</w>
优 惠
今 夏</w>
亮 相</w>
交 错</w>
五 二</w>
也 非</w>
乔 治</w>
乒乓 球</w>
之 年</w>
严 防</w>
不失 时机</w>
三十 七</w>
三 月份</w>
一无 是处</w>
s en
hy gi
hygi en
g en
d a</w>
d a
c ar
6. 7%</w>
5 点</w>
4 -0
39 亿</w>
3. 3%</w>
3. 2%</w>
25 a</w>
23 a</w>
19 0
17 0万</w>
12 8
11. 1%</w>
+ 3</w>
鼻 子</w>
黑 手
黑手 党</w>
黄 子孙</w>
鲜 肉</w>
高 寿</w>
高 坚</w>
骨 肉</w>
驶 往</w>
飞 碟</w>
顶 尖</w>
韩 东方</w>
青 睐</w>
难 处</w>
阿 卡耶夫</w>
阵 阵</w>
阴 霾</w>
阙 如</w>
阉 割</w>
长 龙</w>
钓鱼 岛</w>
钓 鱼</w>
金 钟</w>
金 泳
金泳 三</w>
金 永
醒 悟</w>
酌 量</w>
那 末</w>
道 四</w>
造 谣</w>
逐 个</w>
逃 脱</w>
适 应
适应 性</w>
退 步</w>
追 随者</w>
迷 惘</w>
过 虑</w>
边 缘
身 旁</w>
跳 板</w>
越 级</w>
赵 衍
赵衍 红</w>
贺 信</w>
贵 重</w>
象 牙
象 征
说 三
说三 道四</w>
该 书</w>
诡 辩</w>
诚 心</w>
诗 人</w>
诈骗 罪</w>
评 判</w>
认 错</w>
计 时
言 犹
言犹 在
言犹在 耳</w>
装备 部</w>
裂 缝</w>
行 骗</w>
藏 文</w>
蓝 天</w>
萨利 姆</w>
药 厂</w>
茫 茫</w>
色 金属</w>
船 务</w>
致 用</w>
脱 钩</w>
肿 瘤</w>
耕 作</w>
而不 闻</w>
罗 拉</w>
罗 叔</w>
组 阁</w>
纯 收入</w>
红 外</w>
粗 疏</w>
第三 :</w>
第7 1</w>
站 稳</w>
立 足
立 国</w>
突 变</w>
穿 越</w>
空 难</w>
离 失
离失 所</w>
神 户</w>
确 定性</w>
确 凿</w>
硬 派</w>
短 时期</w>
看 重</w>
百 年
白 卷</w>
瘦 身</w>
畅 谈</w>
男 丁</w>
电讯 社</w>
电子 战</w>
田 弘
田弘 茂</w>
生死 存亡</w>
生 机
玛 嘉
玛嘉 烈</w>
王洪 起</w>
独 善
独善 其
独善其 身</w>
特 快</w>
爱德华 兹</w>
炎 黄子孙</w>
灭 绝</w>
演 示</w>
滋 长</w>
源 源</w>
深 省</w>
海 尔</w>
浩 大</w>
流通 量</w>
流 离失所</w>
洗 钱</w>
洗 衣
汹 涌</w>
水 晶
比 方</w>
歇 尔</w>
格 利
某 地</w>
松 散</w>
村 长</w>
杆 菌</w>
有 把握</w>
显示 器</w>
显 眼</w>
日 夜</w>
文 教</w>
政治 学</w>
政 变</w>
政 体</w>
摊 派</w>
推 委会</w>
接 下来</w>
探 明</w>
拉 各
拉各 斯</w>
折旧 率</w>
抗 击</w>
执 法
打 主意</w>
才 厚</w>
成 语</w>
惨 案</w>
恭 喜</w>
总 装备部</w>
总 后勤部</w>
必 备</w>
心 人</w>
微 波</w>
微 小</w>
徐 才厚</w>
征 程</w>
往 日</w>
张 浩</w>
张 气焰</w>
张 学
弗拉 尼茨基</w>
弄 清</w>
开 学</w>
市 况</w>
尼日 尔</w>
少 有</w>
寒 流</w>
寂 寞</w>
客 轮</w>
宋 德
安 员</w>
学生 会</w>
孙 亚
孙亚 夫</w>
始料 不及</w>
好 客</w>
奉 承</w>
太 古</w>
大 气
多 管齐下</w>
均 收入</w>
土 地
四 百万</w>
四 五</w>
嚣 张气焰</w>
噩 梦</w>
喀 布尔</w>
呆 滞</w>
听 而不闻</w>
向 非</w>
名 人</w>
台 联</w>
古 城</w>
发人 深省</w>
发 自</w>
去 留</w>
去 年初</w>
却 说</w>
博 茨瓦纳</w>
化 为
勒 马</w>
勇 往直前</w>
动荡 不安</w>
加 祥</w>
前 程</w>
制 假</w>
别 墅</w>
分 界线</w>
减 负</w>
凄 惨</w>
冷 却
养 生息</w>
其 美</w>
六 百万</w>
公 诸
八 二</w>
全 其美</w>
光 芒</w>
先 天</w>
做 文章</w>
保 安员</w>
俄 通社</w>
佳 节</w>
作 废</w>
佛罗里 达州</w>
体 坛</w>
休 养生息</w>
以 武</w>
从 没</w>
从 容</w>
人 均收入</w>
人 人
亦 乐</w>
亚 军</w>
云 集</w>
二零零 五年</w>
二 期</w>
久 远</w>
临时 工</w>
两手 抓</w>
两 全其美</w>
专利 法</w>
不 妙</w>
不 在乎</w>
上 所述</w>
一 言
te d</w>
comm un
c or
al l
8 9年</w>
7 4%</w>
7 2%</w>
6 9
5. 7%</w>
5 4
4-0 5</w>
3. 4%</w>
3 3亿</w>
200 4-05</w>
2. 5亿</w>
199 5-96</w>
199 4
199 3</w>
196 7年</w>
19 4</w>
17 .</w>
16 2</w>
14 3</w>
13 0
12 6</w>
12 4</w>
12 .</w>
11 4</w>
1 万亿</w>
0. 8%</w>
---- ----
鼓 噪</w>
默 哀</w>
麻 雀</w>
鲨 鱼</w>
鲁 迅</w>
魔 术</w>
高 超</w>
驾 驶
额 度</w>
音 响</w>
革 职</w>
集团 式</w>
降 级</w>
陈锦 华</w>
阿不 来
阿不来 提</w>
锁 定</w>
重 就
重就 轻</w>
酗 酒</w>
避 重就轻</w>
遇 害</w>
造 船</w>
送 入</w>
迪 尔</w>
足 球场</w>
赈 灾</w>
贵 族</w>
贝 克</w>
豫 不决</w>
象征 性</w>
谢尔 盖
谋杀 罪</w>
说 起</w>
误 杀</w>
诉 说</w>
计时 器</w>
要 约</w>
褫 夺</w>
补助 费</w>
蛊 惑</w>
藏 语</w>
蕴 含</w>
蒙古 国</w>
茂 坪</w>
苦 心</w>
若 揭</w>
航运 界</w>
航 程</w>
臭 味</w>
自由 港</w>
脚 步</w>
耐 火</w>
而 生</w>
翻 身</w>
美容 院</w>
罗 高寿</w>
罗 宾逊</w>
纪念 馆</w>
紧 跟</w>
精 良</w>
米 切尔</w>
第二十 八</w>
第7 4</w>
第 三十</w>
笔 试</w>
笑 容</w>
突 袭</w>
空 中
穆 萨</w>
稍 稍</w>
科 普</w>
离 谱</w>
短 讯</w>
相 容</w>
登 载</w>
留 情</w>
电影 界</w>
理事 长</w>
班 禅</w>
王 汉
犹 豫不决</w>
特遣 队</w>
特 邀</w>
爱 惜</w>
然 若揭</w>
热 情
热情 洋溢</w>
点 头</w>
炫 耀</w>
灾 情</w>
灯 光</w>
濒 危</w>
游 泳池</w>
海 陆</w>
海 防</w>
派 兵</w>
洪 灾</w>
洛 夫</w>
波 浪</w>
沦 落</w>
沙 雷
沉 淀</w>
永 葆</w>
气 节</w>
气 管</w>
残 破</w>
殉 职</w>
歌 舞</w>
橡 胶</w>
概 览</w>
梅 内
格 格
格格 不入</w>
根 据
根据 地</w>
株 式
株式 会社</w>
枯 竭</w>
杨 成
杨 京
杨京 德</w>
来 去</w>
李家 泉</w>
李 氏</w>
望 相助</w>
有法 不依</w>
曾 有人</w>
晚 餐</w>
昭 然若揭</w>
明 示</w>
明 斯克</w>
无 期徒刑</w>
旋 转</w>
斐 济</w>
敦 谷</w>
教 区</w>
摩托 罗拉</w>
摊 位</w>
搜 捕</w>
提 款</w>
推 理</w>
接踵 而来</w>
排 行</w>
排 查</w>
抹 杀</w>
抗 战</w>
所 望</w>
所 思</w>
戏 剧性</w>
意 算盘</w>
意 气</w>
意 在</w>
德 纳
待 人</w>
影 业</w>
彩 色</w>
张云 飞</w>
建 行</w>
延 聘</w>
年轻 化</w>
席 卷</w>
巴 德</w>
尖 子</w>
导 火
家 计</w>
宣传 部</w>
实 习
定 局</w>
守 望相助</w>
嫌 疑犯</w>
如 意算盘</w>
好 战</w>
奔 走</w>
夷 所思</w>
失 所望</w>
大 案</w>
大 失所望</w>
大 吉</w>
大 中
坚 定性</w>
在 逃</w>
国务院 办公厅</w>
四点 五</w>
喜 庆</w>
喜 人</w>
哈拉 雷</w>
品 味</w>
听 力</w>
后 退</w>
合 肥</w>
叹 息</w>
受 贿
友 人</w>
卸 下</w>
半 殖民地</w>
千 千
千千 万万</w>
匪 夷所思</w>
劳动 生产率</w>
刘云 芳</w>
刘 江</w>
刑事 诉讼法</w>
分 管</w>
出 炉</w>
凤 山</w>
几 百万</w>
减 刑</w>
八 百万</w>
八 千
僵 硬</w>
停 产</w>
值 勤</w>
候 诊</w>
倒 车</w>
侦 缉</w>
佩 带</w>
佐 敦谷</w>
伊斯坦 布尔</w>
产 销</w>
交 锋</w>
交 流会</w>
于 非</w>
于 人</w>
二十 亿</w>
九 .</w>
之 流</w>
举 报
中华 全国总工会</w>
中 菲</w>
中 波</w>
东道 国</w>
东 西部</w>
专 电</w>
不可 磨灭</w>
不 管
不 振</w>
七 点</w>
一九六 九年</w>
th c</w>
s ch
ma n</w>
in an
commit te
= =
9 9.
8 7%</w>
7. 3%</w>
6. 3%</w>
6 6亿</w>
5 6亿</w>
4 5万</w>
4 40</w>
4 000万</w>
35 0亿</w>
23 7</w>
2 1亿</w>
18 0亿</w>
15 4</w>
15 .</w>
14 500</w>
13 4</w>
12 9</w>
12 7</w>
1. 2亿</w>
0. 7%</w>
0. 4%</w>
0. 00
龙 城区</w>
齐 怀远</w>
鲁 丽</w>
高 处</w>
飞 抵</w>
革命 家</w>
零 八</w>
难以 忍受</w>
陈 才
陈才 林</w>
阅读 机</w>
闻不 问</w>
锺 士
锺士 元</w>
量 洪</w>
避 难
通 电话</w>
辐 照</w>
转 述</w>
转 弯</w>
身 故</w>
越 俎
越俎 代
越俎代 庖</w>
起 源</w>
赤 潮</w>
赖 性</w>
贪 污
贪 得
贪得 无
贪得无 厌</w>
责 令</w>
谢尔盖 耶夫</w>
读 本</w>
诬 蔑</w>
诬 告</w>
许 福
要 员</w>
表 演
行 我
行我 素</w>
董 会
葛 量洪</w>
营 救</w>
英 雄
英 式</w>
苦 楚</w>
良 民</w>
自 古</w>
脚 石</w>
罗 祥</w>
缅 怀</w>
绊 脚石</w>
紧 接着</w>
第5 .
笑 声</w>
空 头
空头 支票</w>
穆 加
科 隆</w>
科 济
禁 绝</w>
禁 忌</w>
矿 山</w>
石 永
相 联</w>
留 级</w>
电 磁
王永 庆</w>
王 在
王在 希</w>
独立 王国</w>
特 尼
爱 诗</w>
热 闹</w>
温布 莱</w>
深 情</w>
消费 税</w>
流 氓</w>
泛 滥</w>
法 权</w>
油 渣</w>
气 球</w>
民政 部</w>
比 如说</w>
正 华</w>
棺 材</w>
梁 爱诗</w>
树 杰</w>
本 区</w>
朝 韩</w>
替 换</w>
曹 志</w>
新闻 办</w>
新 民主主义</w>
斯 州</w>
斗 士</w>
整 洁</w>
教 宗</w>
故 乡</w>
改 写</w>
播 发</w>
探 求</w>
振 宇</w>
指挥 所</w>
抢 占</w>
批 注</w>
执行 主席</w>
托 马
我 行我素</w>
懒 惰</w>
慰 安
慰安 妇</w>
慕 尼
慕尼 黑</w>
感 染
意 想不到</w>
想 必</w>
情 味</w>
悬 垂</w>
总 参</w>
思 源</w>
心 病</w>
心 机</w>
心 得</w>
德 曼</w>
微 笑</w>
徒 劳</w>
往 事</w>
彭 树杰</w>
彩 票</w>
当 即</w>
张 忠
张 志
弗 利
开发 计划署</w>
开 课</w>
应 允</w>
幻 影</w>
干 路</w>
常 情</w>
布 置</w>
屠 场</w>
就 座</w>
将 士</w>
对 立
寥 寥</w>
客 运量</w>
客 源</w>
好 奇</w>
失 落</w>
失 学</w>
太 原</w>
多 重</w>
多 利</w>
外 方</w>
基 里
垃圾 车</w>
坏 人</w>
地 狱</w>
嘲 笑</w>
喷 射</w>
商业 性</w>
周永 康</w>
名 列
可 贺</w>
受 权</w>
参 看</w>
去 处</w>
危 楼</w>
卫 视</w>
十字 路口</w>
北 岸</w>
化为 乌有</w>
动 物园</w>
副 手</w>
前 茅</w>
前 人</w>
刁 难</w>
出版 界</w>
凤 凰</w>
军 界</w>
全 线</w>
党 纪
先 驱</w>
储 备
借 入</w>
候 补</w>
何 鲁丽</w>
住院 费</w>
今 秋</w>
人民 战争</w>
人 情味</w>
亚 裔</w>
二 炮</w>
争 斗</w>
举 重</w>
不管 怎样</w>
不 闻不问</w>
不 规则</w>
不 朽</w>
不 均</w>
三十 二</w>
三 亿
一百 六十</w>
一 线</w>
一 清
· 卡
x i</w>
t h</w>
o m
es t
c es
b n</w>
9 7-98</w>
7 6%</w>
7 50万</w>
6. 6%</w>
6 50</w>
6 2%</w>
6 1%</w>
5 000万</w>
4 2亿</w>
30 .
3 2万</w>
3 2000</w>
27 万</w>
26 万</w>
26 .
24 万</w>
23 0万</w>
19 50年</w>
16 0亿</w>
15 2</w>
14 5</w>
12 8</w>
10 7</w>
1. 3</w>
0. 5</w>
鸟 笼</w>
高兴 华</w>
高 无上</w>
高 喊</w>
骚 动</w>
驶 离</w>
驱 动</w>
马 力</w>
预 估</w>
顾 之
顾之 忧</w>
音 量</w>
雷 锋</w>
雄心 勃勃</w>
隗 福
隗福 临</w>
降 解</w>
陆 基</w>
闲 置</w>
长 霖</w>
长 跑</w>
铜 牌</w>
重 婚</w>
邦 戈</w>
道 别</w>
逻 辑
送 货</w>
追 赶</w>
达 尔</w>
软 弱
软弱 无力</w>
赶 往</w>
费尔 南
购 销</w>
贪 图</w>
责 成</w>
调 和</w>
调 员</w>
请 示</w>
说 不
误 点</w>
该 厂</w>
词 夺
词夺 理</w>
许福 瑞</w>
许 嘉
譬 如说</w>
解 救</w>
观 测</w>
观 摩</w>
裕 民</w>
藏 传</w>
萨 摩
营 盘</w>
营 事业</w>
荼 毒</w>
节 外
节外 生
节外生 枝</w>
艰 难
船 高</w>
船 艇</w>
至 高无上</w>
自 决权</w>
脸 上</w>
肺 结核</w>
老 工人</w>
罗 斯
累 月</w>
紫 阳</w>
粮 农</w>
管制 法</w>
第 90</w>
窝 蜂</w>
空间 站</w>
科 什</w>
祖 父</w>
礼 宾</w>
砖 头</w>
着 实</w>
真 寺</w>
相 去
相去 甚
相去甚 远</w>
白 银</w>
登 革
疏 通</w>
电 气化</w>
用 电</w>
生育 率</w>
生物 武器</w>
瓦 蒂</w>
独 霸</w>
热 水器</w>
烈 性</w>
灰 心</w>
激 昂</w>
演 愈
演愈 烈</w>
滨 逊</w>
温 床</w>
清 真寺</w>
涨 船高</w>
法 论</w>
汇 合</w>
水晶 球</w>
水 涨船高</w>
毅 然</w>
残 骸</w>
榜 首</w>
梅 加
梅加 瓦蒂</w>
档 次</w>
查 究</w>
查 清</w>
杨 光</w>
来 源于</w>
朱 丽
本 能</w>
有 理</w>
曾 几
曾几 何时</w>
易 燃</w>
明 言</w>
无家可 归
无家可归 者</w>
无 靠</w>
无 望</w>
无 依
无依 无靠</w>
方 法论</w>
新华 网</w>
斯 塔
攻 打</w>
攻 克</w>
插 头</w>
振振有 词</w>
报 喜</w>
报 关
报关 单</w>
扫 毒</w>
慈 朴</w>
愈 演愈烈</w>
愈 加</w>
心 头</w>
得 克萨
彼 得</w>
强 词夺理</w>
张德 广</w>
引 咎
引咎 辞职</w>
建设 部</w>
度 日</w>
底 价</w>
年 累月</w>
年 息</w>
平 面</w>
师 长</w>
布鲁 克</w>
布 尔
巴拉 迪尔</w>
巴 新</w>
差 错</w>
巨 人</w>
工 农业</w>
岛 市</w>
展览 馆</w>
射 影</w>
封 圣</w>
对立 面</w>
宝 荣</w>
宋德 福</w>
学 习班</w>
孙 振宇</w>
妻 室</w>
大 潮</w>
多 渠道</w>
多 得</w>
复 辟</w>
声 名</w>
国际 台</w>
四十 七</w>
四 中全会</w>
四 :</w>
周 慈朴</w>
后 顾之忧</w>
右 派</w>
召 见</w>
发 稿</w>
发 电站</w>
双 双</w>
危险 物品</w>
卡 ·
南 南</w>
南 丹</w>
协 调员</w>
半 天</w>
十 五分</w>
北 极</w>
勒 令</w>
前 滨</w>
制 式</w>
利 达</w>
创 见</w>
创 出</w>
刘 国
切 割</w>
出 新</w>
凯 利</w>
减 灾</w>
冯 沪</w>
内 科</w>
公 营事业</w>
免 于</w>
克莱斯 蒂尔</w>
克 林</w>
像 样</w>
保 皇
体育 场</w>
低 头</w>
伤 病</w>
以 西</w>
以 继
人民 警察</w>
亲 情</w>
五 ·
互 换</w>
于 同</w>
二 百万</w>
二 楚</w>
乔 夫</w>
乍 得</w>
中国 人</w>
中 美洲</w>
中 大</w>
中 坚</w>
东 坡</w>
世 事</w>
专 横</w>
不 顾
不 快</w>
三 八</w>
万 一千</w>
一清 二楚</w>
一 窝蜂</w>
x ix</w>
v is
un d
m e</w>
5. 2%</w>
5 20</w>
5 0000</w>
4 :1</w>
4 20</w>
28 0万</w>
28 000</w>
26 0万</w>
19 000</w>
17 5</w>
13 8</w>
12 3</w>
0. 5
0. 25%</w>
- 2001</w>
鼓励 性</w>
鹤 祥</w>
鲁 滨逊</w>
马 达
飞行 器</w>
飞 升</w>
露 面</w>
银 牌</w>
都 市
通信 卫星</w>
逐 户</w>
迫 降</w>
这 就是说</w>
还 债</w>
近 利</w>
运输 机</w>
迈 尔斯</w>
载 体</w>
软 件
转 站</w>
身 手</w>
路 易
路 径</w>
走 路</w>
货 轮</w>
负 数</w>
说 客</w>
许嘉 璐</w>
订 金</w>
计 可
计可 施</w>
触 即
触即 发</w>
解 脱</w>
观 团</w>
补 遗</w>
行 星</w>
血 肉</w>
蛋 糕</w>
藏 匿</w>
萨摩 亚</w>
荆 棘</w>
英雄 主义</w>
自然 人</w>
胁 迫</w>
耗 电量</w>
罪 责</w>
罗 ·
缉 获</w>
统 战
统战 部</w>
结 尾</w>
经 不起</w>
约 诺</w>
精 干</w>
粥 少</w>
第三十 五</w>
第8 2</w>
突 发性</w>
稿 件</w>
福 克斯</w>
社会 活动</w>
磊 落</w>
破 除</w>
砖 块</w>
短 浅</w>
睿 智</w>
真 抓
真抓 实干</w>
监察 员</w>
皮 诺
皆 大
皆大 欢喜</w>
白 天</w>
病 源</w>
疟 疾</w>
畸 形</w>
由 原</w>
田 长霖</w>
田 曾
田曾 佩</w>
瓜 分</w>
瑞 华</w>
王德 凤</w>
王 进
王 志
玉 米</w>
爱 戴</w>
点 燃</w>
火 险</w>
漩 涡</w>
演 化</w>
满 载</w>
清 正
清正 廉洁</w>
深入 人心</w>
涌 来</w>
波 幅</w>
法 子</w>
沼 泽</w>
气 功</w>
比 价</w>
殡 仪
殡仪 馆</w>
模 样</w>
棍 球</w>
检 索</w>
梅 嘉
梅嘉 娃
梁 宝荣</w>
桩 机</w>
案 发</w>
栽 种</w>
核 威慑</w>
板 块</w>
朱丽 兰</w>
本 文</w>
本 哈
本哈 根</w>
未 婚</w>
有生 之年</w>
有 色金属</w>
有 为</w>
替 品</w>
曲 棍球</w>
暧 昧</w>
时 无
时无 刻</w>
旱 情</w>
无私 奉献</w>
无 计可施</w>
无 时无刻</w>
无 尽</w>
方 夜
方夜 谭</w>
斯特拉 达</w>
文 斯</w>
收 敛</w>
操作 系统</w>
援 建</w>
推 举</w>
换 上</w>
招 魂</w>
护 送</w>
打 非</w>
打 桩机</w>
恰 相反</w>
恰 恰相反</w>
急 功
急功 近利</w>
心 酸</w>
心 境</w>
心 一
心一 意</w>
德 斯</w>
当 政</w>
张 加祥</w>
弘 法</w>
弗利 卡</w>
引 资</w>
开 销</w>
康 文
应 先</w>
年 增长率</w>
师 范
工业 品</w>
山 西省</w>
局 性</w>
小 数</w>
富 足</w>
富 民</w>
家 长
安全 局</w>
安 民</w>
孙 杰</w>
好 人</w>
天 方夜谭</w>
大气 层</w>
大 炮</w>
大 于求</w>
多 粥少</w>
外 线</w>
外 军</w>
复 印</w>
境 内外</w>
在 荃湾</w>
国 语</w>
园 内</w>
四 七年</w>
器 皿</w>
哥 本哈根</w>
周文 重</w>
启 后</w>
听 话</w>
各 党</w>
发 票</w>
参 观团</w>
厂 务</w>
博尔 基亚</w>
卓 识</w>
千 丝
千丝 万
千丝万 缕</w>
匿 名</w>
医 药费</w>
勤 政</w>
劳动 模范</w>
功 利</w>
刘思 影</w>
分 公司</w>
出 狱</w>
凭 着</w>
冰 球</w>
冤 枉</w>
内 里</w>
公安 人员</w>
公 理</w>
全 局性</w>
全 人</w>
党 纪</w>
僧 多粥少</w>
假 释</w>
修 饰</w>
保皇 党</w>
保护 费</w>
保 证人</w>
保 罗</w>
侯 鹤祥</w>
依 存</w>
供 需</w>
供 大于求</w>
但 凡</w>
伤 口</w>
传 说</w>
伙 同</w>
代 替品</w>
仇 视</w>
什 凯
亚太 经济</w>
亚 非</w>
五十 六</w>
二零零 一</w>
二 至</w>
买 入</w>
九 分</w>
丰 裕</w>
中 转站</w>
中 医院</w>
两 栖</w>
世 博
不知 所
不 过
不 济</w>
下 陷</w>
上 风</w>
一百 亿</w>
一次 性</w>
一九九 九</w>
一 触即发</w>
一 把手</w>
一 心一意</w>
v e</w>
te r</w>
p an
il l
en ce</w>
8 9
8 5万</w>
8 1%</w>
8 00亿</w>
7. 8%</w>
6 b</w>
6 9%</w>
5 4a</w>
5 00
4 0000</w>
3. 9%</w>
3 600</w>
3 -9
2 1万</w>
19 7</w>
17 6</w>
15 7</w>
13 9</w>
13 0亿</w>
12 1</w>
11 9</w>
1. 6%</w>
08 9
0 1</w>
齐 驱</w>
黑 洞</w>
黄 昏</w>
驾 齐驱</w>
马拉 维</w>
马 虎</w>
马 绍尔</w>
题 发挥</w>
预 谋</w>
顺 从</w>
面 具</w>
青 联</w>
险 阻</w>
院 务</w>
陈 列</w>
附 和</w>
阶级 斗争</w>
阳 性</w>
闹 市</w>
镜 子</w>
锦 田
鉴 别</w>
重 典</w>
都市 化</w>
郭 东坡</w>
避 害</w>
遮 盖</w>
逾 越</w>
连锁 店</w>
违 章</w>
进口 货</w>
运 而生</w>
辽 宁
边缘 化</w>
辛 酸</w>
输 家</w>
转 折
转折 点</w>
身 着</w>
跳 舞</w>
跑 马</w>
趋 利
趋利 避害</w>
起 义</w>
赶 回</w>
赞 美</w>
赛 场</w>
贵 州
贵州 省</w>
货 值</w>
败 者</w>
负 一</w>
谊 赛</w>
详 谈</w>
话 会</w>
证 据
证据 法</w>
记 述</w>
誓 词</w>
见 惯</w>
裁 者</w>
衰 竭</w>
行 经</w>
血 缘</w>
葬 礼</w>
萨 诺</w>
莫 及</w>
茶 话会</w>
苦 不堪
苦不堪 言</w>
若 因</w>
芸 芸</w>
花 瓶</w>
自尊 心</w>
肇 事
肇事 者</w>
肃 性</w>
联 谊</w>
耐 劳</w>
老 生
老生 常
老生常 谈</w>
美 金</w>
罪 证</w>
缺 氧</w>
绝 路</w>
经 办</w>
细 目</w>
纸 板</w>
管 治权</w>
第五十 六</w>
第7 2</w>
第 二
空 见惯</w>
税 法</w>
科济 列夫</w>
科 维奇</w>
秉 公</w>
私 自</w>
私 生活</w>
碰 壁</w>
硅 肺</w>
破 例</w>
矿 井</w>
盐 酸</w>
疲 于
疲于 奔
疲于奔 命</w>
留 学
留学 人员</w>
电 贺</w>
理 大</w>
王 文
独 裁者</w>
特尼 特</w>
特 罗</w>
物 美</w>
物 种</w>
烦 扰</w>
烟 囱</w>
烛 光</w>
烈 酒</w>
炮 火</w>
灰 复
灰复 燃</w>
火 炭</w>
火 化</w>
消 遣</w>
浓 烟</w>
波 助
波助 澜</w>
泉 水</w>
沟 渠</w>
沙 洲</w>
水 禽</w>
水 文</w>
比 作</w>
毁 谤</w>
死 灰复燃</w>
步 兵</w>
欲 望</w>
横 行</w>
概 全</w>
植 物
梅嘉娃 蒂</w>
梅内 姆</w>
梅 杰</w>
格林 斯潘</w>
枪 击</w>
杂 物</w>
机 油</w>
本 本</w>
明 说</w>
旧 金山</w>
无 用</w>
新 村</w>
斯特 罗
文化 大革命</w>
教条 主义</w>
敌 机</w>
政 议政</w>
操作 性</w>
摄 像
推 波助澜</w>
排 水量</w>
掉 头</w>
拱 手</w>
拖 拉
拉 纳</w>
报 送</w>
护 法</w>
把 持</w>
打 字</w>
手 下</w>
所 列明</w>
战 力</w>
成 品
成品 油</w>
感 情
感情 用事</w>
悠 长</w>
忘 却</w>
心 里
德 国队</w>
往 常</w>
当 面</w>
弟 子</w>
开 口</w>
开 关</w>
开 倒车</w>
廉 物美</w>
应 运而生</w>
并 驾齐驱</w>
布特 弗利卡</w>
布 图</w>
履 新</w>
尽心 竭力</w>
尚 方宝剑</w>
小 家庭</w>
客 船</w>
客 商</w>
安乐 窝</w>
学 以
学以 致用</w>
子 公司</w>
始 作
始作 俑
始作俑 者</w>
女 婴</w>
大 谈</w>
大 江</w>
大 公报</w>
大 人</w>
大 不
多 斯
夏 粮</w>
声 明书</w>
增 援</w>
坎 坷</w>
在 家</w>
圣 约翰</w>
国 法</w>
国 式</w>
因 人
回 扣</w>
四十 八</w>
四 面
四 二</w>
四 万
嗜 好</w>
商 行</w>
哈马 斯</w>
和 文</w>
吨 位</w>
同 位
同位 素</w>
吉尔吉 斯</w>
合 格率</w>
各 式</w>
司 空见惯</w>
右 倾</w>
台 湾
取 义</w>
反 复
双 轨</w>
友 谊赛</w>
参 政议政</w>
厂 址</w>
印 方</w>
卢 瑞华</w>
占 林</w>
半 生</w>
千 古</w>
十 三点
动 脉</w>
出 力</w>
减 缩</w>
准 绳</w>
冲 天</w>
军 校</w>
军 乐队</w>
关 门</w>
八 三年</w>
全 长</w>
入 为主</w>
克 朗</w>
先 入为主</w>
停 战</w>
偏 概全</w>
借 题发挥</w>
信 函</w>
依 赖性</w>
伸 缩</w>
伦 不
伦不 类</w>
众 一心</w>
价 廉物美</w>
以 偏概全</w>
人 治</w>
亮 点</w>
交 纳</w>
交 互</w>
五 万
二 手
乞 求</w>
乙 级</w>
中央 书记处</w>
中 心
严 肃性</w>
严 刑</w>
两 手</w>
专 有</w>
不 肯</w>
不 如说</w>
不 伦不类</w>
三十 四</w>
三 百亿</w>
万 象</w>
万 众一心</w>
万 事</w>
一九六 五年</w>
一 去
t y</w>
n ational
m on
f r
environ mental
de r</w>
c h</w>
b e
a c</w>
8. 2%</w>
7 点</w>
7 b</w>
6. 4%</w>
6 4亿</w>
5 500</w>
4. 7%</w>
4 9亿</w>
3-9 4</w>
3 00
24 000</w>
200 3</w>
2. 9%</w>
19 a</w>
17 7</w>
16 7</w>
16 6</w>
13 7</w>
11 .</w>
10 +3</w>
麻 痹
高 阁</w>
高 中级</w>
骤 然</w>
马 尔</w>
首 创</w>
飘 扬</w>
风 采</w>
须 申</w>
顶 层</w>
音 速</w>
非 银行</w>
非 凡</w>
静 观</w>
雪 柜</w>
雀 跃</w>
陈 出新</w>
阿 姆
阿姆 斯特
通 加</w>
通 俗</w>
逃 走</w>
逃 亡</w>
述 要</w>
迫 近</w>
连 环</w>
过 多</w>
迅 即</w>
辛辛 苦苦</w>
软件 业</w>
蹶 不振</w>
起 炉灶</w>
货 源</w>
贝 理
贝理 雅</w>
谚 语</w>
谎 话</w>
请 命</w>
误 区</w>
该 村</w>
警 官</w>
觉 醒</w>
观 性</w>
裁判 员</w>
蝗 虫</w>
蓝 领</w>
药 水</w>
荒 唐</w>
范 文
苍 蝇</w>
舍 监</w>
臭 气</w>
自食其 果</w>
自 大</w>
臆 测</w>
聪明 才智</w>
经 文</w>
算 数</w>
第九 十七</w>
第8 8</w>
第1 60</w>
第 一百</w>
章 取义</w>
积 水</w>
票 人</w>
神 州</w>
磁 悬浮</w>
破 产
破产 案</w>
瞒 骗</w>
真 机</w>
省 籍</w>
相 机</w>
相 左</w>
直 系</w>
监 票人</w>
益 率</w>
皆 知</w>
痛 恨</w>
痛 定
痛定 思
痛定思 痛</w>
疑 团</w>
生物 学</w>
瓦 尔</w>
班 迪</w>
王汉 斌</w>
狗 肉</w>
煽 惑</w>
照 抄</w>
溶 解</w>
湄 公
湄公 河</w>
混 委会</w>
深 处</w>
淫 秽</w>
流 行性</w>
流 浪</w>
洪 涝</w>
洗 澡</w>
泵 房</w>
波 士顿</w>
泛 性</w>
沉 船</w>
求 和平</w>
氏 族</w>
比 勒
比 什凯
比什凯 克</w>
武 功</w>
桑 特</w>
格 斗</w>
格 士</w>
树 林</w>
枪 战</w>
林 区</w>
林 伟
来 迟</w>
来 不及</w>
权 势</w>
本 期</w>
有 备</w>
昌 义</w>
无 处
无处 不在</w>
无 味</w>
旅游 者</w>
施 用</w>
新闻 网</w>
新 药</w>
新 址</w>
斯 塔</w>
断 章取义</w>
敬 业</w>
敏 感
收 益率</w>
收 留</w>
播 送</w>
推 陈出新</w>
接 通</w>
排 水管</w>
抽 税</w>
折 算</w>
抗 日</w>
抗 御</w>
抒 己见</w>
承 运</w>
打 架</w>
打 响</w>
感 化
感化 院</w>
感 人</w>
恶 梦</w>
归 宿</w>
强 硬派</w>
弹 道</w>
库 克</w>
广 泛性</w>
干 细胞</w>
常规 武器</w>
常 人</w>
帕 夫
希 萨诺</w>
布 罗
巴 嘎
巴嘎 班迪</w>
巴 哈
差 点</w>
巨 浪</w>
巨 型</w>
岛 国</w>
山 边</w>
尼 加拉
尼加拉 瓜</w>
尤 多
尤多 约诺</w>
小 渊
尊 崇</w>
对 准</w>
寒 蝉</w>
宽 广</w>
家 畜</w>
客 观性</w>
官 职</w>
学 派</w>
孤 儿</w>
子 宫</w>
姗 来迟</w>
姗 姗来迟</w>
好 奇
好奇 心</w>
女 方</w>
奥 ·
天 使</w>
天 上</w>
大有 作为</w>
大 酒店</w>
大 洋</w>
大 区</w>
多 哈</w>
壮 阔</w>
塞尔维亚 共和国</w>
塔 式</w>
埋 藏</w>
埋 没</w>
圆 形</w>
国际 级</w>
四十 三</w>
嘱 咐</w>
哥尔 夫</w>
和 社工</w>
吴 建民</w>
向 港</w>
后 台</w>
名列 前茅</w>
名 胜</w>
合 众
各 抒己见</w>
司 澄清</w>
台 北
台北 市</w>
另 起炉灶</w>
口 语</w>
反 常</w>
双 规</w>
县 委</w>
卡 罗
升 迁</w>
千 克</w>
十 七点
劣 质</w>
力 发电</w>
副 食品</w>
刘 东
刘东 凯</w>
出口 国</w>
出 手</w>
出 奇</w>
关 节</w>
八 点</w>
全 能</w>
入 籍</w>
光明 磊落</w>
佩 雷
作 非</w>
传 真机</w>
人 造
交 换
二手 车</w>
二00 八</w>
了 然</w>
九 月份</w>
乏 力</w>
义 正
主席 台</w>
主 业</w>
不 成</w>
下 坡</w>
上 佳</w>
万 事
七 十五</w>
一九零 五年</w>
一九六 四年</w>
一九六 八年</w>
一 蹶不振</w>
一 席
· 哈
tr ic
th or
t ur
t en
n o</w>
i b
hygien e</w>
hongk ong
ar y
ar d
7 分</w>
6 7%</w>
5 70</w>
4. 4%</w>
4. 3%</w>
4. 2%</w>
4 80</w>
3 90</w>
3 1
28 00</w>
22 a</w>
20 3
2 -9
194 8年</w>
19 00</w>
18 5</w>
17 1</w>
14 1000</w>
13. 9%</w>
13 .</w>
12 .5%</w>
1. 1%</w>
. com</w>
龙 去
龙去 脉</w>
齐 齐</w>
黎 世</w>
鸟 类</w>
鱼 业</w>
高 高
高 架
高 山</w>
马达 加
马达加 斯加</w>
马 车</w>
马 丁</w>
食物 中毒</w>
顾 全
顾全 大局</w>
顺 遂</w>
非 暴力</w>
非 共和国</w>
霸 主</w>
雷 根</w>
陪 伴</w>
降 雨量</w>
防 空洞</w>
阅 览</w>
问 号</w>
银 河</w>
铁 饭碗</w>
铁 道
铁 梁</w>
醒 目</w>
配 售</w>
郭 永
部 位</w>
邀请 赛</w>
避难 所</w>
逼 迫</w>
通 路</w>
透 不过
透不过 气</w>
迷 不
迷不 悟</w>
远 见
远见 卓识</w>
远 方</w>
辽宁 省</w>
较 之</w>
轻 工业</w>
软 化</w>
转 基因</w>
转 发</w>
资 质</w>
贵 阳</w>
责任 心</w>
负 于</w>
谦 虚</w>
谢 瓦尔
谢瓦尔 德纳
谢瓦尔德纳 泽</w>
谋 略</w>
该 所</w>
译 名</w>
诋 毁</w>
要 领</w>
西 南部</w>
衰 弱</w>
表演 者</w>
蛮 横</w>
藤 森</w>
蒋 正华</w>
葫 芦</w>
营 地</w>
营 利</w>
苏 黎世</w>
艺术 团</w>
航天 局</w>
致 志</w>
胸 怀</w>
肯 尼
股 指</w>
联 运</w>
耐 烦</w>
翻 修</w>
美 籍</w>
罗 致</w>
网 点</w>
维 尔
续 订</w>
终 端</w>
约翰 ·
索 拉纳</w>
筑 路</w>
第8 3</w>
第6 9</w>
第 92</w>
第 80</w>
第 75</w>
空 战</w>
程 表</w>
秀 菊</w>
离 破碎</w>
离 京</w>
福 音</w>
示 范
眼 目睹</w>
眼 人</w>
监 督
白 蚁</w>
疫 病</w>
疑 难</w>
男 孩</w>
由此 可知</w>
田 中
猜 度</w>
狭 义</w>
特遣 部队</w>
片 段</w>
片 展</w>
燃 点</w>
然 性</w>
热 能</w>
点 点</w>
火 焰</w>
演 讲
源 地</w>
温 习</w>
渤 海</w>
涉 足</w>
消 彼
消彼 长</w>
泰 方</w>
泪 弹</w>
氯 气</w>
此 消彼长</w>
桌 上</w>
校 正</w>
某 某</w>
林伟 强</w>
杰 罗</w>
杨 铁梁</w>
来 龙去脉</w>
李 汉
李 万
木 板</w>
有增无 已</w>
有 心人</w>
有 偿</w>
普 洛斯</w>
普 拉
昏 迷</w>
明 眼人</w>
旷 日
旷日 持久</w>
时 隔</w>
时 时</w>
无关 宏
无关宏 旨</w>
无 愧
无愧 于</w>
无 几</w>
斯特罗 耶夫</w>
斤 计较</w>
斤 斤计较</w>
料 理</w>
文 明
敷衍 了事</w>
数以 亿
数以亿 计</w>
教 义</w>
救 命</w>
支 离破碎</w>
操 场</w>
撕 毁</w>
摇 篮</w>
推 移</w>
拨 乱
拨乱 反正</w>
拉 宾</w>
抵 抗力</w>
投 靠</w>
抒 发</w>
执 迷不悟</w>
打 气</w>
手 表</w>
手 工</w>
惠 三</w>
惊 惶</w>
恶 行</w>
怂 恿</w>
志 稳</w>
心 致志</w>
微 生物</w>
律 性</w>
彷 徨</w>
强 奸
开 火</w>
建 材</w>
延 安</w>
应 诊</w>
平 价</w>
常务 委员会</w>
师 训</w>
市 郊</w>
山 川</w>
居住 地</w>
尔 马
少年 儿童</w>
小渊 惠三</w>
封 不动</w>
对 本</w>
宽 裕</w>
宽 厚</w>
实 证</w>
实 兵</w>
定 规</w>
官 正</w>
学 分
学分 制</w>
字 体</w>
妇 人</w>
头 苦干</w>
失 掉</w>
太 和</w>
天 职</w>
大中 城市</w>
大 街</w>
大 熊猫</w>
大 惊
大 兴
多 佛</w>
复 业</w>
备 金</w>
声 纳</w>
塔 尔
基 线</w>
埋 头苦干</w>
均 势</w>
地 道</w>
在 下</w>
图 片展</w>
国 门</w>
围 攻</w>
园 林</w>
四十 二</w>
唱 歌</w>
哥 大</w>
周 德
吴 官正</w>
向 着</w>
同 寅
吉 尔</w>
合众 国</w>
可 卡
可卡 因</w>
变 现</w>
发行 量</w>
发行 者</w>
发 生率</w>
及 至</w>
及 格率</w>
县 长</w>
原 封不动</w>
卡 里
单 人</w>
包 罗
募 集</w>
勋 章</w>
劳 模</w>
动 脑筋</w>
动 手</w>
加利福 尼亚州</w>
力 主</w>
刷 新</w>
出 没</w>
准 备金</w>
决 非</w>
冯 秀菊</w>
内 脏</w>
养 鱼业</w>
兹 ·
兵 员</w>
关 村</w>
公诸 于世</w>
全 景</w>
党 务</w>
免 不了</w>
克 隆</w>
光 盘</w>
先天 不足</w>
催 泪弹</w>
储备 粮</w>
便 装</w>
体 面</w>
企 盼</w>
任 志刚</w>
人之 常情</w>
亲 眼目睹</w>
交换 机</w>
亚历山 大
二点 五</w>
二 月份</w>
书 目</w>
乔 木</w>
之 明</w>
主 修</w>
中英 街</w>
中 关村</w>
两 得</w>
两 亿</w>
专 心致志</w>
不 耐烦</w>
不 绝</w>
不 愧</w>
上 车</w>
三十 三</w>
一条 龙</w>
一千 二百
一举 两得</w>
一 堂</w>
ti c
th er
t t
s pe
s ho
on g</w>
li mi
is o
i v
heal th</w>
g u
7 8%</w>
6. 1%</w>
6 500</w>
6 3亿</w>
5. 6%</w>
5 9%</w>
5 -
4 6亿</w>
3. 8%</w>
23 1</w>
2000 -2001</w>
2 :
199 1</w>
16 8</w>
15 8</w>
15 3</w>
14 2</w>
10 点</w>
1. 6亿</w>
1 10万</w>
魔 鬼</w>
高 手</w>
驱 散</w>
马 卓
马卓 安</w>
领 略</w>
项 令人</w>
露 骨</w>
零 点</w>
陈 俊
阿 盟</w>
阿 什
阵 亡</w>
防 变</w>
问 世</w>
锦 绣</w>
锦 囊</w>
锣 密
锣密 鼓</w>
释 疑</w>
酬 劳</w>
配 方</w>
配 戴</w>
郭永 怀</w>
避 孕
道 贺</w>
通 融</w>
迪 亚
远 航</w>
进 城</w>
进 制</w>
轻 重
越 野</w>
超 人</w>
赦 免</w>
贪污 罪</w>
负 重</w>
贝 里
调 用</w>
调 处</w>
谁 知</w>
诺 罗
诚 心
诚心 诚意</w>
试 用
试用 期</w>
访 谈</w>
讼 案</w>
许 信
许信 良</w>
计 其
计其 数</w>
警 卫</w>
誓 旦
誓旦 旦</w>
规 律性</w>
衣 食
蝴 蝶</w>
葡 萄</w>
落 幕</w>
苏 里
花 样</w>
航 速</w>
舒 缓</w>
腐 防变</w>
胶 卷</w>
耳 目</w>
耗 时</w>
耐 力</w>
网络 版</w>
网 罗</w>
缠 身</w>
缉 捕</w>
绝 少</w>
纪念 品</w>
纪 录
纪录 片</w>
红 利</w>
纠 集</w>
繁 盛</w>
紧 锣密鼓</w>
紧 凑</w>
米 亚</w>
管 用</w>
第二十 九</w>
第7 9</w>
第2 00</w>
第12 4</w>
第 30
稽 之
稽之 谈</w>
稳 重</w>
稳 当</w>
科学 界</w>
离 间</w>
碎 片</w>
矿 泉水</w>
石家 庄
相 识</w>
盐 田</w>
的 亚</w>
百 思
登革 热</w>
疲 倦</w>
留 言</w>
电视 剧</w>
电 镀</w>
生 气
生气 勃勃</w>
环 境
玫 瑰</w>
王进 东</w>
特种 部队</w>
爆 竹</w>
烈 火</w>
满 怀
滑 冰</w>
港 协</w>
渣 打</w>
渡 者</w>
渠 成</w>
清 缴</w>
海洋 法</w>
测 算</w>
活 动
活 佛</w>
泽 克</w>
油 污</w>
沧 桑</w>
汽车 业</w>
汽 水</w>
汗 水</w>
水 到
水到 渠成</w>
毫 升</w>
比 武</w>
母 体</w>
残 暴</w>
死 难</w>
此起彼 落</w>
歌 颂</w>
欧安 会</w>
次 日</w>
梅 里</w>
核 燃料</w>
校 址</w>
枷 锁</w>
杨成 明</w>
李万 燮</w>
服 气</w>
有 非</w>
有 空</w>
有 名
有 加</w>
更 张</w>
暴 升</w>
景 区</w>
明 治</w>
日 产量</w>
无 稽之谈</w>
新 西伯利亚</w>
新 居</w>
新 几内亚</w>
斯 莱斯</w>
教育 委员会</w>
敏感 度</w>
放 行</w>
放 纵</w>
放 火</w>
改弦 更张</w>
撒 手
提 炼</w>
推 敲</w>
授 意</w>
拒 腐防变</w>
扶 梯</w>
扫 而
战 败</w>
成 中文</w>
慎 密</w>
惊 慌</w>
悲 愤</w>
恒 久</w>
恐 惧
总 领馆</w>
急 忙</w>
德 军</w>
张俊 雄</w>
张俊 九</w>
开普 敦</w>
建设 者</w>
建 构</w>
年 利率</w>
带 水</w>
希 普
巴布 亚
巴布亚 新几内亚</w>
巴 拉圭</w>
巨 头</w>
工商 银行</w>
山 头</w>
山 上</w>
尽 头</w>
封 闭
对 内</w>
家 万
家万 户</w>
实际 工资</w>
宗 淮</w>
安德 烈
宁 夏</w>
孩 童</w>
学 好</w>
存 款额</w>
字 母</w>
孔 子</w>
威 廉</w>
好 使</w>
女 排</w>
奇 特</w>
失 败者</w>
天下 之
外 援</w>
复 合</w>
复 合
增 资</w>
埋 葬</w>
坦 然</w>
坑 道</w>
均 匀</w>
场 站</w>
地对 空</w>
国 别</w>
围 墙</w>
四十 六</w>
四 面</w>
嘉 奖</w>
善 忘</w>
售 票</w>
售 票
哲 理</w>
后 座</w>
名 贵</w>
名 将</w>
同 月</w>
同 寻常</w>
同 乡</w>
各 条</w>
台湾 省</w>
召 力</w>
口 处</w>
受 众</w>
取 道</w>
发言 者</w>
发展 性</w>
卢 布</w>
卡 尔</w>
卑 鄙</w>
华 语</w>
千 家万户</w>
十 进制</w>
劳 斯莱斯</w>
力 点</w>
分析 员</w>
冷 酷</w>
冷 冻</w>
军 衔</w>
冒 充</w>
六 七年</w>
公 私</w>
先 期</w>
偷 渡者</w>
倾 向性</w>
值 钱</w>
信 誓旦旦</w>
供 奉</w>
体 院</w>
低 沉</w>
低 收入者</w>
伺 机</w>
伪 币</w>
企 事业</w>
以为 常</w>
仝 人</w>
人造 卫星</w>
人民 党</w>
交 货</w>
二 来</w>
二 千万</w>
二 0
事 业
事 不
习 以为常</w>
九 十八</w>
乘 势</w>
乔 宗淮</w>
主 编</w>
为数 众多</w>
中心 组</w>
中国 红十字会</w>
中国 工商银行</w>
中 队</w>
两 百</w>
专 用
不容 乐观</w>
不 计其数</w>
上 半
万国 权</w>
一 词</w>
一 步
一 扫而
一 声</w>
一 发</w>
p ub
p m
h a
en g
commun ic
committe e</w>
9. 4%</w>
9 6-97</w>
8. 7%</w>
8 10万</w>
8 -
7 500</w>
7 3亿</w>
6 点</w>
6 70</w>
6 4000</w>
6 0000</w>
5 60</w>
4. 6%</w>
4 8亿</w>
4 200</w>
35 分</w>
3 300</w>
199 0</w>
196 0年</w>
18 4</w>
17 2</w>
14 .</w>
10 .5%</w>
1. 4亿</w>
08 8
0 4</w>
齐 声</w>
默 认</w>
麻 痹</w>
麻 木</w>
鱼 苗</w>
驾驶 员</w>
驶 过</w>
马拉 通加</w>
马 线</w>
首 份</w>
馆 内</w>
食 粮</w>
飞 翔</w>
风 声</w>
领导 人员</w>
革命 英雄主义</w>
面 孔</w>
难 上加
难上加 难</w>
随 军</w>
陀 利亚</w>
阿布 扎
阿布扎 比</w>
阿卜杜 勒</w>
阿 利耶夫</w>
闽 南</w>
闭 关
长 安</w>
镜 片</w>
针 灸</w>
金 字
量 刑</w>
野 外</w>
郊 外</w>
避孕 套</w>
避 孕</w>
道 具</w>
造 表</w>
选 情</w>
远 处</w>
进退 两难</w>
进口 商品</w>
进 税</w>
进 化</w>
运 河</w>
身 高</w>
踪 影</w>
踏 足</w>
路 一
路一 条</w>
跃 居</w>
起 到</w>
起 人</w>
贝里 沙</w>
谷 物</w>
谍 报</w>
调 剂</w>
许 许
许许 多多</w>
警 察
言 商</w>
解 冻</w>
衣食 住
衣食住 行</w>
蒸 蒸
蒸蒸 日
蒸蒸日 上</w>
蒙 得
蒙得 维
蒙得维 的亚</w>
营 房</w>
苦 痛</w>
胡 志
肺 病</w>
聘 书</w>
而 异</w>
美 新</w>
维 艰</w>
维 夫</w>
结 案</w>
经常 化</w>
纺织 界</w>
累 进税</w>
紧 要</w>
精 湛</w>
粪 便</w>
等 值</w>
第四十 三</w>
第一百零 七</w>
第3 44</w>
第12 3</w>
立足 点</w>
立 基</w>
立 名目</w>
空 心</w>
穆加 贝</w>
秋 后</w>
社会 保险</w>
石家庄 市</w>
短 处</w>
知 半
知半 解</w>
省 会</w>
相 聚</w>
相 形
相 互
目 击
目击 者</w>
百 般</w>
登 场</w>
略 略</w>
男 篮</w>
生机 勃勃</w>
生 财</w>
班 底</w>
王乐 泉</w>
王 炬</w>
独 尊</w>
牧 师</w>
牙 膏</w>
焦 急</w>
点 缀</w>
澜 壮阔</w>
演讲 会</w>
演 奏</w>
滑 雪</w>
深 奥</w>
淮 河</w>
涨 率</w>
波 澜壮阔</w>
法 门</w>
法 无
法无 天</w>
沙雷 特</w>
沙 石</w>
汉 族</w>
汉 字</w>
汉 堡</w>
求 达</w>
汀 九</w>
民主 革命</w>
民 安</w>
毫不 动摇</w>
毛里 求斯</w>
比勒 陀利亚</w>
毒 素</w>
残 缺</w>
死 路一条</w>
死 结</w>
死 活</w>
死 囚</w>
此 言</w>
楼 阁</w>
查 检</w>
查 找</w>
李汉 东</w>
李 淑
李 佳
李 亚
李亚 飞</w>
有名 无
有名无 实</w>
有 股</w>
有 升</w>
最 高峰</w>
景 岭</w>
晓 华</w>
是 不是</w>
易 行</w>
无 耻</w>
无 缘</w>
无 瑕</w>
无 法无天</w>
斯特 凡
料 及</w>
斑 马线</w>
文 艺
文 学
文 华</w>
整 修</w>
救 人</w>
政 方针</w>
放 到</w>
攻 防</w>
支 流</w>
攀 登</w>
摊 子</w>
摇 摆</w>
摆 布</w>
排 气</w>
挂 号</w>
拼 命</w>
拖 船</w>
抽 空</w>
报 忧</w>
技术 装备</w>
批 判
批判 性</w>
批 准
扭 亏
打 败</w>
所罗 门</w>
截 流</w>
战 果</w>
愿 以
愿以 偿</w>
想 见</w>
惜 别</w>
惊 恐</w>
总的 看</w>
怪 胎</w>
急 迫</w>
思想 解放</w>
心 寒</w>
得克萨 斯州</w>
得 体</w>
彼得 ·
张锦 胜</w>
弗 雷</w>
开 门</w>
庭 长</w>
库 马拉通加</w>
年 迈</w>
巴 塞
巨 轮</w>
巧 立名目</w>
小 于</w>
封闭 式</w>
对 此</w>
富 国</w>
实习 生</w>
实 为</w>
宝 钢</w>
宝 库</w>
如 愿以偿</w>
女 足</w>
奖 章</w>
夫 特</w>
天文 数字</w>
天 基</w>
大 跃进</w>
大 政方针</w>
大 将</w>
大 呼
大呼 拉尔</w>
多斯 桑托斯</w>
多 党
多党 制</w>
外 宾</w>
复 旦</w>
备 至</w>
声 令
声令 下</w>
增 效</w>
堕 胎</w>
堆 放</w>
地 空导弹</w>
地 毯</w>
国 有股</w>
因人 而异</w>
回 信</w>
商 言商</w>
哲 学家</w>
哗 然</w>
周 五</w>
君 主</w>
向 保安</w>
同 盟
可 持续性</w>
只 字</w>
古 怪</w>
发 起人</w>
发 明
参 股</w>
危 地
印刷 业</w>
卫生 部长</w>
升 起</w>
勋 爵</w>
努 乔
努乔 马</w>
加 进</w>
前 行</w>
利 己</w>
刘 京</w>
列 宁</w>
分 毫</w>
出人 意料</w>
出 局</w>
凶 手</w>
再 现</w>
兼 具</w>
具 特色</w>
六 万
入场 券</w>
入 口处</w>
党 史</w>
倾 注</w>
信用 社</w>
俞 晓松</w>
侨 界</w>
佩 尔
体 魄</w>
伯 格</w>
代 用品</w>
人民 军</w>
亵 渎</w>
亲 信</w>
产 院</w>
产 出</w>
交 响
五十 四</w>
五十 九</w>
于 明天</w>
九 铁
主 干路</w>
主 力军</w>
中国 科协</w>
中 伤</w>
严 竣</w>
两 头</w>
丑 陋</w>
不知所 措</w>
不 胜</w>
不 消</w>
不 慎</w>
上下 一心</w>
上 达</w>
上 涨率</w>
三 三</w>
万 岁</w>
七 百万</w>
一扫而 空</w>
一九六 三年</w>
一九六 一年</w>
一九 一
一 知半解</w>
一 声令下</w>
一 口
· 拉
vo d</w>
tr a
o b
lo g
limi ted</w>
l y
in i
comm issi
ch an
ac t</w>
9. 3%</w>
9 9
9 50万</w>
9 1%</w>
8. 3%</w>
8 8年</w>
8 7年</w>
7. 2%</w>
7. 1%</w>
6 2亿</w>
5. 8%</w>
5 80</w>
5 1亿</w>
4 300</w>
36 万</w>
3 7亿</w>
3 4000</w>
3 10</w>
27 5</w>
20 秒</w>
2-9 3</w>
196 8年</w>
195 6年</w>
17 0亿</w>
16 .</w>
1. 1亿</w>
0. 9%</w>
默 化</w>
麻痹 症</w>
鹦 鹉</w>
鲜 艳</w>
鱼 肉</w>
高 深</w>
驰 名</w>
香 江</w>
飞 扬</w>
颠倒 黑白</w>
颠倒 是非</w>
预 案</w>
顾 忌</w>
韩 朝</w>
韦 尔</w>
非 人</w>
静 止</w>
青 海
零 时</w>
雪 茄</w>
降 雨</w>
陈 文
阿 方</w>
阵 容</w>
问 答</w>
铁道 部</w>
钱 尼</w>
钟 表</w>
金 权</w>
酒 商</w>
通 达</w>
逐 条</w>
追 逐</w>
违禁 品</w>
近 在
运 力</w>
达 尼</w>
边 远</w>
辗 转</w>
轻 工</w>
轴 承</w>
车 身</w>
身 处</w>
跳 楼</w>
赞 叹</w>
资 产
贻 笑
贻笑 大方</w>
贪 婪</w>
货 运输</w>
谢尔 顿</w>
谋杀 案</w>
该 州</w>
诈 勒索</w>
记 下</w>
议 者</w>
训练 场</w>
讨 班</w>
蜜 月</w>
蒸 发</w>
葵 芳</w>
萝 卜</w>
获 得
获得 者</w>
莫 展</w>
莫 不</w>
范 例</w>
航空 界</w>
舌 尔</w>
自治 州</w>
自 危</w>
胡 国
肾 病</w>
耳 盗
耳盗 铃</w>
而 皇
而皇 之</w>
美 梦</w>
罢 免权</w>
编 组</w>
缉 毒</w>
统计 学</w>
经 销</w>
纯 洁
纯洁 性</w>
精 华</w>
筹 莫展</w>
第一百 六十</w>
第7 6</w>
第4 .
立 无
立无 援</w>
立 德</w>
穆 萨
移 默化</w>
积 虑</w>
秀 美</w>
祸 及</w>
神 威</w>
砥 柱</w>
研 讨班</w>
着 力点</w>
真 情</w>
相 见</w>
相 干</w>
盗窃 案</w>
监 听</w>
白 热
白热 化</w>
病 理</w>
电 机</w>
申 购</w>
田 地</w>
甚 佳</w>
甘 情愿</w>
甘 地</w>
珠 宝
珊 瑚</w>
现 实
王 玉
王 室</w>
王 子
独 秀</w>
独 到</w>
特拉 维夫</w>
照 办</w>
然 则</w>
焦 耳</w>
热 血</w>
炮 弹</w>
火 势</w>
澎 湃</w>
潜 移默化</w>
漠 化</w>
满怀 信心</w>
消 逝</w>
流 砥柱</w>
法 学院</w>
泉 州</w>
泄 气</w>
没 完
没完 没
没完没 了</w>
沉 浸</w>
污染 源</w>
江 湖</w>
汇 点</w>
水 泵</w>
水 岭</w>
水 井</w>
民 革</w>
残 废</w>
正 题</w>
歌 星</w>
欣 鼓舞</w>
欢 欣鼓舞</w>
模 特</w>
植 入</w>
校 友</w>
查 封</w>
林 木</w>
来 之际</w>
机 种</w>
本 子</w>
本 书</w>
木 工</w>
有 条
有 方</w>
暗 地
暗地 里</w>
无 的放矢</w>
族 群</w>
旅游 车</w>
新生 事物</w>
新 版</w>
新 法</w>
斯科 特</w>
敲 诈勒索</w>
教 室</w>
救生 员</w>
政 纪</w>
攫 取</w>
摩 罗</w>
掩 耳盗铃</w>
接 收
按 期</w>
拍 照</w>
扬 弃</w>
执法 不严</w>
执 掌</w>
打 斗</w>
戴 利</w>
意 气
惊 醒</w>
情 结</w>
恶 习</w>
恰 巧</w>
恫 吓</w>
快 车</w>
志 平</w>
心 积虑</w>
心 甘情愿</w>
心 之</w>
德 沙雷特</w>
德 克勒
德克勒 克</w>
得 意</w>
当 地人</w>
当 做</w>
归 国</w>
强 暴</w>
开 馆</w>
应 放</w>
序 列</w>
年 才能</w>
平 实</w>
平 地</w>
帆 布
帆布 床</w>
屠 城</w>
展 销</w>
屋 顶</w>
局 里</w>
尾 随</w>
尼 奇</w>
少 先
小 怪</w>
小 儿
小儿 麻痹症</w>
小 众</w>
富 贵</w>
家长 会</w>
家庭 式</w>
客 货运输</w>
客 房</w>
定 单</w>
定 保</w>
学 学</w>
孤 立无援</w>
始 于</w>
如 出
如出 一
如出一 辙</w>
好 过</w>
奥 尼尔</w>
奥 会</w>
奋 发</w>
夹 缝</w>
失 火</w>
天 时</w>
大惊 小怪</w>
大专 生</w>
大 片</w>
大 伟</w>
复 审</w>
复 函</w>
处 心积虑</w>
墙 上</w>
塞 舌尔</w>
塔 纳</w>
塑 料</w>
堂 而皇之</w>
基 廷</w>
坦 承</w>
地 板</w>
地 权</w>
在 目</w>
在 建</w>
在 刚</w>
圈 套</w>
园 艺</w>
嘴 边</w>
周 南</w>
吴 定保</w>
吕 厄</w>
后 方</w>
名 次</w>
合 谋</w>
叫 嚷</w>
古 今
古今 中外</w>
取 水</w>
发 财</w>
反 射</w>
反 叛</w>
历史 唯物主义</w>
历 在目</w>
历 历在目</w>
卡 洛斯</w>
博 得</w>
十 四点
医 务
医务 所</w>
包 底</w>
劳 役</w>
加 索</w>
加 盟</w>
到 来之际</w>
刘 永
列 述</w>
分 水岭</w>
出 言</w>
减 压</w>
冬 奥会</w>
军 情</w>
军 心</w>
其 内</w>
共 建</w>
六 点</w>
六 月份</w>
公 文</w>
八 月份</w>
克里 米亚</w>
倾 诉</w>
债 款</w>
倡 议者</w>
信 不
信不 疑</w>
依 附</w>
人人 自危</w>
人 际</w>
产 前</w>
交 织</w>
交 汇点</w>
五· 二零</w>
亏 损
二 三十</w>
乱 子</w>
九五 五年</w>
九 十九</w>
乔 治
乌 云</w>
主席 令</w>
主 官</w>
为 贵</w>
临时 代办</w>
丰 田</w>
中 流砥柱</w>
严 紧</w>
两 百
东 条
东 方
世博 会</w>
不 说</w>
不 悦</w>
不 在
不 信任
上 阵</w>
三 小龙</w>
三 千万</w>
万 斯</w>
一 阵子</w>
一 筹莫展</w>
一 等</w>
一 月份</w>
· 马
· 奥
ww w
wor k
v el
to f
s or
re e
le c
j u
g 8</w>
f o
b s</w>
ation s</w>
ag e
ac k
ab il
9 8
8. 1%</w>
8 8%</w>
8 5年</w>
70 5</w>
7. 5</w>
7 800</w>
7 1%</w>
6 7亿</w>
5. 4%</w>
5 b</w>
5 5000</w>
4 60</w>
38 万</w>
36 a</w>
3 c</w>
3 400</w>
3 20万</w>
29 0亿</w>
20 a</w>
2. 89</w>
2. 3%</w>
2 1
199 3-94</w>
196 5年</w>
19 3</w>
16 4</w>
15 6</w>
11 .5%</w>
1. 7亿</w>
-9 5</w>
鲁 宾</w>
高 架</w>
高 声</w>
骨 灰</w>
风 尚</w>
风 吹
预 警
预警 机</w>
须 清楚</w>
顺 道</w>
音乐 厅</w>
面 上</w>
青海 省</w>
青 蛙</w>
青 年
零 一</w>
难 逢</w>
难 而
难 事</w>
险 境</w>
除 以</w>
陆 海
陆海 空</w>
阿 里</w>
长 征
金永 南</w>
金 币</w>
重 税</w>
重 心
重心 长</w>
这 天</w>
载 难逢</w>
轻重 缓急</w>
身 符</w>
超 导</w>
赛 季</w>
赐 予</w>
贪 官</w>
豪 感</w>
谢 辛</w>
谁 非</w>
谁 是
谁是 谁非</w>
课 业</w>
语 重心长</w>
话 别</w>
试 题</w>
记 取</w>
警察 局</w>
言 顺</w>
见 所
见所 闻</w>
要 价</w>
西 提</w>
行 间</w>
血 脉</w>
蒂 斯</w>
落 网</w>
英 特尔</w>
英 机</w>
苦 果</w>
节 俭</w>
船 运</w>
航天 飞机</w>
航天 器</w>
自 豪感</w>
脚 趾</w>
胡 笙</w>
胜 出</w>
肃 省</w>
联 欢
耿 耿
耿耿 于
耿耿于 怀</w>
老 伯</w>
耀 邦</w>
翌 年</w>
继 华</w>
练 习
索 夫</w>
管 养
第一百 一
第1 38</w>
立 业</w>
空中 楼阁</w>
科 委</w>
禽 兽</w>
磨 合</w>
破坏 力</w>
知 事</w>
着 眼
眼 泪</w>
省 人大</w>
相 邻</w>
相 约</w>
相 得
相得 益
相得益 彰</w>
皮诺 契
皮诺契 特</w>
百思 不得
百思不得 其
百思不得其 解</w>
疏 浚</w>
男 方</w>
电 部</w>
申索 声</w>
田 中</w>
用 说</w>
用 电器</w>
生产 量</w>
生 成</w>
甘 肃省</w>
理 不理</w>
玷 污</w>
环境 保护
环境保护 局</w>
玩 意</w>
王 学
献 给</w>
猛 虎</w>
狄 更
狄更 斯</w>
牲 口</w>
牛 津</w>
爱 理不理</w>
火 葬</w>
满 腔
滑 稽</w>
源 源
深 长</w>
涉 案
涉案 人员</w>
消 弭</w>
海 基</w>
浮 动
波 顿</w>
波 段</w>
波 哥大</w>
法 医</w>
泄 密</w>
汪 恕
污 浊</w>
水 深</w>
水 力</w>
气 量</w>
气 田</w>
气 旋</w>
民 区</w>
比 比</w>
步 维艰</w>
步 枪</w>
正 言顺</w>
正 传</w>
椅 子</w>
核 弹</w>
某 团</w>
松 弛</w>
松 动</w>
条 规</w>
李 健
杀人 犯</w>
本 职</w>
有条 不
有条不 紊</w>
替 代
替代 品</w>
曾 向
暴 风雨</w>
普 林
晓 阳</w>
明 敏</w>
日 日</w>
日 文</w>
日 以继
日以继 夜</w>
无 碍</w>
无 妨</w>
无 古人</w>
旗 鼓</w>
文 继华</w>
敲 定</w>
敦 ·
放 权</w>
撒 手</w>
插 话</w>
推 诿</w>
接 续</w>
排 解</w>
排 外</w>
据 点</w>
振 奋
振奋 人心</w>
振 华</w>
挥 舞</w>
招 呼</w>
拘 泥</w>
拖拉 拉</w>
拖 拖拉拉</w>
拒 收</w>
抽 烟</w>
抵 赖</w>
报 到</w>
护 身符</w>
抗 炎</w>
执行 者</w>
打 动</w>
手 腕</w>
所 见所闻</w>
房 协
成 思危</w>
成 十</w>
慑 力</w>
愤 懑</w>
感 叹</w>
愚 弄</w>
意 旨</w>
惠 悦</w>
情 意</w>
悬 崖
悬崖 勒马</w>
恳 求</w>
总 则</w>
快 餐</w>
快 慢</w>
志愿 者</w>
必 然性</w>
徐 兴
徐兴 堂</w>
征 服</w>
彭 明敏</w>
归 结</w>
引 向</w>
开 进</w>
开 玩笑</w>
廿 四</w>
库尔 斯克</w>
广 电</w>
广 博</w>
巴 桑
岸 上</w>
山 地</w>
尺 寸</w>
尘 土</w>
导 管</w>
对 开</w>
寓 言</w>
家 用电器</w>
定 息</w>
安 东
存 放在</w>
存 折</w>
威 慑力</w>
奴 役</w>
奢 华</w>
太空 船</w>
天 国</w>
大 同</w>
大 半</w>
处理 器</w>
增 选</w>
填 平</w>
塔 拉
固 守</w>
围 网</w>
回 程</w>
四十 一</w>
喀 什</w>
唯 恐</w>
唆 使</w>
和 普京</w>
咄 咄
周德 熙</w>
周 三</w>
向 布政</w>
名 正言顺</w>
名 利</w>
可 真</w>
叫 喊</w>
参 赞</w>
原 诉</w>
厘 米</w>
厅 级</w>
南 极</w>
华 叔</w>
千 载难逢</w>
千 日</w>
十 月份</w>
十 字</w>
化 肥</w>
包罗 万</w>
劳 安</w>
动 人</w>
前 无古人</w>
刘 顺
切 题</w>
分 类
出 厂</w>
决 裂</w>
冲 锋</w>
冤 情</w>
农 副产品</w>
军 车</w>
内 情</w>
内 因</w>
内 务部</w>
六 十万</w>
公 德</w>
公 债</w>
八 一七</w>
全 校</w>
入 睡</w>
入 座</w>
光 线</w>
元 月</w>
储 藏</w>
停 建</w>
倒 是</w>
修 班</w>
修 女</w>
侨 民</w>
何 乐
伴 侣</w>
传 讯</w>
会 真</w>
优 于</w>
从 头</w>
从 今</w>
亚 尔</w>
五十 三</w>
互 派</w>
二百 亿</w>
事无 成</w>
事 权</w>
争 鸣</w>
举 步维艰</w>
主 轴</w>
主 教练</w>
为人 知</w>
为 害</w>
丹 瑞</w>
中小 学校</w>
个人 主义</w>
丢 掉</w>
东条 英机</w>
不足为 怪</w>
不 结盟</w>
不 经
不 用说</w>
不 外</w>
不 啻</w>
下 级</w>
下 手</w>
三 自</w>
万 难</w>
万 宝
丁 堡</w>
一百 七十</w>
一点 儿</w>
一九九 0年</w>
一 连</w>
一 筹</w>
一 目
一 事无成</w>
一 一
ri gh
per son</w>
of f
o us
l y</w>
ii .</w>
d 8</w>
co l
c er
bo t</w>
au thor
7. 7%</w>
5 5年</w>
4 7亿</w>
4 00
3 :
3 3000</w>
29 亿</w>
25 分</w>
24 6</w>
23 8</w>
20 .</w>
2. 1%</w>
2 秒</w>
19 8</w>
15 .5%</w>
14 1</w>
12 年</w>
1. 8亿</w>
% -
黑 山</w>
鸵 鸟</w>
鸡 肋</w>
高 屋
高屋 建
高屋建 瓴</w>
骨 髓</w>
马 牛
马牛 不相
马牛不相 及</w>
食 盐</w>
风 马牛不相及</w>
面 纱</w>
青 岛市</w>
震 慑</w>
雪 中
雪中 送
雪中送 炭</w>
隔 阂</w>
陶 瓷</w>
陈 希
阿姆斯特 丹</w>
阿 赫
阻 拦</w>
门 牌</w>
错 处</w>
铺 砌</w>
铸 造</w>
钱 正
钱正 英</w>
钟 点</w>
重 用</w>
里 氏</w>
里 德</w>
采 集</w>
采 矿</w>
鄙 视</w>
那 群</w>
遥 感</w>
造 纸
逗 号</w>
迥 然不同</w>
迟 钝</w>
连 连</w>
远 期</w>
这 儿</w>
近 郊</w>
辜 振
辜振 甫</w>
载 运</w>
转 换
车 门</w>
跳 蚤
跳蚤 市场</w>
跳 水</w>
路 人</w>
足 珍贵</w>
越 加</w>
超 重</w>
超 然</w>
超 低空</w>
起 手
起手 来</w>
赵新 考</w>
赵 金
贿 选</w>
费 力</w>
货币 化</w>
财政 危机</w>
财 年</w>
调 减</w>
读 物</w>
诉 状</w>
证券 化</w>
证 物</w>
训练 班</w>
譬 喻</w>
言不 讳</w>
解放 战争</w>
视 不管</w>
要 矛盾</w>
西 娜</w>
行政 区域</w>
行 销</w>
行 其
血 统</w>
虚 名</w>
蓝 色</w>
蒂 纳</w>
莠 不齐</w>
苏 志
良 莠不齐</w>
良 药</w>
舷 梯</w>
舍 夫斯基</w>
胡国 兴</w>
胎 儿</w>
肠 杆菌</w>
肚 子</w>
肉 食</w>
耽 搁</w>
而不 为</w>
而 语</w>
缉 私</w>
绿 地</w>
纪 律
纪律 检查
纪律检查 委员会</w>
索 托</w>
精 锐</w>
精 美</w>
粗 重</w>
簿 册</w>
第四十 一</w>
第三十 七</w>
第8 6</w>
第 95</w>
竞 技</w>
稽 查</w>
积 分</w>
科技 型</w>
科 生</w>
科 摩罗</w>
福 尔
禁 用</w>
碰 上</w>
石 岗</w>
石 块</w>
相 通</w>
直 言不讳</w>
直 觉</w>
直 指</w>
盲 人</w>
盘 旋</w>
白 内
白内 障</w>
痛 痒</w>
疗 程</w>
畅 销</w>
画 家</w>
电视 网</w>
电 源</w>
电 价</w>
生产 国</w>
生 路</w>
生 土
生土 长</w>
珠宝 店</w>
王国 章</w>
王 朝</w>
王 丙
特 此</w>
牟 取</w>
版 权
版权 法</w>
爱 丁堡</w>
照 会</w>
灰 暗</w>
火 星</w>
潜 水</w>
潜 意识</w>
漳 州</w>
源源 不断</w>
港 股</w>
温 和
温和 派</w>
清 扫</w>
混 乱</w>
深 信不疑</w>
涉 及
涉及 面</w>
浩 劫</w>
活 期</w>
洪 学
洪学 智</w>
洋 人</w>
注 脚</w>
注 一
注一 掷</w>
波 涛</w>
河 野</w>
沙 瓦</w>
沙 姆
汉 市</w>
求 生</w>
气 质</w>
气 蓬勃</w>
民主 主义
民 伤
民伤 财</w>
母 女</w>
毋 庸</w>
殿 下</w>
残 杀</w>
武 汉市</w>
欢 送</w>
榕 树</w>
桂 林</w>
核 工业</w>
样 样</w>
杰 作</w>
条 令</w>
李国 章</w>
李健 雄</w>
杂 质</w>
本 土
本土 化</w>
朝 鲜
朝 气蓬勃</w>
有 据</w>
曾向 我</w>
曾 虎</w>
显 见</w>
时 弊</w>
日 见</w>
日 而语</w>
无可 争辩</w>
无 遗</w>
无 烟</w>
无 暇</w>
无 声</w>
旗 杆</w>
方 便
新 气象</w>
新 民主主义
新 文</w>
文化 部长</w>
文 说</w>
教育 学</w>
教 书</w>
放 大</w>
改 行</w>
攸 关</w>
操 练</w>
摄像 机</w>
摄 制</w>
携 起手来</w>
搁 浅</w>
接 洽</w>
探 视</w>
挤 出</w>
挑 动</w>
指 正</w>
拟 作</w>
招 商
抢 滩</w>
投 融资</w>
投 奔</w>
抓 起</w>
手 套</w>
房 地
我 省</w>
感 同
感同 身受</w>
悍 然</w>
恶 名</w>
恭 维</w>
心 血管</w>
循 守旧</w>
得 角</w>
徐 海
彩 电</w>
强奸 罪</w>
强 盗</w>
弥 足珍贵</w>
张 目</w>
张 全景</w>
开 荒</w>
康 新文</w>
庭 审</w>
应 酬</w>
应 约</w>
广告 业</w>
干 群</w>
师 重
巴桑 乔</w>
差 不齐</w>
巨 款</w>
工作 证</w>
工 盟</w>
巡逻 艇</w>
巡 警</w>
崩 塌</w>
岩 石</w>
山 庄</w>
山 姆</w>
属 性</w>
展 品</w>
尽其 才</w>
尼亚 胡</w>
尚 可</w>
尔 瓦</w>
小 商贩</w>
对 得起</w>
宾 客</w>
宝 座</w>
安 葬</w>
安 保</w>
学 联</w>
学 率</w>
孤 注一掷</w>
孢 子</w>
孙 儿</w>
婚 前</w>
姐 姐</w>
妖 言</w>
奥斯 陆</w>
头 盔</w>
头 子</w>
天然 林</w>
天 渊</w>
天 平</w>
大 陆
大 连
大 赦</w>
大 肠杆菌</w>
大 山</w>
大 叔</w>
大 加</w>
外交 家</w>
壮 观</w>
塔 尼亚胡</w>
基 纳
埃 斯特拉达</w>
埃 文斯</w>
垮 台</w>
垃圾 箱</w>
坐 视不管</w>
在 编</w>
土 生土长</w>
因 循守旧</w>
喷 洒</w>
喧 哗</w>
善 待</w>
商业 楼</w>
周 光
周 二</w>
吵 闹</w>
启 迪</w>
启 航</w>
同 日而语</w>
合 用</w>
合 意</w>
台 盟</w>
发 誓</w>
发 源地</w>
发 单</w>
反 贪</w>
参 差不齐</w>
参 半</w>
原 判</w>
压 缩
卧 底</w>
半 封建</w>
升 天</w>
十五 点
十五 亿</w>
区 位</w>
化 剂</w>
勾 画</w>
劳 民伤财</w>
动 不动</w>
割 断</w>
前 夫</w>
刻 板</w>
利 税</w>
删 改</w>
创 业者</w>
分 晓</w>
出 谋
冲 绳
农 业
内 塔尼亚胡</w>
养 家</w>
共 勉</w>
公 费</w>
公 爵</w>
八 成</w>
全 境</w>
免 疫
克劳 斯</w>
光 缆</w>
光 景</w>
先 是</w>
先 决</w>
催 化剂</w>
健 体</w>
修 车</w>
保护 价</w>
保守 主义</w>
作 权</w>
佛 得角</w>
何乐 而不为</w>
伯 仲</w>
任人 宰割</w>
以 求</w>
人 尽其才</w>
交通 部长</w>
交易 额</w>
交 火</w>
五十 七</w>
于 全港</w>
二00 二</w>
也 罢</w>
乌 方</w>
举世 闻名</w>
主 要矛盾</w>
主 子</w>
中央 纪律检查委员会</w>
中 老年</w>
个 体
两 千
与 共</w>
不顾 一切</w>
不好 过</w>
不 见
不 屈</w>
上 瘾</w>
三十 五分</w>
七 大</w>
一目 了然</w>
一百 四十</w>
一百 八十</w>
一千 六百</w>
一 气</w>
t in
s t</w>
pro f
pm 2.5</w>
p s
on e</w>
m ed
l an
heal th
ec t</w>
d s
cor por
b ri
b ar
ac ti
a m</w>
a b</w>
: 一</w>
8. 6%</w>
8 8亿</w>
70 分</w>
7 9%</w>
6. 2%</w>
6 7年</w>
5. 1%</w>
5 3亿</w>
4 90</w>
4 50万</w>
3 20亿</w>
29 000</w>
26 8</w>
25 6</w>
24 a</w>
24 2</w>
23 00万</w>
2 90</w>
2 14</w>
1: 1</w>
194 7年</w>
18 a</w>
18 1</w>
17 i</w>
17 3</w>
15 年</w>
15 1</w>
13 ·
鸵 鸟
鸵鸟 政策</w>
鲸 鱼</w>
鱿 鱼</w>
高 科技</w>
高 教</w>
骗 局</w>
骗 子</w>
马 桂
首 肯</w>
饶 恕</w>
风 情</w>
频 仍</w>
预 赛</w>
预 付</w>
顾 全</w>
须 迁</w>
顺 势</w>
革命 党</w>
面 罩</w>
非国 有
非国有 经济</w>
非 国有</w>
霍尔 布鲁克</w>
雅 克·
降 职</w>
陈 兆
陈兆 恺</w>
阵 脚</w>
防 备</w>
闲 暇</w>
问 津</w>
门 大吉</w>
长 河</w>
错 事</w>
铁 马</w>
钦 羡</w>
金 斯</w>
重 病</w>
重 武器</w>
重 头
重头 戏</w>
部 湾</w>
遮 掩</w>
逼 人</w>
通 令</w>
追 索</w>
迪 略</w>
连 累</w>
远 亲</w>
这 样
还 魂</w>
还 击</w>
边 防
辩 驳</w>
辛 亥
辛亥 革命</w>
转换 器</w>
转 转</w>
车 长</w>
跌 入</w>
超 音速</w>
起 大
起大 落</w>
赶 尽
赶尽 杀
赶尽杀 绝</w>
赵 长春</w>
资产 者</w>
贺 词</w>
贺 维</w>
费 尽</w>
购 房</w>
贫 致富</w>
质 检</w>
财 产权</w>
贝尔 奖</w>
贝 ·布
贝·布 托</w>
诺 贝尔奖</w>
诞 辰</w>
认 出</w>
警 戒
警戒 线</w>
言 归
言归 正传</w>
言 两
言两 语</w>
观察 镜</w>
西 方
行政 性</w>
行 者</w>
行 健</w>
蛋 白</w>
薄 熙
薄熙 来</w>
蒙古 自治区</w>
萨尔 迪瓦</w>
萨 里</w>
菲 腊</w>
莫 应
莫应 帆</w>
荣 获</w>
荣 凯</w>
英 资</w>
苦 练</w>
花 明</w>
艾哈迈 德</w>
艰难 险阻</w>
舒 畅</w>
致 命
致命 伤</w>
致 勃勃</w>
至 极</w>
自 私
自私 自
自私自 利</w>
脱 贫致富</w>
能 源部</w>
能 手</w>
聚 首</w>
而 起</w>
翠 屏</w>
美联 社</w>
统 称</w>
终 归</w>
细 川</w>
练 就</w>
级 换代</w>
约 瑟
繁 衍</w>
系 亲属</w>
粪 池</w>
策 划
第六 十八</w>
第九 十三</w>
第1 10</w>
第 九十</w>
笔 记</w>
窘 境</w>
空 天
空天 飞机</w>
称 颂</w>
积 弱</w>
科 克</w>
福 田</w>
禁 不住</w>
神经 科</w>
社会 保障
社会保障 部</w>
礼 遇</w>
破 天
省 军区</w>
直 系亲属</w>
盐 田
盐田 港</w>
的 坚尼</w>
痛 惜</w>
画 展</w>
画 像</w>
电话 机</w>
生 根</w>
璀 璨</w>
理论 工作者</w>
理 想
玛 巴</w>
王 子</w>
王 刚</w>
狡 猾</w>
狠 狠</w>
特 大型</w>
爱 情</w>
热 量</w>
炳 忠</w>
灵 敏</w>
火 药
火 墙</w>
漏 税</w>
漏 电</w>
清 朝</w>
浓 缩</w>
洪 洋</w>
洛克 比</w>
泰 山</w>
波 斯
法 语</w>
法 律
泅 渡</w>
沿 袭</w>
沙 虫</w>
汪恕 诚</w>
汇 票</w>
求 进</w>
气 魄</w>
气 息</w>
民主 联盟</w>
民 委</w>
比 起</w>
比 尔</w>
殆 尽</w>
殃 及</w>
死 心</w>
死 地</w>
此 时
此时 此刻</w>
此 处</w>
欢 庆</w>
概 略</w>
核 试</w>
核 技术</w>
标 志
柳 暗
柳暗 花明</w>
柔 道</w>
极 刑</w>
村 山</w>
李淑 铮</w>
李 德</w>
末 代</w>
木 制</w>
朝 日</w>
有 志
有 功</w>
暂 住</w>
普 里</w>
昂 扬</w>
旱 季</w>
无 懈
无懈 可
无懈可 击</w>
无 处</w>
新 九龙</w>
斯科 普里</w>
教 练
教 廷</w>
敏 捷</w>
效 性</w>
政 出
政出 多
政出多 门</w>
政 令</w>
支 路</w>
支 架</w>
搏 斗</w>
搀 杂</w>
推 延</w>
接 种</w>
捣 毁</w>
挥 发性</w>
挤 压</w>
指 掌</w>
拳 击</w>
拉 布</w>
拉 合
担保 人</w>
承 前
承前 启后</w>
扭亏 为
扭亏为 盈</w>
房地 产业</w>
戴 卓
戴卓 尔</w>
戈 尔
憎 恨</w>
慧 珠</w>
恐 龙</w>
总 揽</w>
性 化</w>
思 远</w>
忍 让</w>
忍 睹</w>
心里 有数</w>
心 肠</w>
心 悦
得 及</w>
徐 荣凯</w>
徇 私
开 路</w>
开 赛</w>
建筑 学</w>
废 油</w>
店 主</w>
底 薪</w>
应 试</w>
幻 灭</w>
年 以</w>
布拉 特</w>
巴尔 舍夫斯基</w>
巴 尔</w>
山 谷</w>
山 埃</w>
尼 古
小 镇</w>
对 号</w>
家 门口</w>
宴 会
宴会 厅</w>
实 践
婚 礼</w>
委 以</w>
姓 氏</w>
如 指掌</w>
奥 吉</w>
头 人</w>
失 良机</w>
大连 市</w>
大兴 土木</w>
大 起大落</w>
多 劳
多劳 多得</w>
声 势
声势 浩大</w>
塞 迪略</w>
塔吉 克</w>
塔 里
塔 拉尔</w>
基里 巴斯</w>
基本 点</w>
基 地化</w>
圣 雅</w>
圣 殿</w>
土 穆</w>
国家 科委</w>
喀 土穆</w>
唐 国强</w>
哈 桑
咫 尺</w>
和 社会保障部</w>
和 尚</w>
咄咄 逼人</w>
周光 召</w>
呈 递</w>
吴 荣
名 曾</w>
名 声</w>
同盟 会</w>
同 案犯</w>
同 工</w>
合 流</w>
叶 尔
只 怕</w>
口 音</w>
口 吻</w>
受贿 罪</w>
受 精</w>
发 音</w>
双 拥</w>
双 刃
双刃 剑</w>
原 彰</w>
压缩 机</w>
危地 马拉</w>
南 通社</w>
南 端</w>
卖 家</w>
华 美</w>
升 级换代</w>
匹 敌</w>
北 非</w>
北 部湾</w>
化 粪池</w>
劳动 和社会保障部</w>
动 手术</w>
剪 报</w>
前 日</w>
利 用率</w>
利 好</w>
利 ·
刘 瑞
列 岛</w>
分 得</w>
击 机</w>
出 轨</w>
出 头</w>
凄 凉</w>
决策 层</w>
写 明</w>
内 资</w>
内 蒙古自治区</w>
内 文</w>
兴 致勃勃</w>
关 门大吉</w>
关 照</w>
兰 德</w>
六 十九</w>
党纪 国法</w>
党 际</w>
兆 荣</w>
元 气</w>
修 路</w>
修 剪</w>
修 业</w>
作 坊</w>
何 日</w>
何 年</w>
体育 场馆</w>
体 质</w>
伉 俪</w>
企 及</w>
以为 继</w>
人 祸</w>
人 代会</w>
亲 朋</w>
交通 运输业</w>
五 金</w>
二零零 二年</w>
事业 心</w>
了 如指掌</w>
书 展</w>
乞 丐</w>
举 止</w>
为 民
为 政者</w>
中央 委员会</w>
中 直
中 暑</w>
个体 户</w>
两 端</w>
世 军</w>
不见 得</w>
不得 要领</w>
不 衰</w>
不 拔</w>
不 忍睹</w>
不 屑</w>
下 策</w>
上 列</w>
三 言两语</w>
三 等</w>
七 十一</w>
七 九年</w>
一千 二百</w>
一 动</w>
www .
ro w
p t</w>
of fic
j p</w>
in e
i c</w>
h er
for m
er s</w>
el l</w>
c a</w>
b y
b r
ation of
am p</w>
9· 11</w>
9 7
9 5亿</w>
9 4亿</w>
8 50</w>
7 6亿</w>
6. 8%</w>
5 10</w>
47 6</w>
45 a</w>
4 2万</w>
3. 7%</w>
27 3</w>
25 00万</w>
24 0万</w>
200 8</w>
2 :</w>
2 15</w>
1994 -95</w>
196 4年</w>
19 .</w>
16. 7%</w>
15 秒</w>
15 9
15 0%</w>
14 7</w>
13 3</w>
10 秒</w>
1. 9%</w>
1 :</w>
0 .</w>
黑 帮</w>
麻 原彰</w>
鸭 式</w>
鸡 笼</w>
鲍 彤</w>
鲁 特</w>
高 采
高采 烈</w>
高 姿态</w>
高 加索</w>
骨 牌</w>
骤 增</w>
驱 车</w>
马桂 花</w>
饭 票</w>
风 速</w>
风 水</w>
颈 癌</w>
颁 行</w>
顽 不灵</w>
须 有</w>
顶 级</w>
顶 峰</w>
非 作
非作 歹</w>
静 脉</w>
青 春
青春 期</w>
霸 王</w>
露 无遗</w>
雷 德</w>
雪 域</w>
难民 潮</w>
隐 私
隐私 权</w>
陶 文
陶文 钊</w>
陈希 同</w>
陈 佐
陈佐 洱</w>
阿不 都
阿不都 热
阿 松</w>
阿 克
阴 魂</w>
防 癌</w>
阅 兵</w>
问 处</w>
闪 光</w>
长 廊</w>
长 国</w>
釜 山</w>
金字 塔</w>
量 级</w>
重 读</w>
重 工业</w>
里 行间</w>
里 拉</w>
酋 长国</w>
邱 晓华</w>
那 段</w>
造纸 厂</w>
通 才</w>
逃 往</w>
退 却</w>
迥 异</w>
违 法
进 则
进则 退</w>
这样 一来</w>
运输 量</w>
迎 候</w>
过 场</w>
过 人</w>
辩证 法</w>
轰 滥
轰滥 炸</w>
轮 廓</w>
身 家</w>
跌 落</w>
赶 来</w>
赞 助
货 机</w>
败 类</w>
败 俱
败俱 伤</w>
谅 必</w>
调 解
调解 人</w>
诸 多
诸多 不便</w>
该 团</w>
询 问处</w>
试 试</w>
词 严</w>
论 界</w>
讲 理</w>
讲 机</w>
计 入</w>
言 简
言简 意
言简意 赅</w>
观 止</w>
见 之明</w>
西 沙</w>
表 情</w>
行 公事</w>
薰 陶</w>
蒂 萨里</w>
葬 身</w>
落 败</w>
落 石
落石 出</w>
营 养
莱 马</w>
莫 须有</w>
药 店</w>
荒 诞</w>
茶 果
苛 求</w>
苏里 南</w>
花 招</w>
良 久</w>
舆 论界</w>
自 拔</w>
脱 身</w>
脚 下</w>
肖 成
肖成 林</w>
聚 赌</w>
聚 一堂</w>
联合 报</w>
耶 罗</w>
老 迈</w>
翻 看</w>
美 韩</w>
美 国式</w>
罚 没</w>
网 友</w>
绝 迹</w>
经 社会</w>
纯 洁</w>
纪 子</w>
纠 风</w>
精 粹</w>
篮 球场</w>
管理 法</w>
算 作</w>
答 谢</w>
等 奖</w>
第三十 四</w>
第2 21</w>
第2 .
第1 .
第 93</w>
符 号</w>
竞 相</w>
立 功</w>
穆 塞
秽 语</w>
称 道</w>
离 散</w>
祭 祀</w>
磨 练</w>
真心 诚意</w>
真 谛</w>
真 纪子</w>
真 挚</w>
真 意</w>
看 得出</w>
直 率</w>
登 上</w>
痛 击</w>
疆 界</w>
甲 烷</w>
田中 真纪子</w>
甘 共
甘共 苦</w>
瓦 拉</w>
珠 海市</w>
玻 璃
王学 贤</w>
猪 仔</w>
猛 增</w>
狂 轰滥炸</w>
特 工</w>
牙 买
牌 号</w>
爱 民</w>
熊 昌义</w>
照 旧</w>
焕 平</w>
烟 幕</w>
烟 台</w>
灿 荣</w>
火 炉</w>
瀣 一气</w>
滑 落</w>
滑 板</w>
清 源</w>
清 晰
清 早</w>
深 陷</w>
深 究</w>
液 压</w>
涨 幅</w>
泥 沙</w>
波斯 尼亚</w>
波 普</w>
泡 影</w>
泛 指</w>
法兰 西</w>
法 索</w>
油 漆</w>
沆 瀣一气</w>
求 疵</w>
水 龙头</w>
水 落石出</w>
气 势</w>
毛 求疵</w>
毗 连</w>
殷 永建</w>
死 角</w>
正常 人</w>
正 梁</w>
欧安 组织</w>
欧 委会</w>
欢 欣</w>
植 被</w>
棕 榈</w>
梅 尔</w>
梅 兆荣</w>
桥 本</w>
桎 梏</w>
树 根</w>
柯 利达</w>
柯 伊拉
柯伊拉 腊</w>
枝 独秀</w>
杨 焕
李 晓
李 丽
机 铁</w>
本 科生</w>
末 世</w>
未 艾</w>
未 有
未有 过</w>
曼 彻
曼彻 斯特</w>
暴 露无遗</w>
智 能
普 斯</w>
春 市</w>
明 晰</w>
早 先</w>
日 喀
无关 痛痒</w>
无 记名</w>
无 常</w>
无 容</w>
旅 居</w>
方 兴
方兴 未艾</w>
新 机制</w>
新 政</w>
断 路</w>
文艺 工作者</w>
文学 奖</w>
文化 教育</w>
整 齐</w>
敛 财</w>
教育 家</w>
教 研</w>
敏 仪</w>
播 种</w>
搬 进</w>
插 队</w>
插 入</w>
措 手
措手 不及</w>
推 倒</w>
挫 伤</w>
指 导员</w>
拼 音</w>
拳 头</w>
拉 布
拉 ·
抓 不懈</w>
把 劲</w>
批准 书</w>
扬 威</w>
扫 雷
打 通</w>
手 术
战 绩</w>
我 独尊</w>
憾 事</w>
慈 悲</w>
惨 败</w>
惨 不忍睹</w>
恩 ·
恣 意</w>
恐惧 症</w>
德 市</w>
征 途</w>
彩 池</w>
弱 化</w>
张 敏仪</w>
张 克
弟 弟</w>
引以为 戒</w>
异 味</w>
废 墟</w>
底 层</w>
库 昌</w>
庆 节</w>
年 检</w>
年 产</w>
常 抓不懈</w>
席 间</w>
带 兵</w>
希特 勒</w>
布 雷
布 希
巴塞 罗
差 瓦
巧 妇</w>
左 右
工程 学</w>
工业 国</w>
工 科</w>
山 市</w>
尽 情</w>
小 林
小 型
对 路</w>
对 讲机</w>
对 了</w>
容 身</w>
宫 颈癌</w>
宜 昌</w>
宜 于</w>
定 点</w>
宗 焕平</w>
安全 区</w>
孜 孜
存 档</w>
字 里行间</w>
嫌 犯</w>
委 书记</w>
如 愿</w>
好 话</w>
奴 隶
奥 巴桑乔</w>
奋发 图强</w>
夺 权</w>
夺 战</w>
失 措</w>
大 风</w>
大 赛</w>
大 棠</w>
大 庆</w>
大 字</w>
多 姿</w>
外 壳</w>
外 力</w>
壮 志</w>
填 鸭式</w>
基 尼</w>
地对 地</w>
在 先</w>
土地 管理法</w>
国 庆节</w>
四 肢</w>
嘉 年
喘 病</w>
唯 我独尊</w>
哺 乳
哮 喘病</w>
哪 怕</w>
哈 特</w>
哈 德</w>
哈 巴德</w>
和 浩
呼 和浩
呼 万
呼万 唤</w>
周 锡
周 六</w>
告 发</w>
吹 毛求疵</w>
吴荣 奎</w>
启 蒙</w>
后 半
名 不
同 辈</w>
同 甘共苦</w>
叹 为
叹为 观止</w>
可 操作性</w>
只 管</w>
口 才</w>
受 尽</w>
取 经</w>
发 热</w>
发 作</w>
反 差</w>
参赛 者</w>
厄 运</w>
印 第
卡里 莫夫</w>
卡 特
博 览</w>
南 宁</w>
千 呼万唤</w>
十 年
十 二点
包 装
劲 旅</w>
加 盖</w>
加 热</w>
加 把劲</w>
加 尔
剧 情</w>
前 锋</w>
前 方</w>
制 动</w>
刘顺 尧</w>
列 宁
几 多</w>
冻 死</w>
冷 落</w>
冥 顽不灵</w>
冠 心病</w>
农业 税</w>
军事 化</w>
军 警</w>
军 法</w>
写 道</w>
内阁 制</w>
兴 高采烈</w>
关 西</w>
共 性</w>
六 百亿</w>
公 社</w>
公 生</w>
全 民族</w>
入 股</w>
入 学率</w>
入 伍</w>
克拉 伊
克 里</w>
先 见之明</w>
充 电</w>
停 学</w>
借 机</w>
俄 军</w>
便 衣</w>
侨 联</w>
依 然
例 行公事</w>
伟 思</w>
休息 室</w>
伊 方</w>
仿 效</w>
以 至于</w>
以 东</w>
代表 队</w>
从 未有过</w>
人 犯</w>
亚太 经社会</w>
亚 市</w>
二00 五</w>
争 夺战</w>
习 作</w>
九五 三年</w>
义正 词严</w>
举报 人</w>
举 起</w>
主 犯</w>
为 非作歹</w>
中 原</w>
两 败俱伤</w>
东 流</w>
东 协</w>
世 卫</w>
不相 上下</w>
不复 返</w>
不 进则退</w>
不 及
下 马</w>
三十 九</w>
三 学</w>
七 十二</w>
七 十七</w>
七 八</w>
一去 不复返</w>
一九四 五年</w>
一 枝独秀</w>
ti tu
t e</w>
spe ci
s e</w>
p en
l u
i r
hongk ong</w>
g ro
en t</w>
en t
e d</w>
c as
ban k</w>
an s
an ce</w>
9 4
8. 9%</w>
8. 8%</w>
7. 9%</w>
6 1
5 8亿</w>
5 2亿</w>
37 0万</w>
3 :0</w>
3 70</w>
3 700</w>
29 万</w>
28 1</w>
25 4</w>
24 8</w>
20 5</w>
2 17</w>
198 9</w>
196 9年</w>
195 9年</w>
19 6</w>
19 5</w>
18 2</w>
17 8</w>
14 5
1. 3亿</w>
1 10亿</w>
+ 1</w>
黑 金</w>
黑 手</w>
黄 海</w>
鲁 贤</w>
魏茨 泽克</w>
高高 在
高高在 上</w>
高望 远</w>
高 见</w>
马 里
马 关
饱 满</w>
饭 菜</w>
飞 涨</w>
飞 毛
飞毛 腿</w>
风 行</w>
颠 簸</w>
额 约</w>
额 制</w>
领导 权</w>
预 支</w>
颂 德</w>
顾 此
顾此 失
顾此失 彼</w>
韦 尔
鞠 躬
鞠躬 尽
鞠躬尽 瘁</w>
面 性</w>
非 正规</w>
雷 达
雨 点</w>
隐 晦</w>
随 时
随时 随地</w>
除 万难</w>
降 幅</w>
阿米 塔
阿什 哈巴德</w>
阶 平</w>
防 暴</w>
间 歇</w>
门 牌号</w>
门 子</w>
铺 平</w>
银 川</w>
铁 农</w>
钢 铁
金 杯</w>
重 托</w>
配 额制</w>
配 料</w>
通 缉
适 者
适者 生存</w>
退 党</w>
违 宪</w>
远洋 轮</w>
远 望</w>
运 算</w>
过 激</w>
边 贸</w>
辞 世</w>
转 载</w>
转 行</w>
踌 躇</w>
路 涛</w>
起 落</w>
起 家</w>
赵 明
赃 款</w>
费 城</w>
贬 抑</w>
贪 倡廉</w>
贩 子</w>
质 押</w>
货 款</w>
货 单</w>
败 笔</w>
财 奴</w>
贝 格</w>
贝 利</w>
谣 传</w>
调 频</w>
诺罗 敦·
诺 普洛斯</w>
说 教</w>
话 音</w>
评 说</w>
设计 者</w>
讨 债</w>
计划 委员会</w>
计 献策</w>
计 数</w>
言行 不一</w>
触 角</w>
触 怒</w>
角 膜</w>
觅 食</w>
西 州</w>
袁 炳忠</w>
表面 化</w>
蛇 添
蛇添 足</w>
蒲 鲁贤</w>
落 定</w>
萨 德尔</w>
菲利 普</w>
莱 索托</w>
荡 荡</w>
荟 萃</w>
茶果 岭</w>
英 伦</w>
苗 头</w>
舰 载</w>
至 荃</w>
自由 主义</w>
自然 规律</w>
脂 肪</w>
胡 礼
胡礼 达</w>
胡 乔木</w>
背 信
背信 弃
背信弃 义</w>
肉 眼</w>
肃 贪倡廉</w>
联络 部</w>
老 老
老老 实实</w>
老 幼</w>
群 起</w>
美 利
美利 坚</w>
罹 难</w>
罗 萨
缺 勤</w>
绝 症</w>
绘 制</w>
经贸 混委会</w>
约翰 逊</w>
紫 荆</w>
紧 缺</w>
精 深</w>
精 兵</w>
管 束</w>
第八 十二</w>
第五十 四</w>
第三十 二</w>
第 五十五</w>
第 94</w>
空 防</w>
空 闲</w>
空 转</w>
空 心思</w>
稻 米</w>
租 期</w>
科 罗
私 心</w>
离 子</w>
礼 炮</w>
短 途</w>
短 见</w>
着眼 点</w>
眷 恋</w>
真心 实
真心实 意</w>
盲 点</w>
目 击</w>
目 一新</w>
盛 衰</w>
盘 价</w>
百 出</w>
白 南
白 云</w>
登 高望远</w>
登 岸</w>
疼 痛</w>
画 蛇添足</w>
由 来</w>
生死 攸关</w>
生 人</w>
甚 而</w>
瑞 麟</w>
理想 化</w>
玩 乐</w>
王 瑞
王 牌</w>
王 宫</w>
献 计献策</w>
猥 亵</w>
牙买 加</w>
爱 好
爱好 者</w>
火 药</w>
潜 藏</w>
满 腔</w>
港 资</w>
温 馨</w>
添 加</w>
消费 量</w>
海 沙</w>
海 战</w>
洗 手</w>
洋 洋</w>
泛 起</w>
法 德</w>
沾 染</w>
治 外
治外 法权</w>
沙 丹</w>
汪 洪洋</w>
水 电站</w>
水 手</w>
民 心
民心 所向</w>
民 俗</w>
死 不
正 本
正本 清源</w>
歌 声</w>
欲 速
榴 弹</w>
椭 圆形</w>
植物 人</w>
桑 帕
格 罗
树 人</w>
林 瑞麟</w>
杨 尚
杨尚 昆</w>
杨 启
杨启 彦</w>
杜 梅</w>
权 代表</w>
杀 戮</w>
机 会
机会 主义</w>
本 田</w>
末 路</w>
期 中</w>
服务 站</w>
有 意
有意 无意</w>
更 非</w>
曲 同工</w>
智 者</w>
普 雷
显 赫</w>
显 明</w>
是 图</w>
明 爱</w>
时 局</w>
时 务</w>
无 轨</w>
无 反
无反 顾</w>
方便 之
方便之 门</w>
新 思维</w>
文 体</w>
数 千亿</w>
敬 仰</w>
教育 者</w>
教 所</w>
收 盘价</w>
撒手 不管</w>
援 藏</w>
握 有</w>
控制 室</w>
排 除万难</w>
挤 满</w>
挖 空心思</w>
指 点点</w>
指 指点点</w>
持 久
持久 战</w>
拐 卖</w>
拉 宫</w>
技 改</w>
执 教</w>
托 卡耶夫</w>
托 人</w>
打 捞</w>
打 字
戴 高乐</w>
成 家</w>
成 套</w>
意气 用事</w>
总 政</w>
总 价</w>
怪 不得</w>
思想 家</w>
心 虚</w>
德 纳</w>
德 堡</w>
彼 岸</w>
强 求</w>
弱 视</w>
张永 兴</w>
张忠 义</w>
张克 辉</w>
张 旗鼓</w>
张 援</w>
张 三</w>
异 曲同工</w>
延 缓</w>
延 任</w>
废 话</w>
幽 灵</w>
并 购</w>
干 涸</w>
干 二
干二 净</w>
幕 会</w>
帕 塔
布里 坦</w>
布达 拉宫</w>
布 雷</w>
巴塞罗 那</w>
巴 里</w>
己 方</w>
工 期</w>
居 心</w>
尧 姆</w>
尘 埃
尘埃 落定</w>
尔 顿</w>
导火 线</w>
审判 长</w>
宝 石</w>
官 场</w>
安 享</w>
安 于
安于 现状</w>
守 财奴</w>
季 斯</w>
孝 道</w>
威尔 士</w>
威 士
始 人</w>
如 上</w>
好 日子</w>
套 装</w>
奋 起</w>
奇 妙</w>
头 万
头万 绪</w>
天 花
天 日</w>
大 龙</w>
大 雪</w>
大 理</w>
大 张旗鼓</w>
大 展</w>
大 城</w>
大 喜
大 使
大使 级</w>
夏 令</w>
复合 型</w>
壮 年</w>
基 德</w>
坟 墓</w>
坐 标</w>
坍 塌</w>
国家 发展
国家发展 计划委员会</w>
国务院 令</w>
国 共</w>
园 地</w>
团 圆</w>
四 千万</w>
囊 括</w>
商 厦</w>
哈 比比</w>
哈 桑</w>
哈 克</w>
和 会</w>
命 题</w>
命 关
命关 天</w>
周 铁农</w>
告 慰</w>
吻 合</w>
吴 阶平</w>
向 枢</w>
向 中英</w>
同 伙</w>
吉 德</w>
叶 澍</w>
台 前</w>
口 市</w>
发 指</w>
反 面
反 倒</w>
友 情</w>
参 观者</w>
参 考
印 本</w>
卢 布尔
卡 莫夫</w>
华 纳</w>
华 东</w>
半 球</w>
升 势</w>
十 九点
化 作</w>
勒 紧</w>
劳 教所</w>
加 尧姆</w>
力 学</w>
制 毒</w>
到 之
到之 处</w>
利 落</w>
利 是图</w>
利 器</w>
判 官</w>
创造 者</w>
创 始人</w>
创 始</w>
刘 晓明</w>
刘 大龙</w>
列宁 主义</w>
切 变</w>
出版 署</w>
出 让</w>
凹 凸
凹凸 不平</w>
凑 巧</w>
准确 无误</w>
军 港</w>
军 代表</w>
关税 壁垒</w>
六 十八</w>
六 十三</w>
公 公</w>
八 十亿</w>
八 十三</w>
八 十万</w>
全 权代表</w>
党政 军</w>
党 委书记</w>
党 化</w>
免疫 力</w>
克 雅
克 强</w>
先 知</w>
元 老</w>
偶 像</w>
俯 拾
信息 网</w>
俄 共</w>
使 团</w>
何 勇</w>
优惠 待遇</w>
众 望</w>
伏 特</w>
价 目</w>
令人 发指</w>
代 行</w>
从 重</w>
从 新</w>
仁 厚</w>
人事 部门</w>
人 命关天</w>
亲 近</w>
亲 笔</w>
产业 界</w>
亦 谨</w>
交 集</w>
井 然</w>
五 月份</w>
于 心</w>
二零 四七年</w>
二百 一
九五 九年</w>
义 无反顾</w>
丘 克</w>
不 达</w>
不 甘</w>
不 甘
不 为</w>
下 雨</w>
下 设</w>
上 校</w>
上 升
三 亚市</w>
七 亿
七 万
一席 之地</w>
一千 零
一千 四百</w>
一九四 八年</w>
一九六 二年</w>
一九 二
一九 七</w>
一万 二千</w>
一 班人</w>
一 干二净</w>
ver n
tric t
te m</w>
te le
te ch
soci al
s s
pub lic
p la
nn nn</w>
nn nn
nnnn .</w>
k et
inter national
ins titu
ib m</w>
i o
go vern
g e</w>
f un
e w
d onal
d ic
coun ci
counci l</w>
ch ar
b c</w>
ab le
9 c</w>
9 6亿</w>
8 6
8 3亿</w>
7 0000</w>
5 9亿</w>
5 4亿</w>
5 400</w>
5 -0
5-0 6</w>
4 800</w>
4 350</w>
4 30</w>
3. 5亿</w>
3. 1%</w>
3 30万</w>
2a b</w>
28 a</w>
24 3</w>
22 7</w>
200 5-06</w>
20 6</w>
20 1</w>
2 c</w>
2 :1</w>
2 65</w>
2 12</w>
19 2</w>
19 0万</w>
18 7</w>
0. 1</w>
0 7</w>
黯 然
麻醉 师</w>
高 行健</w>
高 升</w>
骇 浪</w>
驾 机</w>
马克思 主义者</w>
马 托</w>
香 蕉</w>
饥 荒</w>
风 扇</w>
风 化</w>
风 作
风作 浪</w>
顶 住</w>
韩 元</w>
革命 化</w>
非 传统</w>
雪 良</w>
雅 那</w>
陈俊 生</w>
陈 毛
陈毛 弟</w>
陈 奎
陈奎 元</w>
阿不都热 西提</w>
阿 尔</w>
阴 暗</w>
防 火墙</w>
阔 步</w>
门 店</w>
门 外
门外 汉</w>
长 长
长长 的</w>
长 辈</w>
错 案</w>
铁路 局</w>
铁 证
铁证 如山</w>
里 斯</w>
酿 酒</w>
酿 制</w>
邮 资</w>
那 年</w>
邀 功</w>
遮 蔽</w>
遥 控</w>
遗 迹</w>
逸 夫</w>
进 步
近在 咫尺</w>
迈 达尼</w>
辩证 唯物主义</w>
辈 出</w>
轻 生</w>
软 硬
软硬 兼
软硬兼 施</w>
轮 训</w>
轩 尼</w>
车 间</w>
身 赛</w>
身 败
身败 名
身败名 裂</w>
身 健体</w>
跟 着</w>
跌 进</w>
跌 倒</w>
赶 紧</w>
走 狗</w>
赠 款</w>
赘 言</w>
费尔南 德斯</w>
费 神</w>
贷 款人</w>
质 期</w>
贝 鲁特</w>
贝 宁</w>
调 离</w>
诸 国</w>
记 录
认 同感</w>
解放 军
解 组织</w>
规 约</w>
观 瞻</w>
褪 色</w>
装 运</w>
补 发</w>
衣 食</w>
衅 性</w>
血 淋
血淋 淋</w>
血 性</w>
虫 害</w>
蓄 水</w>
葛 林
落 户</w>
萧 万
萧万 长</w>
茶 楼</w>
苦 衷</w>
苦 口
船 坞</w>
致 病</w>
自 营</w>
自 破</w>
自 寻
臂 之
臂之 力</w>
联欢 会</w>
耳 目一新</w>
而 道远</w>
老 牌</w>
老 家</w>
老 区</w>
缠 绕</w>
统 统</w>
统 筹
绝 对
给 养</w>
经 年累月</w>
细 化</w>
组织 部长</w>
纽 约
纽约 州</w>
纳 斯</w>
纪 行</w>
红 楼</w>
素 帕
素帕 猜</w>
米 歇尔</w>
管 炎</w>
策划 者</w>
第8 9</w>
第3 .
第11 3</w>
第10 6</w>
第1 61</w>
第 97</w>
第 96</w>
空 洞
税 区</w>
税 则</w>
移民 法</w>
移民 局</w>
秩 序
秩序 井然</w>
租 用
租用 者</w>
离 异</w>
禁 锢</w>
祸 根</w>
神 速</w>
神 仙</w>
礼 品</w>
礼 仪</w>
确 性</w>
破 损</w>
砖 引
砖引 玉</w>
石永 春</w>
短 波</w>
知 先
知先 觉</w>
眼 疾</w>
真 切</w>
看 守
看守 所</w>
相 悖</w>
相 宜</w>
盲 从</w>
盘 算</w>
百年 树人</w>
瘾 君子</w>
病 魔</w>
病 逝</w>
病 痛</w>
畜 产品</w>
电磁 场</w>
电信 业</w>
用 性</w>
生 硬</w>
生 生
甘 于</w>
瑙 河</w>
理 睬</w>
班 汉</w>
环 食</w>
王 泽</w>
王 森</w>
猪 场</w>
狼 狈</w>
狂 妄</w>
片 刻</w>
煞 有
煞有 介
煞有介 事</w>
焕 利</w>
热 身赛</w>
热 浪</w>
灵 药</w>
灰 意
灰意 冷</w>
火 贵</w>
火 山</w>
激 怒</w>
潜 水
滚 滚</w>
涛 骇浪</w>
消 解</w>
流 泪</w>
洛克 希
泽 尔</w>
法 罗</w>
治 沙</w>
没 落</w>
沉 沦</w>
汪 洋</w>
汤 不
汤不 换
汤不换 药</w>
汉 奸</w>
永 逸</w>
氢 气</w>
气象 台</w>
气 管炎</w>
毛 雪良</w>
比 拉</w>
段 吉
段吉 勇</w>
死 硬</w>
武 术</w>
止 血</w>
欺 侮</w>
欢 聚一堂</w>
概 率</w>
楼 下</w>
检 修</w>
格 言</w>
核 军备</w>
栖 息</w>
树 苗</w>
标 兵</w>
查 案</w>
枪 炮</w>
林 中</w>
板 门店</w>
来 函</w>
村 委会</w>
材 施
材施 教</w>
李 金
李 杰</w>
权 贵</w>
杀 价</w>
机 舱</w>
本 案</w>
未 遂</w>
智能 化</w>
晓 钟</w>
易 辙</w>
明 尼
早 逝</w>
早 早</w>
日喀 则</w>
无所 作为</w>
无 序</w>
旋 即</w>
旅 途</w>
新民主主义 革命</w>
斯 敦</w>
斯 图
斯 卡尔
斥 责</w>
料 之中</w>
斑 斑</w>
敲 诈</w>
救护 站</w>
救 急</w>
政治 犯</w>
放 学</w>
放 大
攻 自破</w>
改 过</w>
排 雷</w>
捷 克
换 车</w>
换 汤不换药</w>
捕 权</w>
振 国</w>
挤 占</w>
挑 衅性</w>
拳 脚</w>
报 请</w>
报 收</w>
报 失</w>
护 短</w>
抛 砖引玉</w>
承 载</w>
批 复</w>
托 ·
手 指</w>
所 托</w>
戚 火贵</w>
成交 价</w>
成 真</w>
成 建制</w>
意 料之中</w>
想 念</w>
惊 涛骇浪</w>
患 无穷</w>
悄 然</w>
恩 赫
恩 惠</w>
怪 异</w>
怒 吼</w>
心 灰意冷</w>
心 想</w>
德 州</w>
彼得 堡</w>
录音 机</w>
当 月</w>
当 头</w>
强 身健体</w>
弹 一
弹一 星</w>
弥 合</w>
张学 忠</w>
开 释</w>
开 诚
开 班</w>
建 厂</w>
延 科</w>
廖 晖</w>
应 诉</w>
庆 贺</w>
年 金</w>
常 年</w>
帮 教</w>
带 头人</w>
布 伦
巴特 列</w>
巴 解组织</w>
巴 巴</w>
工 龄</w>
履 历</w>
屡 禁
展 期</w>
局 外人</w>
就 地</w>
尔 特</w>
尔 加
寻 味</w>
对 接</w>
对 头</w>
寒 冷</w>
富 饶</w>
富 尔</w>
密 特</w>
密 布</w>
容 积</w>
实 业
实 不然</w>
定 量</w>
完 蛋</w>
完 好</w>
学 成</w>
孤 寒</w>
孙 广
存 活</w>
妇 产科</w>
如 归</w>
好 看</w>
奈 尔</w>
夸 耀</w>
夸 大
夸大 其
头 绪</w>
太 贵</w>
大 班</w>
大 气候</w>
大 旱</w>
大 众
多 瑙河</w>
多 布
外 贸
复 本</w>
处 死</w>
增 高</w>
地 震
在 望</w>
国家 教委</w>
困难 户</w>
团 团</w>
因 材施教</w>
回 过</w>
回 生</w>
四 百亿</w>
器 件</w>
嘲 讽</w>
商 誉</w>
商 报</w>
唯物 论</w>
哈萨 克</w>
哈 尔</w>
和 为贵</w>
周 旋</w>
吹 捧</w>
吴 文
含 蓄</w>
后 患无穷</w>
同 性</w>
各 具特色</w>
叶国 华</w>
只 争
只争 朝夕</w>
古 典</w>
发射 场</w>
反面 教材</w>
反复 复</w>
反 革命</w>
反 帝</w>
反 反复复</w>
反 之
反之 亦然</w>
去 除</w>
厂 长</w>
厂 方</w>
即 席</w>
印 章</w>
卢布尔 雅那</w>
卡拉 奇</w>
博尔 格</w>
南 德</w>
单 方</w>
半 径</w>
千 秋</w>
千 头万绪</w>
劳 永逸</w>
功 勋</w>
办公 楼</w>
剪 彩</w>
前 奏</w>
创 刊</w>
刚 果
刘 金
刘 彤</w>
刘 为民</w>
列 斯
切尔诺 贝利</w>
切 入
切入 点</w>
分类 法</w>
分 文</w>
分 号</w>
击 伤</w>
出 港</w>
出 乎</w>
净 资产</w>
冲 洗</w>
冲 击
冤 案</w>
农 林</w>
册 封</w>
内 列明</w>
具 结</w>
其 实不然</w>
兴 风作浪</w>
关 爱</w>
共 管</w>
兰 ·
六 十二</w>
六 亿
公 使</w>
八 零</w>
八 十二</w>
八 仙</w>
全国 人民
全国人民 代表大会</w>
全 额</w>
入 门</w>
克莱斯 勒</w>
先 遣</w>
先 知先觉</w>
假 币</w>
借 词</w>
俨 然</w>
保护 性</w>
保 质期</w>
保 税区</w>
何 故</w>
低 度</w>
位 数</w>
位 一体</w>
会 商</w>
伏 笔</w>
伍 世
伍世 文</w>
伊 萨
任重 而道远</w>
价 位</w>
代 收</w>
付诸 东流</w>
亿 9</w>
亿 5</w>
亲 爱</w>
亲 口</w>
享 年</w>
交 融</w>
亚历山 大</w>
五十 二</w>
二零零 四年</w>
二 三</w>
事 变</w>
主 场</w>
串 通</w>
丰 碑</w>
中 游</w>
个人 化</w>
严 酷</w>
严 寒</w>
两 用</w>
两 弹一星</w>
专用 线</w>
不经 意</w>
不可 同日而语</w>
不信任 案</w>
不 自
不 独</w>
不 犯</w>
不 攻自破</w>
不 利于</w>
不 为
上升 股</w>
上 当</w>
上 山</w>
上 场</w>
三 位一体</w>
万 千</w>
一言 一行</w>
一八 四
一万 三千</w>
一 臂之力</w>
一 大
一 块</w>
一 劳永逸</w>
一 代
一 五</w>
w i
w a
te l</w>
t y
t s
t c
reg ul
o per
n i
m ic
m b
l t
l es
il d
i ti
di rec
c p
bo ard</w>
ar y</w>
9 60</w>
8 6年</w>
8 6亿</w>
7 60</w>
7 47</w>
7 4
7 2亿</w>
7 200</w>
60 b</w>
6 5万</w>
6 30万</w>
6 30</w>
6 0年</w>
5 3a</w>
5 200</w>
48 万</w>
45 0亿</w>
4. 6</w>
4 400</w>
4 4000</w>
4 3a</w>
4 10</w>
38 000</w>
36 5亿</w>
3 800</w>
3 44</w>
29 9</w>
26 2</w>
25 5</w>
24 7</w>
23 9</w>
23 6</w>
2001 -
20 8</w>
20 2</w>
20 15年</w>
2. 4</w>
2. 1</w>
2 13</w>
196 1年</w>
195 5年</w>
194 4年</w>
18 9</w>
17 9</w>
17 4</w>
1. 9</w>
0. 8</w>
0 9</w>
龙 门</w>
鼎 基</w>
黑 山
黑山 共和国</w>
黄 慧珠</w>
麦 棠
麦棠 源</w>
高望 重</w>
马尔 卡
马尔卡 良</w>
马克思 列宁主义</w>
马 特
馈 赠</w>
食 糖</w>
飞 来</w>
风 平
风平 浪
风平浪 静</w>
题 字</w>
韦 德里
韦德里 纳</w>
静 静
集体 经济</w>
隐 匿</w>
限 令</w>
降 临</w>
阿赫 蒂萨里</w>
阿拉伯 联合
阿拉伯联合 酋长国</w>
阿 马托</w>
阿 比
闻 天</w>
闸 门</w>
长 江
长江 三峡</w>
钱 币</w>
钉 截
钉截 铁</w>
鉴 别
金 发</w>
重 镇</w>
重 英</w>
配 送</w>
郊 游</w>
通 通</w>
逐 月</w>
逐 出</w>
适 值</w>
追 回</w>
迫 不及
迫不及 待</w>
连 续
连 夜</w>
近 平</w>
运 筹
过 速</w>
达尔 富尔</w>
边防 军</w>
边 关</w>
辛 旗</w>
辈 子</w>
车 型</w>
身 一
路 网</w>
赶 不及</w>
赵 晓钟</w>
赵 世
费 心</w>
财 金</w>
贝 克尔</w>
谷 野
谢 非</w>
话 语</w>
话 下</w>
试 验
试 工</w>
词 典</w>
评 比</w>
议 制</w>
詹 姆斯
视 率</w>
观察 团</w>
观 主义</w>
见 死不
见死不 救</w>
西 西
西 沙瓦</w>
西 奇</w>
衡 平
衡平 法</w>
行 踪</w>
行 军</w>
血 本
血本 无
血本无 归</w>
血 友
血友 病</w>
藏 语文</w>
藏 品</w>
葬 场</w>
落 叶</w>
萧 灼
萧灼 基</w>
获 救</w>
莘 莘
莘莘 学子</w>
荧 光</w>
苯 乙烯</w>
苏 恺</w>
花 一
花一 现</w>
节 录</w>
至 如归</w>
自然 界</w>
自 诩</w>
自 以为
自以为 是</w>
腐 烂</w>
脱 落</w>
胡 小
胡小 笛</w>
胆 识</w>
肺 部</w>
育 女</w>
肯尼 迪</w>
肩 上</w>
肤 之
肤之 痛</w>
肝 癌</w>
聘 用
聘用 制</w>
联 组
联组 会</w>
联 欢</w>
耐 人
耐人 寻味</w>
考 古
老 路</w>
美 国人</w>
罗伯 特·
缺 课</w>
缺 不
缺不 全</w>
绿 皮
维 新</w>
维 斯</w>
维 兹</w>
绳 之以
统筹 兼顾</w>
结 合
终 点
终点 站</w>
练习 场</w>
索 研</w>
系 主任</w>
精 打
类 固醇</w>
管 家</w>
筱 颖</w>
第11 2</w>
第1 59</w>
竹 园</w>
章 孝
章孝 严</w>
站 岗</w>
突 防</w>
穿 过</w>
空洞 无
空洞无 物</w>
空 喊</w>
稳 住</w>
程 控</w>
稀 释</w>
科罗 拉
种 粮</w>
硕 果</w>
破 解</w>
破 人
破人 亡</w>
研究 班</w>
石 器</w>
知 难而
矢 之
矢之 的</w>
盟 邦</w>
百 倍</w>
登 堡</w>
疏 远</w>
略 去</w>
留 守</w>
男 排</w>
电 热水器</w>
电 工</w>
生生 不息</w>
生 儿
生儿 育女</w>
瓜 和
瓜和 巴布
瓜和巴布 达</w>
班 加
珍 珠
王丙 干</w>
王 维
王 家
王 启
王启 人</w>
玉 石</w>
猖 狂</w>
狂 升</w>
特种 兵</w>
特 森</w>
物 浦</w>
牧 区</w>
牢 骚</w>
牛 奶</w>
爆炸 性</w>
燃 气</w>
烈 风</w>
炼 油
炼油 厂</w>
点 心</w>
炎 热</w>
火 葬场</w>
火 机</w>
激 战</w>
潘 筱颖</w>
滕 文
湖 州</w>
温 州</w>
渔 政</w>
清 政府</w>
润 率</w>
海 岛</w>
浩 荡荡</w>
浩 浩荡荡</w>
浑 身</w>
洞 察</w>
泪 水</w>
波 茨
治 水</w>
油 烟</w>
沥 青</w>
沙 井</w>
汤 曜
汤曜 明</w>
江 山</w>
求 索</w>
求 安定</w>
求 和</w>
水 雷</w>
气 概</w>
民族 自治</w>
民族 之
民族之 林</w>
民 防</w>
毛 磊</w>
残 缺不全</w>
死 守</w>
歧 异</w>
武 韬</w>
正 要</w>
正 义
正义 感</w>
核 战争</w>
枯 燥</w>
杨焕 勤</w>
杨 志刚</w>
李 拯
李拯 宇</w>
权 谋</w>
机关 干部</w>
朝 不
朝不 保
朝不保 夕</w>
有所 不为</w>
有 起色</w>
曾 清楚</w>
曾 宪
曾宪 梓</w>
暴 涨</w>
昙 花一现</w>
明 仁</w>
昆 明市</w>
时 钟</w>
时 时
时时 刻
时时刻 刻</w>
时 任</w>
旧 制</w>
无 边</w>
无 孔
无孔 不入</w>
旗 舰</w>
新 营</w>
新 款</w>
斯特拉 纳</w>
斯特拉 斯堡</w>
斯特凡 诺普洛斯</w>
斯卡尔 法罗</w>
斯 莱</w>
斯 托</w>
斩 首</w>
斩 钉截铁</w>
斩 后
斩后 奏</w>
数字 式</w>
散 步</w>
救 世
救世 主</w>
敌 我</w>
收 视率</w>
撞 机</w>
摩 西</w>
搭 棚</w>
提 瓜和巴布达</w>
掘 开</w>
掀 开</w>
捞 取</w>
挑 拨
挑拨 离间</w>
按 理</w>
持 己见</w>
拼 凑</w>
拆 开</w>
押 解</w>
抹 粉</w>
抵 债</w>
抢 夺</w>
折 合</w>
投机 性</w>
抄 录</w>
承 受
承受 力</w>
托马 斯</w>
托 夫</w>
打 造</w>
打 火机</w>
手术 室</w>
手 纳</w>
所 有
所 到之处</w>
户 数</w>
戈 罗夫</w>
惩 戒</w>
惟 独</w>
怪 论</w>
志 气</w>
志 强</w>
心 上</w>
德 高望重</w>
德 马</w>
微 机</w>
得 奖</w>
徐 徐</w>
影 碟</w>
强 加
强加 于人</w>
张 闻天</w>
张 思
张 左
张左 己</w>
张 宝
张 中
张中 伟</w>
弗 雷
弗 莱
引 退</w>
异 地</w>
开诚 布
开诚布 公</w>
廉洁 奉
廉洁奉 公</w>
康文 署</w>
应 灵</w>
庄 周</w>
幕 幕</w>
幕 墙</w>
帮 工</w>
席 次</w>
帕 斯特拉纳</w>
帕 拉</w>
布 什
巴 巴
巡逻 队</w>
山 芋</w>
尽 心</w>
尼 ·
尔 平</w>
小 失
小失 大</w>
对 撞机</w>
宾 至如归</w>
家 破人亡</w>
家 常
审 订</w>
实 利</w>
定 名</w>
完 满</w>
安全 系数</w>
安 顿</w>
安 提瓜和巴布达</w>
安 康</w>
安 全部</w>
孙广 相</w>
婚 后</w>
威廉 ·
妖 魔</w>
妒 忌</w>
如此 这般</w>
好 大喜
好大喜 功</w>
女 队</w>
失 言</w>
天下之 大不
天下之大不 韪</w>
天 主
大 河</w>
大 放
夜 航</w>
多 端</w>
多 夫</w>
外 貌</w>
夏 鼎基</w>
夏 伟思</w>
备 考</w>
墓 地</w>
堤 坝</w>
基础 科学</w>
域 网</w>
垃圾 站</w>
垂 范</w>
坠 落</w>
均 分</w>
在 行</w>
在 世</w>
圣 母</w>
圣 彼得堡</w>
土库 曼</w>
因 小失大</w>
嘲 弄</w>
嘉 手纳</w>
售 后
售后 服务</w>
咒 骂</w>
周锡 生</w>
周 刚</w>
周 一</w>
吴 光
吴 伯雄</w>
听 任</w>
向 东</w>
后 继</w>
同 谋</w>
合 唱</w>
各 持己见</w>
司 现正</w>
台 下</w>
可 乘
可乘 之
可乘之 机</w>
可 不</w>
古 昌</w>
变 种</w>
变 形</w>
变 作</w>
受 伤者</w>
发射 架</w>
发 证</w>
发 债</w>
反 证</w>
原 籍</w>
历史 观</w>
历 代</w>
印第 安</w>
卡 内</w>
单 打</w>
升 华</w>
十 六点
匹 配</w>
包 机</w>
勤 俭</w>
勃 生机</w>
勃 勃生机</w>
劳 尔</w>
加 工厂</w>
功 臣</w>
办 厂</w>
割 让</w>
制 宪</w>
利 物浦</w>
利 润率</w>
删 减</w>
刘 古昌</w>
刘 儒
刘儒 庭</w>
列 明
切 肤之痛</w>
分 校</w>
分 委会</w>
分 列</w>
几 近</w>
决 赛
冲 刺</w>
冰 场</w>
冒 天下之大不韪</w>
再 见</w>
内 斯库</w>
其 非</w>
共 聚</w>
六 中全会</w>
公 家</w>
八 十五</w>
全 非</w>
入场 费</w>
克 曼</w>
光 毅</w>
先 斩后奏</w>
充 饥</w>
储 户</w>
偷 偷</w>
做 梦</w>
俱 全</w>
保险 局</w>
保 送</w>
保 赤
佩尔 松</w>
何 来</w>
体 字</w>
住 处</w>
伪 科学</w>
会 制</w>
众 矢之的</w>
代 议制</w>
介 面</w>
人民 代表</w>
人 权
人 工
亚 那</w>
云 梯</w>
亏损 额</w>
二十 四点
乳 房</w>
书 法</w>
习 近平</w>
九五 四年</w>
九五 二年</w>
九 百万</w>
乔治 ·
之 钜</w>
义 愤</w>
为民 请命</w>
临 别</w>
中直 机关</w>
中 译本</w>
中 段</w>
两 侧</w>
专 属</w>
不堪 一
不堪一 击</w>
不在 话下</w>
上 岸</w>
上 天</w>
三 类</w>
万 物</w>
万 应灵</w>
七点 五</w>
七 月份</w>
七 十六</w>
七 十万</w>
一点 一
一点一 滴</w>
一九四 一年</w>
一 幕幕</w>
一 个个</w>
ys tem</w>
u p</w>
su b
r y</w>
r y
qu al
por t</w>
po lic
po l
m p
in e</w>
il l</w>
ii ia</w>
i b</w>
gen er
e l</w>
donal d</w>
do c
d er
c y
c ri
c nn</w>
b i</w>
ar e
an t
abil ity</w>
a z
a w
9. 8%</w>
9. 2%</w>
8. 4%</w>
8 500</w>
7. 8</w>
6 80万</w>
6 6万</w>
6 5000</w>
5 万亿</w>
5 600</w>
5 5分</w>
48 000</w>
46 a</w>
40 秒</w>
4 70</w>
4 600</w>
4 3万</w>
39 .
35 秒</w>
30 5</w>
29 7</w>
200 4</w>
2. 4亿</w>
2 30亿</w>
1亿 2</w>
196 2年</w>
195 2年</w>
18 b</w>
18 7
18 .</w>
15 00万</w>
12 月份</w>
100 000</w>
1. 9亿</w>
00 年</w>
0. 48</w>
0. 3</w>
龙 太郎</w>
鼓 劲</w>
黄 花</w>
鲜 活</w>
鲁 尔</w>
高 浓度</w>
高 丽</w>
马 城</w>
马 凯</w>
马 兰</w>
首 日</w>
馆 长</w>
饮 茶</w>
食 客</w>
飓 风</w>
风 能</w>
风 头</w>
额 定</w>
颜 为民</w>
预 想</w>
顽 抗</w>
顺 受</w>
顶 多</w>
音乐 节</w>
音 板</w>
非 同寻常</w>
非 农
非农 产业</w>
霍 夫</w>
零 零
雨 林</w>
雇 工</w>
雄 壮</w>
隔 音板</w>
陡 峭</w>
降 价</w>
陆 费</w>
陆 战</w>
阿斯 塔纳</w>
阿尔巴 尼亚
阿尔及 尔</w>
阿 南
阁 员</w>
闪 烁</w>
门 窗</w>
长 鸣</w>
销 会</w>
铁 笼</w>
钱 树根</w>
金 色</w>
金 润
金润 赫</w>
量 力</w>
重 在</w>
配 电</w>
郭 亚</w>
邮 电部</w>
遽 然</w>
遮 挡</w>
逼 真</w>
逻辑 性</w>
速 率</w>
通讯 业</w>
逆 来
逆来 顺受</w>
连 日</w>
远洋 船</w>
运输 网</w>
迎 风</w>
迈 开</w>
过 海</w>
辛 比
辛比 克
辛比克 党</w>
软 着陆</w>
轩 然大
轩然大 波</w>
轨 电车</w>
身一 变</w>
身 材</w>
身 处
身处 地</w>
身 后</w>
跳 动</w>
路 由
路由 器</w>
跨 过</w>
跌 股</w>
越 发</w>
赵明 录</w>
走 过场</w>
赞助 商</w>
赏 罚</w>
费 希尔</w>
贴 现</w>
贴 现
贴现 率</w>
贯 之</w>
象牙 海岸</w>
象牙 塔</w>
谷野 作
谷野作 太郎</w>
说不 过去</w>
说 了
说了 算</w>
误 判</w>
语 音</w>
该 机</w>
诗 句</w>
识 时务</w>
识 字</w>
诅 咒</w>
设 身处地</w>
讲 坛</w>
让 ·
订 阅</w>
订 正</w>
解 难</w>
西方 人</w>
西 门子</w>
西 米
装 作</w>
行 前</w>
血 债</w>
融 为
融为 一体</w>
蛋 白
蛋白 质</w>
蔚 然
蔚然 成风</w>
蒸 汽</w>
蒲 岗</w>
董 辅</w>
葛林 斯潘</w>
落 水</w>
萨利 赫</w>
营业 税</w>
菲 薄</w>
药 检</w>
荣 辱</w>
苦 水</w>
苦 头</w>
若 惊</w>
苏 南</w>
节 假日</w>
艰 深</w>
航 站</w>
至 名
至名 归</w>
至 伟</w>
自治 县</w>
自寻 短见</w>
自卫 权</w>
自 己
自己 人</w>
自 夸</w>
自 不
脑 汁</w>
脂 抹粉</w>
胡志 明市</w>
胡 言</w>
胡 启
胆 固醇</w>
肌 肉</w>
肃 清</w>
联 机</w>
耸 人听闻</w>
而 至</w>
老 子</w>
美 景</w>
缘 无故</w>
编 织</w>
综合 大学</w>
综 上所述</w>
绳之以 法</w>
绝 伦</w>
绕 过</w>
组 装</w>
纳 德</w>
纳 ·
精 明
米 格</w>
管养 权</w>
第四十 七</w>
第六 十七</w>
第三十 三</w>
第11 8</w>
第1 51</w>
第 120</w>
童 话</w>
立 克</w>
空 空导弹</w>
空 子</w>
种 植
秋 水</w>
禁 赛</w>
票 房</w>
社会 性</w>
碰 巧</w>
硬 化</w>
破天 荒</w>
眷 顾</w>
省 去</w>
监 事</w>
盎 司</w>
皮 革</w>
百 家
百家 争鸣</w>
用 兵</w>
生 灵
生灵 涂
生灵涂 炭</w>
甜 头</w>
甚 嚣
甚嚣 尘
甚嚣尘 上</w>
理 取
理取 闹</w>
班 长</w>
玛 丽
王晓 东</w>
王子 珍</w>
王 发
特 务</w>
父 系</w>
父 子</w>
烧 烤</w>
烙 印</w>
炭 疽</w>
火 头</w>
漫 漫</w>
漫 游</w>
漂 浮</w>
满腔 热情</w>
消 沉</w>
涂 脂抹粉</w>
海 权</w>
浮动 汇率</w>
浮 于事</w>
流 逝</w>
流 经</w>
洛 佩斯</w>
泽 曼</w>
波茨 坦</w>
沙姆 沙伊
沙姆沙伊 赫</w>
沃 斯</w>
污 秽</w>
求 知</w>
水 力发电</w>
水 分</w>
水 体</w>
民 盟</w>
每 期</w>
殷 实</w>
殊 荣</w>
歼 击机</w>
死 板</w>
武 大伟</w>
此 法</w>
正 大</w>
正 告</w>
欢 腾</w>
横 行
榨 取</w>
植 根
植根 于</w>
棋 盘</w>
梳 理</w>
桥 本
桥本 龙太郎</w>
核 动力</w>
枪 决</w>
果 树</w>
枉 法</w>
杰 克
李 道
杂 乱
杂乱 无
杂乱无 章</w>
本 培</w>
朝 阳</w>
朝 换代</w>
服务 器</w>
有可 原</w>
有 钱</w>
有 恃
有恃 无
有恃无 恐</w>
月 革命</w>
月 度</w>
智 商</w>
普 森</w>
普 密
星 星
易 燃
明 令</w>
时 新</w>
旧 社会</w>
日 用品</w>
无 轨电车</w>
无 缘无故</w>
无 理取闹</w>
无 一
施 放</w>
施 令</w>
新闻 记者</w>
新 非</w>
新 贵</w>
新 泽
斯托 扬
斜 度</w>
文 稿</w>
整 数</w>
教 具</w>
敌 情</w>
敌 制胜</w>
改 革
改 朝换代</w>
擦 亮</w>
操 行</w>
摇 身一变</w>
括 弧</w>
拖 车</w>
拉 夫
报 馆</w>
报 时</w>
报 摊</w>
投 案</w>
抓 捕</w>
技术 股</w>
扫雷 舰</w>
扑 救</w>
扎 德</w>
才 兼备</w>
手 榴弹</w>
所有 者</w>
成 都市</w>
成 灾</w>
成 像</w>
成 倍</w>
感染 力</w>
感 召力</w>
想 敌</w>
想 尽</w>
情 趣</w>
情 有可原</w>
总 管</w>
总 指挥</w>
总 后</w>
怜 悯</w>
忍 不住</w>
德 权</w>
德 才兼备</w>
强 逼</w>
强 生</w>
强 敌</w>
强 人</w>
张锦 芳</w>
张志 芹</w>
张 长
张 健
开 审</w>
开 垦</w>
建 功
建功 立业</w>
康 斯坦
应 验</w>
年 前</w>
平 平</w>
平 分</w>
干 净
帕塔 塞</w>
帐 篷</w>
师范 大学</w>
布拉 迪
布 基纳
布基纳 法索</w>
巴拿 马城</w>
巴 库</w>
差瓦 立</w>
工艺 品</w>
州 政府</w>
山 村</w>
展 销会</w>
居 功
居功 至伟</w>
局 域网</w>
尔 尼</w>
小 惠</w>
小 平</w>
寸 土</w>
家常 便
家常便 饭</w>
家 政</w>
审 问</w>
宠 若惊</w>
实 至名归</w>
实 绩</w>
守 护</w>
婉 转</w>
娱 乐
姑 息
姆 松</w>
如 上所述</w>
好 多</w>
奉 辛比克党</w>
太 极</w>
天主 教徒</w>
大陆 架</w>
大 渡
多 发</w>
外 患</w>
外 传</w>
壳 牌</w>
增 势</w>
塔 斯</w>
埃 亚
埃亚 德马</w>
坦 言</w>
坎 帕拉</w>
地 级</w>
地 砖</w>
圭 亚那</w>
在 握</w>
圣 地</w>
国民 收入</w>
国 度</w>
国 史</w>
固 本培</w>
团 里</w>
团 中央</w>
四十 万</w>
嘉 木</w>
商 事</w>
唱 反
唱反 调</w>
唯 利是图</w>
哀 伤</w>
呼和浩 特</w>
呼吸 道</w>
告 吹</w>
吓 唬</w>
向 群</w>
后 来
名 城</w>
合 社</w>
司 制</w>
号 施令</w>
台 长</w>
受 宠若惊</w>
取 材</w>
发 号施令</w>
发 光</w>
厚 禄</w>
历 久</w>
卫 队</w>
卫 国</w>
卫 冕</w>
博 士
博 伊
卓 绝</w>
半 载</w>
十 月革命</w>
十 三亿</w>
匡 正</w>
化 武</w>
勒 斯</w>
劳 合社</w>
劣 汰</w>
加 建</w>
利 雅
利 剑</w>
判 决
判决 书</w>
创 性</w>
刘云 山</w>
刘 明
刘 仲
刑 侦</w>
切 记</w>
分 店</w>
击 退</w>
出 门</w>
凸 现</w>
凤 琴</w>
几 十亿</w>
几 亿</w>
减 亏</w>
准 将</w>
冲绳 县</w>
农 区</w>
军 中</w>
关 东</w>
六 十四</w>
公 证</w>
公 法</w>
公 司制</w>
公 交</w>
八 零年</w>
八 方</w>
八 人</w>
兜 兜</w>
克 敌制胜</w>
光 阴</w>
充 气</w>
元 凶</w>
健 在</w>
偏 好</w>
假 想敌</w>
倒 海</w>
倒 入</w>
俞 铮</w>
保赤 安</w>
保 证书</w>
保 养费</w>
便 览</w>
体 制性</w>
伯 恩斯</w>
伯 利
伦 ·
优胜 劣汰</w>
休 渔</w>
以 贯之</w>
令人 钦佩</w>
付 清</w>
从 快</w>
仁 芳</w>
亿 6</w>
人 节</w>
人 皆知</w>
人 浮于事</w>
亲 生</w>
亲 临</w>
享 乐</w>
亚历山大 ·
亚 平</w>
五 百亿</w>
五 :</w>
于 是
于 斯</w>
二 八</w>
事 之
乔 晓阳</w>
之 长</w>
丽 晶</w>
主 讲</w>
中央 集权</w>
中国 联通</w>
中 生</w>
丧 命</w>
丑 化</w>
不自 量</w>
不 凡</w>
下 跌股</w>
上 等</w>
三 一</w>
一点 三</w>
一点 一</w>
一年 半载</w>
一举 一动</w>
一 项
一 秒</w>
一 千万</w>
一 以贯之</w>
y es</w>
xx iii</w>
w e
u p
tele communic
t ing
of the
n ix</w>
la w
l and
j o
iso 9000</w>
ic ac</w>
i g
i al
hy nix</w>
h k
et y
as soci
[...]
